<unk>	0
<s>	0
</s>	0
ᄏᄏ	-0
..	-1
▁여	-2
▁이	-3
▁여자	-4
▁아	-5
▁남	-6
▁그	-7
▁남자	-8
▁한	-9
▁하	-10
ᄏᄏᄏᄏ	-11
...	-12
▁사	-13
▁안	-14
▁나	-15
들이	-16
하는	-17
▁다	-18
▁보	-19
▁어	-20
▁잘	-21
▁성	-22
하고	-23
▁ᄏᄏ	-24
▁가	-25
▁저	-26
▁있	-27
여자	-28
▁결	-29
▁지	-30
들은	-31
▁좋	-32
는데	-33
▁못	-34
▁자	-35
▁진	-36
▁연	-37
▁왜	-38
는거	-39
▁결혼	-40
!!	-41
▁아니	-42
▁기	-43
다고	-44
▁생	-45
▁없	-46
▁"	-47
▁김	-48
??	-49
~~	-50
▁살	-51
▁인	-52
▁애	-53
▁대	-54
으로	-55
▁만	-56
으면	-57
▁같	-58
▁마	-59
▁너	-60
▁정	-61
▁한남	-62
▁조	-63
▁미	-64
▁무	-65
▁전	-66
▁많	-67
▁부	-68
▁진짜	-69
에서	-70
하면	-71
하지	-72
▁얼	-73
라고	-74
니까	-75
줌마	-76
▁모	-77
▁오	-78
▁일	-79
▁해	-80
▁3	-81
▁노	-82
▁뭐	-83
▁ᄏᄏᄏ	-84
한테	-85
▁ᄏᄏᄏᄏ	-86
▁니	-87
▁여자들	-88
▁돈	-89
▁예	-90
지만	-91
....	-92
▁여자는	-93
▁거	-94
▁시	-95
▁역	-96
댓글	-97
▁개	-98
▁내	-99
▁말	-100
▁임	-101
니다	-102
▁나이	-103
▁남편	-104
▁더	-105
▁수	-106
리고	-107
▁사람	-108
▁고	-109
▁욕	-110
인데	-111
▁바	-112
▁좀	-113
▁그냥	-114
▁너무	-115
▁여자가	-116
▁댓글	-117
▁비	-118
남자	-119
▁관	-120
▁불	-121
▁생각	-122
▁아줌마	-123
ᄒᄒ	-124
▁할	-125
세요	-126
예인	-127
ᄏᄏᄏ	-128
▁또	-129
▁요	-130
쿵쾅	-131
한다	-132
▁30	-133
ᅲᅲ	-134
▁상	-135
▁유	-136
▁피	-137
이라	-138
ᄍᄍ	-139
▁난	-140
▁주	-141
▁현	-142
같은	-143
들아	-144
페미	-145
▁한국	-146
,,	-147
▁누	-148
▁문	-149
▁알	-150
▁화	-151
렇게	-152
이나	-153
하다	-154
▁여성	-155
▁역시	-156
▁남자가	-157
!!️	-158
▁얼굴	-159
▁좋아	-160
▁싫	-161
▁않	-162
▁제	-163
것도	-164
까지	-165
드라	-166
면서	-167
▁임신	-168
▁하는	-169
▁2	-170
▁구	-171
▁되	-172
▁솔	-173
처럼	-174
하네	-175
▁당	-176
▁박	-177
이다	-178
해서	-179
▁이런	-180
▁이혼	-181
▁쿵쾅	-182
드라마	-183
▁1	-184
▁ᄏ	-185
▁몸	-186
▁세	-187
▁재	-188
다는	-189
▁김치	-190
▁만나	-191
▁아닌	-192
▁저런	-193
40	-194
▁맞	-195
▁방	-196
▁악	-197
▁우	-198
이지	-199
한거	-200
▁연예인	-201
▁먹	-202
▁본	-203
겠다	-204
구나	-205
▁최	-206
녀들	-207
와서	-208
▁문제	-209
▁페미	-210
▁근	-211
▁넘	-212
▁언	-213
▁입	-214
▁참	-215
▁했	-216
들어	-217
보다	-218
야지	-219
이네	-220
▁그런	-221
▁솔직	-222
▁악플	-223
▁남자는	-224
!!️!!️	-225
▁계	-226
▁뭔	-227
▁봐	-228
▁빠	-229
▁집	-230
▁힘	-231
년들	-232
이랑	-233
하게	-234
▁요즘	-235
▁드라마	-236
^^	-237
▁.	-238
▁걸	-239
▁설	-240
▁엄	-241
▁열	-242
▁쳐	-243
는게	-244
다가	-245
부터	-246
이고	-247
해라	-248
▁그러	-249
▁여자들이	-250
ᄃᄃ	-251
▁강	-252
▁건	-253
▁늙	-254
▁신	-255
▁장	-256
겠지	-257
는건	-258
마나	-259
배우	-260
▁기사	-261
▁아무	-262
▁잘못	-263
▁잘생	-264
▁남자들	-265
▁솔직히	-266
▁쿵쾅이	-267
;;	-268
▁ᄌ	-269
▁감	-270
▁눈	-271
▁도	-272
▁몰	-273
▁반	-274
▁싶	-275
▁죽	-276
더라	-277
아니	-278
하나	-279
▁같은	-280
▁보고	-281
▁인생	-282
▁여자들은	-283
▁공	-284
▁때	-285
▁스	-286
▁질	-287
돼지	-288
이면	-289
적인	-290
정도	-291
▁ᄍᄍ	-292
▁나오	-293
▁못생	-294
▁자기	-295
▁한남들	-296
▁동	-297
▁머	-298
▁받	-299
▁소	-300
▁와	-301
▁외	-302
▁웃	-303
가지	-304
말고	-305
어서	-306
주고	-307
텐데	-308
해도	-309
▁계집	-310
▁이쁘	-311
▁지금	-312
▁피해	-313
▁얼마나	-314
ᄏᄏᄏᄏᄏ	-315
OO	-316
▁군	-317
▁꼭	-318
▁느	-319
▁메	-320
▁빨	-321
▁손	-322
▁송	-323
▁얘	-324
▁올	-325
▁의	-326
▁잡	-327
▁젊	-328
가는	-329
구만	-330
들도	-331
리는	-332
보고	-333
수도	-334
▁..	-335
▁무슨	-336
▁방송	-337
▁아이	-338
▁아주	-339
▁이상	-340
▁이제	-341
▁그리고	-342
▁것	-343
▁능	-344
▁매	-345
▁술	-346
▁에	-347
▁원	-348
가서	-349
민국	-350
사람	-351
아서	-352
없는	-353
으니	-354
인가	-355
???	-356
▁군대	-357
▁그래	-358
▁그만	-359
▁근데	-360
▁누가	-361
▁능력	-362
▁많은	-363
▁싫어	-364
▁하고	-365
▁하지	-366
하는거	-367
하면서	-368
▁경	-369
▁꽃	-370
▁망	-371
▁버	-372
▁서	-373
▁실	-374
▁존	-375
던데	-376
보니	-377
어도	-378
있는	-379
프로	-380
▁모르	-381
▁몸매	-382
▁미투	-383
▁여기	-384
여자들	-385
이라고	-386
▁아니고	-387
▁아줌마들	-388
▁발	-389
▁쓰	-390
▁천	-391
▁호	-392
▁확	-393
네요	-394
대로	-395
라도	-396
려고	-397
이야	-398
조건	-399
하냐	-400
하니	-401
▁20	-402
▁40	-403
▁ᄒᄒ	-404
▁ᅲᅲ	-405
▁관심	-406
▁꽃뱀	-407
▁다른	-408
▁돼지	-409
▁많이	-410
▁성격	-411
▁세상	-412
▁어린	-413
▁정신	-414
▁질투	-415
▁남편이	-416
>>	-417
ᅳᅳ	-418
▁ᄒ	-419
▁달	-420
▁멋	-421
▁물	-422
▁양	-423
▁적	-424
▁죄	-425
▁차	-426
▁평	-427
먹고	-428
보면	-429
브라	-430
순이	-431
에게	-432
현무	-433
▁ᄌᄂ	-434
▁그럼	-435
▁난리	-436
▁부럽	-437
▁사랑	-438
▁아내	-439
▁연애	-440
▁예쁘	-441
▁우리	-442
▁이쁜	-443
▁하나	-444
는거지	-445
.....	-446
▁꼬	-447
▁낳	-448
▁따	-449
▁딸	-450
▁배	-451
▁별	-452
▁야	-453
▁영	-454
▁찌	-455
▁처	-456
같이	-457
거리	-458
겠네	-459
다니	-460
다면	-461
들만	-462
문에	-463
소리	-464
이냐	-465
잖아	-466
하라	-467
▁대한	-468
▁메갈	-469
▁어디	-470
▁이게	-471
▁젊은	-472
▁좋은	-473
습니다	-474
▁그렇게	-475
▁무조건	-476
▁빠순이	-477
ᄏᄏᄏᄏᄏᄏᄏᄏ	-478
."	-479
▁게	-480
▁꼴	-481
▁끝	-482
▁단	-483
▁둘	-484
▁딱	-485
▁맘	-486
▁벌	-487
▁섹	-488
▁속	-489
▁싸	-490
▁음	-491
▁응	-492
▁작	-493
▁키	-494
▁행	-495
▁후	-496
는지	-497
많은	-498
아라	-499
을까	-500
인이	-501
재현	-502
종국	-503
주는	-504
중에	-505
폭행	-506
혜진	-507
▁^^	-508
▁내가	-509
▁니네	-510
▁당연	-511
▁매력	-512
▁바람	-513
▁사진	-514
▁설리	-515
▁안되	-516
▁없어	-517
▁오지	-518
▁조심	-519
▁한번	-520
▁힘들	-521
적으로	-522
합니다	-523
▁못생긴	-524
▁대한민국	-525
▁8	-526
▁괜	-527
▁글	-528
▁까	-529
▁데	-530
▁백	-531
▁심	-532
▁앞	-533
▁절	-534
▁특	-535
▁함	-536
▁혼	-537
기고	-538
기는	-539
나오	-540
나요	-541
누라	-542
레기	-543
매매	-544
봐라	-545
분들	-546
스타	-547
아야	-548
어나	-549
엄마	-550
이가	-551
지마	-552
친구	-553
해야	-554
!!!	-555
▁가슴	-556
▁같이	-557
▁기자	-558
▁늙은	-559
▁대단	-560
▁마음	-561
▁머리	-562
▁모든	-563
▁시집	-564
▁엄마	-565
▁이유	-566
▁이해	-567
▁있는	-568
같은데	-569
여자는	-570
▁성폭행	-571
▁아니라	-572
▁아니면	-573
▁여자도	-574
▁전현무	-575
▁한녀들	-576
ᄏᄏᄏᄏᄏᄏᄏ	-577
▁ᄋ	-578
▁날	-579
▁됐	-580
▁될	-581
▁떠	-582
▁먼	-583
▁억	-584
▁젖	-585
▁중	-586
▁직	-587
▁징	-588
▁추	-589
▁크	-590
▁큰	-591
▁팬	-592
▁홍	-593
결혼	-594
년이	-595
놓고	-596
들을	-597
러운	-598
만나	-599
범죄	-600
부분	-601
업소	-602
에는	-603
을듯	-604
인생	-605
치고	-606
희롱	-607
,,,	-608
~~~	-609
▁10	-610
▁ᄃᄃ	-611
▁니들	-612
▁들어	-613
▁보니	-614
▁보면	-615
▁비율	-616
▁수준	-617
▁아님	-618
▁엄청	-619
▁없는	-620
▁열폭	-621
▁외모	-622
▁응원	-623
▁이래	-624
▁이미	-625
▁있다	-626
▁진심	-627
연예인	-628
지말고	-629
▁아니다	-630
▁이렇게	-631
▁피해자	-632
▁9	-633
▁걍	-634
▁과	-635
▁냄	-636
▁답	-637
▁두	-638
▁뒤	-639
▁똑	-640
▁산	-641
▁새	-642
▁선	-643
▁승	-644
▁으	-645
▁잠	-646
▁치	-647
▁커	-648
▁코	-649
▁판	-650
▁패	-651
▁허	-652
걱정	-653
겠냐	-654
나라	-655
나이	-656
남편	-657
아가	-658
아이	-659
정이	-660
좋아	-661
지고	-662
지는	-663
지도	-664
체가	-665
퇘지	-666
하시	-667
항상	-668
해주	-669
OOO	-670
▁결국	-671
▁그렇	-672
▁노처	-673
▁불쌍	-674
▁불편	-675
▁빨아	-676
▁사과	-677
▁상처	-678
▁성별	-679
▁싶다	-680
▁아직	-681
▁언제	-682
▁연기	-683
▁연하	-684
▁예능	-685
▁이건	-686
▁일본	-687
▁자식	-688
▁저러	-689
▁최고	-690
▁하여	-691
▁한다	-692
▁해라	-693
▁현실	-694
▁화사	-695
▁확실	-696
들한테	-697
여자가	-698
여자랑	-699
이라도	-700
하는게	-701
했으면	-702
▁성매매	-703
▁성희롱	-704
▁어리고	-705
▁여자로	-706
▁남자들은	-707
▁?	-708
▁극	-709
▁급	-710
▁널	-711
▁높	-712
▁돌	-713
▁듣	-714
▁들	-715
▁등	-716
▁떨	-717
▁똥	-718
▁막	-719
▁맛	-720
▁면	-721
▁믿	-722
▁밥	-723
▁볼	-724
▁분	-725
▁빼	-726
▁약	-727
▁편	-728
▁필	-729
▁합	-730
▁헤	-731
가리	-732
관계	-733
그냥	-734
그러	-735
그룹	-736
나가	-737
나래	-738
놈이	-739
더니	-740
라는	-741
리네	-742
맨날	-743
머니	-744
모르	-745
보네	-746
보여	-747
봐도	-748
스럽	-749
어진	-750
었다	-751
에선	-752
여성	-753
은거	-754
이는	-755
적이	-756
줘야	-757
폭력	-758
한데	-759
▁25	-760
▁같아	-761
▁걱정	-762
▁관리	-763
▁나쁜	-764
▁누구	-765
▁다시	-766
▁몰려	-767
▁뭔가	-768
▁배우	-769
▁사실	-770
▁아깝	-771
▁애들	-772
▁어려	-773
▁업소	-774
▁없다	-775
▁예쁜	-776
▁이기	-777
▁전부	-778
▁정도	-779
▁정말	-780
▁조용	-781
▁존나	-782
▁하네	-783
▁하면	-784
▁한녀	-785
겠지만	-786
들이나	-787
때문에	-788
였으면	-789
을텐데	-790
하는데	-791
▁구하라	-792
▁나이가	-793
▁마누라	-794
▁부럽다	-795
▁사람들	-796
▁아닌데	-797
▁아무리	-798
▁여자를	-799
▁이래서	-800
▁이쁘고	-801
▁있는데	-802
▁하는거	-803
▁한혜진	-804
!!️!!️!!️!!️	-805
ᅮᅮ	-806
▁,	-807
▁:	-808
▁갑	-809
▁국	-810
▁깨	-811
▁끼	-812
▁논	-813
▁놀	-814
▁닮	-815
▁로	-816
▁밤	-817
▁색	-818
▁순	-819
▁완	-820
▁용	-821
▁찍	-822
▁책	-823
▁청	-824
▁초	-825
▁출	-826
▁팔	-827
▁표	-828
거나	-829
거지	-830
그래	-831
기도	-832
기로	-833
나서	-834
냐들	-835
년은	-836
드립	-837
라면	-838
라서	-839
러워	-840
리가	-841
리도	-842
밖에	-843
비율	-844
스트	-845
시다	-846
애들	-847
없음	-848
을거	-849
이상	-850
인듯	-851
인줄	-852
자나	-853
지가	-854
혜선	-855
▁가능	-856
▁가장	-857
▁괜찮	-858
▁그게	-859
▁그럴	-860
▁김태	-861
▁누군	-862
▁다니	-863
▁많아	-864
▁면상	-865
▁뭐가	-866
▁보기	-867
▁봐라	-868
▁부들	-869
▁사귀	-870
▁아나	-871
▁자랑	-872
▁평생	-873
▁항상	-874
▁행복	-875
▁현아	-876
▁화장	-877
들이랑	-878
입니다	-879
종국이	-880
했다고	-881
!!!!	-882
▁...	-883
▁OOO	-884
▁같은데	-885
▁결혼하	-886
▁결혼할	-887
▁구혜선	-888
▁그것도	-889
▁그래도	-890
▁그렇고	-891
▁김치녀	-892
▁나와서	-893
▁당연히	-894
▁돈많은	-895
▁만들어	-896
▁못하는	-897
▁박나래	-898
▁쓰레기	-899
▁아닌가	-900
▁여배우	-901
▁여자랑	-902
▁인스타	-903
▁잘생긴	-904
▁저렇게	-905
▁하는건	-906
▁한남충	-907
▁5	-908
▁=	-909
▁s	-910
▁ᅲ	-911
▁권	-912
▁뭘	-913
▁밝	-914
▁베	-915
▁쉬	-916
▁쓸	-917
▁암	-918
▁엉	-919
▁종	-920
▁줄	-921
▁쯧	-922
▁챙	-923
▁철	-924
▁충	-925
▁카	-926
▁탈	-927
▁태	-928
▁티	-929
▁팩	-930
▁포	-931
▁풀	-932
▁형	-933
같다	-934
고싶	-935
그런	-936
기가	-937
끼리	-938
나는	-939
난다	-940
녀가	-941
되는	-942
듯이	-943
떻게	-944
려라	-945
려면	-946
리면	-947
만큼	-948
문제	-949
부들	-950
성이	-951
수준	-952
쉴드	-953
시고	-954
시켜	-955
어가	-956
없다	-957
었네	-958
에도	-959
운동	-960
운서	-961
을때	-962
이니	-963
인지	-964
있음	-965
자기	-966
쟁이	-967
저씨	-968
전에	-969
준영	-970
진심	-971
진짜	-972
하자	-973
해보	-974
해자	-975
했다	-976
혜교	-977
;;;	-978
▁나도	-979
▁노래	-980
▁노출	-981
▁느끼	-982
▁더럽	-983
▁마약	-984
▁맨날	-985
▁먼저	-986
▁미친	-987
▁별로	-988
▁보여	-989
▁본다	-990
▁본인	-991
▁부부	-992
▁살빼	-993
▁상폐	-994
▁생긴	-995
▁성상	-996
▁성형	-997
▁섹시	-998
▁손절	-999
▁아들	-1000
▁어떤	-1001
▁에휴	-1002
▁여우	-1003
▁연상	-1004
▁영화	-1005
▁이러	-1006
▁이성	-1007
▁인간	-1008
▁인정	-1009
▁절대	-1010
▁정상	-1011
▁제목	-1012
▁제발	-1013
▁줌마	-1014
▁지랄	-1015
▁책임	-1016
▁혼자	-1017
가지고	-1018
는거야	-1019
다는걸	-1020
범죄자	-1021
으니까	-1022
이라는	-1023
이지만	-1024
하는건	-1025
한것도	-1026
▁그런거	-1027
▁남자로	-1028
▁남자만	-1029
▁노브라	-1030
▁니들은	-1031
▁못하고	-1032
▁아니냐	-1033
▁아이돌	-1034
▁안재현	-1035
▁어떻게	-1036
▁언냐들	-1037
▁여자만	-1038
▁여자의	-1039
▁잘생겼	-1040
▁잘하고	-1041
▁조재현	-1042
▁좋다고	-1043
▁남자들이	-1044
▁부들부들	-1045
▁빠순이들	-1046
▁사람들이	-1047
▁아나운서	-1048
▁진심으로	-1049
▁쿵쾅이들	-1050
▁한국남자	-1051
▁한국여자	-1052
▁ᄏᄏᄏᄏᄏ	-1053
▁쿵쾅이들이	-1054
▁ᄏᄏᄏᄏᄏᄏ	-1055
!?	-1056
0%	-1057
▁4	-1058
▁7	-1059
▁~	-1060
▁ᄇ	-1061
▁ᄉ	-1062
▁간	-1063
▁겁	-1064
▁골	-1065
▁궁	-1066
▁꿀	-1067
▁낮	-1068
▁네	-1069
▁된	-1070
▁드	-1071
▁뚱	-1072
▁러	-1073
▁레	-1074
▁리	-1075
▁몇	-1076
▁묻	-1077
▁벗	-1078
▁변	-1079
▁봤	-1080
▁숨	-1081
▁슬	-1082
▁씨	-1083
▁온	-1084
▁위	-1085
▁윤	-1086
▁점	-1087
▁졸	-1088
▁좌	-1089
▁증	-1090
▁짓	-1091
▁창	-1092
▁축	-1093
▁취	-1094
▁칼	-1095
▁토	-1096
▁통	-1097
▁투	-1098
▁폐	-1099
▁핑	-1100
▁홀	-1101
▁훨	-1102
가나	-1103
거든	-1104
건가	-1105
것들	-1106
겠어	-1107
겨서	-1108
국주	-1109
기만	-1110
기사	-1111
기에	-1112
까워	-1113
나네	-1114
남들	-1115
년전	-1116
느라	-1117
는다	-1118
니깐	-1119
니들	-1120
당히	-1121
대는	-1122
더만	-1123
던가	-1124
동안	-1125
려서	-1126
마다	-1127
만한	-1128
맨스	-1129
먹은	-1130
먹을	-1131
물이	-1132
반인	-1133
병헌	-1134
보내	-1135
보는	-1136
사이	-1137
새끼	-1138
생각	-1139
생활	-1140
시네	-1141
신은	-1142
신이	-1143
싶다	-1144
아닌	-1145
았다	-1146
야함	-1147
어린	-1148
어요	-1149
어울	-1150
얼굴	-1151
없이	-1152
었나	-1153
연기	-1154
요즘	-1155
우는	-1156
은데	-1157
이란	-1158
이를	-1159
이스	-1160
이있	-1161
이제	-1162
이팅	-1163
이해	-1164
인거	-1165
있고	-1166
있어	-1167
있지	-1168
자리	-1169
차피	-1170
충들	-1171
크고	-1172
키로	-1173
품화	-1174
하며	-1175
한건	-1176
할듯	-1177
할때	-1178
할수	-1179
해줘	-1180
했나	-1181
혼자	-1182
~40	-1183
▁ᅮᅮ	-1184
▁ᅳᅳ	-1185
▁가만	-1186
▁가정	-1187
▁고생	-1188
▁고소	-1189
▁공개	-1190
▁관종	-1191
▁그리	-1192
▁극혐	-1193
▁기안	-1194
▁나왔	-1195
▁남녀	-1196
▁남친	-1197
▁냄새	-1198
▁니가	-1199
▁다르	-1200
▁대체	-1201
▁돈이	-1202
▁동영	-1203
▁되는	-1204
▁둘다	-1205
▁따라	-1206
▁많네	-1207
▁모델	-1208
▁못하	-1209
▁못할	-1210
▁뭐냐	-1211
▁바꿔	-1212
▁보는	-1213
▁보이	-1214
▁봐도	-1215
▁부모	-1216
▁불륜	-1217
▁브라	-1218
▁비난	-1219
▁사내	-1220
▁사회	-1221
▁살이	-1222
▁살인	-1223
▁생겼	-1224
▁서울	-1225
▁성공	-1226
▁성적	-1227
▁세계	-1228
▁수영	-1229
▁술집	-1230
▁쉴드	-1231
▁싫다	-1232
▁아는	-1233
▁아쉽	-1234
▁안돼	-1235
▁안타	-1236
▁않은	-1237
▁알아	-1238
▁애를	-1239
▁억울	-1240
▁여시	-1241
▁여주	-1242
▁여편	-1243
▁올려	-1244
▁원래	-1245
▁이모	-1246
▁이뻐	-1247
▁이야	-1248
▁입장	-1249
▁있고	-1250
▁있나	-1251
▁있지	-1252
▁저게	-1253
▁조사	-1254
▁지들	-1255
▁집에	-1256
▁징징	-1257
▁친구	-1258
▁팩트	-1259
▁한채	-1260
▁해야	-1261
▁힘내	-1262
▁힘든	-1263
남자가	-1264
남자는	-1265
남자를	-1266
년들은	-1267
보세요	-1268
아줌마	-1269
았으면	-1270
었다고	-1271
정도로	-1272
하네요	-1273
하는것	-1274
하세요	-1275
하지만	-1276
한거지	-1277
한다고	-1278
했는데	-1279
>>>>	-1280
▁ᄍᄍᄍ	-1281
▁가지고	-1282
▁걸그룹	-1283
▁그래서	-1284
▁남자를	-1285
▁남자집	-1286
▁때문에	-1287
▁모르고	-1288
▁보니까	-1289
▁사람이	-1290
▁세상에	-1291
▁알아서	-1292
▁여기서	-1293
▁연하남	-1294
▁예쁘다	-1295
▁이국주	-1296
▁이미지	-1297
▁이유가	-1298
▁자기가	-1299
▁자체가	-1300
▁좋겠다	-1301
▁집에서	-1302
▁하여간	-1303
▁하지마	-1304
▁확실히	-1305
▁성상품화	-1306
▁송종국이	-1307
▁우리나라	-1308
▁이제와서	-1309
▁잘생기고	-1310
▁한남들아	-1311
▁한남들이	-1312
......	-1313
▁여자연예인	-1314
▁한국여자들	-1315
▁ᄏᄏᄏᄏᄏᄏᄏᄏ	-1316
!"	-1317
?!	-1318
ᄌᄅ	-1319
▁-	-1320
▁6	-1321
▁c	-1322
▁d	-1323
▁ᄂ	-1324
▁갓	-1325
▁갔	-1326
▁괴	-1327
▁금	-1328
▁꾸	-1329
▁녀	-1330
▁뉴	-1331
▁늘	-1332
▁됨	-1333
▁뒷	-1334
▁듯	-1335
▁떡	-1336
▁민	-1337
▁복	-1338
▁붙	-1339
▁빌	-1340
▁뻔	-1341
▁삼	-1342
▁슈	-1343
▁슴	-1344
▁써	-1345
▁옷	-1346
▁왕	-1347
▁워	-1348
▁육	-1349
▁잊	-1350
▁접	-1351
▁즐	-1352
▁짜	-1353
▁쪽	-1354
▁친	-1355
▁타	-1356
▁퇴	-1357
▁트	-1358
▁학	-1359
▁혹	-1360
▁효	-1361
♡♡	-1362
가라	-1363
가면	-1364
가없	-1365
간에	-1366
간이	-1367
거다	-1368
거임	-1369
건데	-1370
걸로	-1371
고생	-1372
관리	-1373
굳이	-1374
나도	-1375
나온	-1376
나잇	-1377
남이	-1378
낳는	-1379
니가	-1380
당한	-1381
대도	-1382
뎅이	-1383
도가	-1384
드만	-1385
들의	-1386
라리	-1387
라이	-1388
라지	-1389
랄까	-1390
러우	-1391
르셋	-1392
리지	-1393
많고	-1394
며느	-1395
명이	-1396
명한	-1397
모습	-1398
미가	-1399
미도	-1400
민기	-1401
보기	-1402
보이	-1403
비누	-1404
사는	-1405
사랑	-1406
살아	-1407
상이	-1408
석이	-1409
성애	-1410
셔요	-1411
싶고	-1412
아를	-1413
아치	-1414
애비	-1415
야됨	-1416
어라	-1417
어리	-1418
어지	-1419
언니	-1420
었음	-1421
었지	-1422
예요	-1423
운전	-1424
원은	-1425
이쁜	-1426
이유	-1427
인다	-1428
인은	-1429
있게	-1430
정말	-1431
제도	-1432
져라	-1433
종범	-1434
좋은	-1435
주면	-1436
중기	-1437
즈아	-1438
지게	-1439
지다	-1440
지면	-1441
지섭	-1442
지않	-1443
지영	-1444
지환	-1445
진다	-1446
짓을	-1447
쩐다	-1448
쳐서	-1449
초에	-1450
총각	-1451
촬영	-1452
출연	-1453
치심	-1454
태현	-1455
하긴	-1456
한가	-1457
했네	-1458
했던	-1459
했어	-1460
호감	-1461
희는	-1462
히는	-1463
.."	-1464
▁18	-1465
▁80	-1466
▁82	-1467
▁~~	-1468
▁가졌	-1469
▁강간	-1470
▁같다	-1471
▁건들	-1472
▁걸크	-1473
▁겁나	-1474
▁고만	-1475
▁관계	-1476
▁괴롭	-1477
▁기분	-1478
▁꼭지	-1479
▁나라	-1480
▁나쁘	-1481
▁나온	-1482
▁남성	-1483
▁남의	-1484
▁남이	-1485
▁노답	-1486
▁느낌	-1487
▁데려	-1488
▁돈도	-1489
▁돈벌	-1490
▁두번	-1491
▁둘이	-1492
▁똑똑	-1493
▁레즈	-1494
▁마찬	-1495
▁말고	-1496
▁맞는	-1497
▁맞춰	-1498
▁멋있	-1499
▁무섭	-1500
▁미개	-1501
▁미국	-1502
▁믿고	-1503
▁바로	-1504
▁보내	-1505
▁보소	-1506
▁보임	-1507
▁봐야	-1508
▁사건	-1509
▁사고	-1510
▁살고	-1511
▁생기	-1512
▁서현	-1513
▁설현	-1514
▁성비	-1515
▁섹스	-1516
▁솔까	-1517
▁스타	-1518
▁시작	-1519
▁신고	-1520
▁아래	-1521
▁아예	-1522
▁아줌	-1523
▁안나	-1524
▁안쓰	-1525
▁안해	-1526
▁애기	-1527
▁야동	-1528
▁얘도	-1529
▁어느	-1530
▁어딜	-1531
▁어울	-1532
▁어휴	-1533
▁언젠	-1534
▁여러	-1535
▁여럿	-1536
▁여혐	-1537
▁역겹	-1538
▁열등	-1539
▁오늘	-1540
▁올라	-1541
▁완전	-1542
▁왜케	-1543
▁유부	-1544
▁음악	-1545
▁음주	-1546
▁이던	-1547
▁이딴	-1548
▁이쁨	-1549
▁이종	-1550
▁인기	-1551
▁인성	-1552
▁있네	-1553
▁있어	-1554
▁자신	-1555
▁잘나	-1556
▁잘만	-1557
▁잘살	-1558
▁잡아	-1559
▁재력	-1560
▁재밌	-1561
▁저질	-1562
▁전형	-1563
▁제일	-1564
▁조금	-1565
▁조신	-1566
▁좋았	-1567
▁중요	-1568
▁진지	-1569
▁쯧쯧	-1570
▁찌질	-1571
▁처럼	-1572
▁최소	-1573
▁축하	-1574
▁충분	-1575
▁특징	-1576
▁특히	-1577
▁패라	-1578
▁프로	-1579
▁피부	-1580
▁필요	-1581
▁하겠	-1582
▁하냐	-1583
▁하늘	-1584
▁한심	-1585
▁할때	-1586
▁할일	-1587
▁합의	-1588
▁해도	-1589
▁현빈	-1590
▁혼전	-1591
것들이	-1592
나보다	-1593
네ᄏᄏ	-1594
년들의	-1595
년들이	-1596
다는게	-1597
달라고	-1598
라는거	-1599
아니고	-1600
아이돌	-1601
안하고	-1602
았다고	-1603
었는데	-1604
여자도	-1605
으면서	-1606
이라니	-1607
정도면	-1608
정이입	-1609
지마라	-1610
집에서	-1611
하겠다	-1612
하지마	-1613
해야지	-1614
~~~~	-1615
▁가즈아	-1616
▁갑자기	-1617
▁강지환	-1618
▁결혼을	-1619
▁꼴페미	-1620
▁나오는	-1621
▁난리치	-1622
▁남자랑	-1623
▁넘으면	-1624
▁노처녀	-1625
▁누군지	-1626
▁대부분	-1627
▁댓글에	-1628
▁더러운	-1629
▁돈주고	-1630
▁만나라	-1631
▁만나서	-1632
▁많은데	-1633
▁모르는	-1634
▁문제가	-1635
▁문제야	-1636
▁뭐라고	-1637
▁미투는	-1638
▁불편해	-1639
▁사세요	-1640
▁성격도	-1641
▁소지섭	-1642
▁수영복	-1643
▁아깝다	-1644
▁아닌듯	-1645
▁아이즈	-1646
▁아저씨	-1647
▁아직도	-1648
▁안타깝	-1649
▁안하고	-1650
▁안하면	-1651
▁양아치	-1652
▁어차피	-1653
▁얼굴이	-1654
▁없어요	-1655
▁여성들	-1656
▁오지네	-1657
▁이병헌	-1658
▁이혼이	-1659
▁일반인	-1660
▁임신도	-1661
▁임신이	-1662
▁있다고	-1663
▁정신차	-1664
▁정준영	-1665
▁조용히	-1666
▁페미는	-1667
▁하는데	-1668
▁하면서	-1669
▁해야지	-1670
▁화이팅	-1671
하는사람	-1672
하지말고	-1673
▁감정이입	-1674
▁결혼하면	-1675
▁계집들은	-1676
▁김치녀들	-1677
▁나이많은	-1678
▁노처녀들	-1679
▁몰려와서	-1680
▁예능에서	-1681
▁인스타에	-1682
▁전형적인	-1683
▁조심해라	-1684
▁응원합니다	-1685
▁쿵쾅이들아	-1686
▁ᄏᄏᄏᄏᄏᄏᄏᄏᄏᄏᄏ	-1687
▁ᄏᄏᄏᄏᄏᄏᄏᄏᄏᄏᄏᄏ	-1688
,"	-1689
.!	-1690
.1	-1691
20	-1692
30	-1693
an	-1694
er	-1695
ns	-1696
ww	-1697
ᄅᄋ	-1698
ᆢᆢ	-1699
▁>	-1700
▁^	-1701
▁b	-1702
▁ᄀ	-1703
▁ᄃ	-1704
▁ᄍ	-1705
▁‘	-1706
▁갖	-1707
▁곧	-1708
▁광	-1709
▁귀	-1710
▁깔	-1711
▁깡	-1712
▁꺼	-1713
▁끌	-1714
▁낫	-1715
▁났	-1716
▁넌	-1717
▁놈	-1718
▁뇌	-1719
▁뇬	-1720
▁늦	-1721
▁담	-1722
▁돋	-1723
▁뜰	-1724
▁명	-1725
▁목	-1726
▁밭	-1727
▁벼	-1728
▁병	-1729
▁북	-1730
▁빚	-1731
▁빵	-1732
▁빻	-1733
▁쉽	-1734
▁싹	-1735
▁앉	-1736
▁엥	-1737
▁옛	-1738
▁왔	-1739
▁왠	-1740
▁울	-1741
▁쟤	-1742
▁준	-1743
▁줌	-1744
▁짱	-1745
▁쫑	-1746
▁찔	-1747
▁착	-1748
▁찾	-1749
▁채	-1750
▁첫	-1751
▁춤	-1752
▁캐	-1753
▁케	-1754
▁쿨	-1755
▁클	-1756
▁틀	-1757
▁파	-1758
▁헐	-1759
▁혈	-1760
▁협	-1761
▁환	-1762
▁황	-1763
▁회	-1764
▁휴	-1765
▁희	-1766
▁히	-1767
가고	-1768
가진	-1769
감은	-1770
갔을	-1771
강지	-1772
같고	-1773
같음	-1774
거야	-1775
건모	-1776
걸고	-1777
걸까	-1778
것은	-1779
것을	-1780
겠나	-1781
겨운	-1782
겨워	-1783
결합	-1784
고만	-1785
국민	-1786
근데	-1787
까요	-1788
꺼같	-1789
나마	-1790
나면	-1791
난리	-1792
남성	-1793
났다	-1794
낳고	-1795
냄새	-1796
냐고	-1797
너무	-1798
넘은	-1799
네가	-1800
네는	-1801
놈들	-1802
놔라	-1803
누가	-1804
님이	-1805
단다	-1806
담스	-1807
답게	-1808
도록	-1809
되나	-1810
된다	-1811
둥이	-1812
드폰	-1813
라시	-1814
러쉬	-1815
려요	-1816
로운	-1817
로지	-1818
르르	-1819
르면	-1820
를까	-1821
리를	-1822
린다	-1823
마드	-1824
만명	-1825
매력	-1826
먹네	-1827
메라	-1828
메이	-1829
면이	-1830
미투	-1831
민정	-1832
바람	-1833
바지	-1834
받고	-1835
받을	-1836
받지	-1837
번째	-1838
벽에	-1839
보게	-1840
보냐	-1841
보단	-1842
보소	-1843
부가	-1844
불쌍	-1845
비슷	-1846
사님	-1847
사진	-1848
상에	-1849
생김	-1850
생민	-1851
성형	-1852
소나	-1853
소에	-1854
소원	-1855
속은	-1856
수가	-1857
수록	-1858
수없	-1859
스로	-1860
시길	-1861
시켰	-1862
시키	-1863
싫어	-1864
심히	-1865
아까	-1866
아도	-1867
아파	-1868
안되	-1869
애액	-1870
양녀	-1871
어뜯	-1872
어로	-1873
어볼	-1874
어져	-1875
어질	-1876
업이	-1877
에요	-1878
여서	-1879
여행	-1880
역이	-1881
영이	-1882
예원	-1883
오는	-1884
올려	-1885
웃긴	-1886
원래	-1887
은게	-1888
은이	-1889
의식	-1890
이되	-1891
이트	-1892
이프	-1893
인권	-1894
인들	-1895
인에	-1896
자는	-1897
자들	-1898
장님	-1899
장에	-1900
저기	-1901
정연	-1902
제가	-1903
져서	-1904
조가	-1905
줄알	-1906
줘라	-1907
지간	-1908
지막	-1909
지말	-1910
진이	-1911
질도	-1912
짓만	-1913
짓말	-1914
짓은	-1915
취급	-1916
친거	-1917
키우	-1918
타령	-1919
타지	-1920
하노	-1921
하든	-1922
하러	-1923
한게	-1924
한번	-1925
할만	-1926
향이	-1927
현주	-1928
혐오	-1929
히고	-1930
!?️	-1931
ᅲᅲᅲ	-1932
▁17	-1933
▁ᄇᄉ	-1934
▁ᄋᄋ	-1935
▁가수	-1936
▁가스	-1937
▁감정	-1938
▁감히	-1939
▁강요	-1940
▁같네	-1941
▁같음	-1942
▁개빻	-1943
▁거다	-1944
▁거르	-1945
▁거의	-1946
▁건강	-1947
▁건모	-1948
▁경제	-1949
▁경찰	-1950
▁계속	-1951
▁고마	-1952
▁공부	-1953
▁공효	-1954
▁과거	-1955
▁괜히	-1956
▁굳이	-1957
▁그거	-1958
▁그걸	-1959
▁그성	-1960
▁기다	-1961
▁기본	-1962
▁기억	-1963
▁김원	-1964
▁까지	-1965
▁깡패	-1966
▁꾸미	-1967
▁나와	-1968
▁남잔	-1969
▁낳고	-1970
▁낳으	-1971
▁내용	-1972
▁냄비	-1973
▁너도	-1974
▁너희	-1975
▁노산	-1976
▁노잼	-1977
▁논리	-1978
▁놈이	-1979
▁뉴스	-1980
▁느그	-1981
▁다가	-1982
▁다들	-1983
▁다리	-1984
▁다음	-1985
▁도박	-1986
▁됐을	-1987
▁뚱뚱	-1988
▁라는	-1989
▁마른	-1990
▁만족	-1991
▁말도	-1992
▁매일	-1993
▁먹고	-1994
▁먹는	-1995
▁멋진	-1996
▁며느	-1997
▁모유	-1998
▁몰라	-1999
▁못한	-2000
▁무시	-2001
▁무죄	-2002
▁물론	-2003
▁뭐야	-2004
▁미나	-2005
▁미모	-2006
▁미워	-2007
▁미쳤	-2008
▁바닥	-2009
▁박해	-2010
▁반성	-2011
▁받고	-2012
▁받는	-2013
▁받아	-2014
▁발언	-2015
▁방탄	-2016
▁벌받	-2017
▁베댓	-2018
▁벼슬	-2019
▁보네	-2020
▁보통	-2021
▁부자	-2022
▁빠는	-2023
▁빨고	-2024
▁사기	-2025
▁사형	-2026
▁산이	-2027
▁살다	-2028
▁살려	-2029
▁살면	-2030
▁상관	-2031
▁상대	-2032
▁생활	-2033
▁성욕	-2034
▁소름	-2035
▁소유	-2036
▁순수	-2037
▁술마	-2038
▁쉽게	-2039
▁스토	-2040
▁실망	-2041
▁싶음	-2042
▁싸우	-2043
▁아프	-2044
▁안들	-2045
▁않고	-2046
▁않나	-2047
▁않아	-2048
▁알고	-2049
▁애도	-2050
▁애미	-2051
▁얘기	-2052
▁얘는	-2053
▁어쩌	-2054
▁어쩔	-2055
▁없고	-2056
▁없인	-2057
▁연락	-2058
▁연예	-2059
▁오래	-2060
▁오크	-2061
▁옷이	-2062
▁와서	-2063
▁완벽	-2064
▁요구	-2065
▁욕함	-2066
▁용서	-2067
▁운동	-2068
▁웃긴	-2069
▁워너	-2070
▁유독	-2071
▁유명	-2072
▁유치	-2073
▁으휴	-2074
▁이년	-2075
▁이소	-2076
▁이시	-2077
▁이젠	-2078
▁이중	-2079
▁인물	-2080
▁인터	-2081
▁일단	-2082
▁일부	-2083
▁임산	-2084
▁입고	-2085
▁입었	-2086
▁있을	-2087
▁있음	-2088
▁자꾸	-2089
▁자살	-2090
▁자연	-2091
▁자유	-2092
▁작작	-2093
▁작품	-2094
▁잘버	-2095
▁잡고	-2096
▁장난	-2097
▁재미	-2098
▁재앙	-2099
▁저거	-2100
▁저걸	-2101
▁저랬	-2102
▁저리	-2103
▁적은	-2104
▁전에	-2105
▁정확	-2106
▁젖꼭	-2107
▁조개	-2108
▁좋네	-2109
▁좋다	-2110
▁죄가	-2111
▁죄다	-2112
▁주먹	-2113
▁주작	-2114
▁지키	-2115
▁직업	-2116
▁짜증	-2117
▁쩐다	-2118
▁창피	-2119
▁쳐먹	-2120
▁쳐보	-2121
▁취집	-2122
▁커리	-2123
▁커플	-2124
▁크게	-2125
▁키작	-2126
▁탈코	-2127
▁퇴물	-2128
▁투표	-2129
▁티비	-2130
▁판단	-2131
▁팔자	-2132
▁폭력	-2133
▁표정	-2134
▁피임	-2135
▁핑계	-2136
▁하긴	-2137
▁하자	-2138
▁한걸	-2139
▁한명	-2140
▁한쪽	-2141
▁해서	-2142
▁협박	-2143
▁호감	-2144
▁혹시	-2145
▁홍진	-2146
▁확정	-2147
▁훨씬	-2148
가보네	-2149
강지처	-2150
나보네	-2151
남자랑	-2152
남편과	-2153
났는데	-2154
년들아	-2155
는거냐	-2156
는거임	-2157
덩어리	-2158
러우면	-2159
러워서	-2160
리면서	-2161
마누라	-2162
맙시다	-2163
보여서	-2164
보인다	-2165
사람은	-2166
수없는	-2167
스럽게	-2168
아니냐	-2169
아닌가	-2170
아야지	-2171
애들이	-2172
액비누	-2173
엄마가	-2174
으려고	-2175
이라면	-2176
인가요	-2177
일수도	-2178
자체가	-2179
쟁이들	-2180
정도는	-2181
쳐먹고	-2182
피해자	-2183
하는지	-2184
하더라	-2185
하라고	-2186
하지말	-2187
한거고	-2188
한거임	-2189
한다는	-2190
한테만	-2191
핸드폰	-2192
ᄒᄒᄒᄒ	-2193
▁ᄋᄌᄅ	-2194
▁ᄒᄃᄃ	-2195
▁가해자	-2196
▁갓양녀	-2197
▁개소리	-2198
▁것들이	-2199
▁결혼식	-2200
▁결혼은	-2201
▁결혼한	-2202
▁계집들	-2203
▁그러네	-2204
▁그런가	-2205
▁그런건	-2206
▁꼬라지	-2207
▁나오면	-2208
▁나이차	-2209
▁나중에	-2210
▁남주는	-2211
▁남태현	-2212
▁낳아서	-2213
▁노이해	-2214
▁눈물이	-2215
▁대가리	-2216
▁댓글이	-2217
▁데이트	-2218
▁돈많고	-2219
▁동성애	-2220
▁동영상	-2221
▁러브라	-2222
▁로맨스	-2223
▁마지막	-2224
▁만지고	-2225
▁맘충들	-2226
▁며느리	-2227
▁모든게	-2228
▁몰려오	-2229
▁몸매는	-2230
▁바꿔서	-2231
▁반대로	-2232
▁버리고	-2233
▁범죄자	-2234
▁보는거	-2235
▁보면서	-2236
▁부담스	-2237
▁붙이지	-2238
▁비율이	-2239
▁비호감	-2240
▁빨아주	-2241
▁사는게	-2242
▁살아야	-2243
▁생겨서	-2244
▁서울대	-2245
▁설리가	-2246
▁세상이	-2247
▁송중기	-2248
▁송혜교	-2249
▁스타일	-2250
▁싫어할	-2251
▁아가리	-2252
▁아이유	-2253
▁안그래	-2254
▁안쓰럽	-2255
▁안어울	-2256
▁안하는	-2257
▁앞으로	-2258
▁애들이	-2259
▁애초에	-2260
▁어지간	-2261
▁없다는	-2262
▁엉뎅이	-2263
▁열심히	-2264
▁예쁘고	-2265
▁오로지	-2266
▁오지게	-2267
▁외모가	-2268
▁요즘은	-2269
▁원나잇	-2270
▁이던이	-2271
▁이러고	-2272
▁이쁜데	-2273
▁이상한	-2274
▁이상화	-2275
▁이여자	-2276
▁일인가	-2277
▁일하는	-2278
▁임현주	-2279
▁있는거	-2280
▁있어서	-2281
▁자식들	-2282
▁잘나가	-2283
▁잘못이	-2284
▁잠자리	-2285
▁적당히	-2286
▁젊을때	-2287
▁정신병	-2288
▁조민기	-2289
▁좋아할	-2290
▁줌마들	-2291
▁지들이	-2292
▁차라리	-2293
▁최고지	-2294
▁최종범	-2295
▁충분히	-2296
▁친구가	-2297
▁카메라	-2298
▁키크고	-2299
▁판타지	-2300
▁페미니	-2301
▁평소에	-2302
▁하는게	-2303
▁하세요	-2304
▁하여튼	-2305
▁하지만	-2306
▁할머니	-2307
▁함소원	-2308
▁했는데	-2309
▁했으면	-2310
▁현명한	-2311
▁현실성	-2312
▁힘들게	-2313
것같은데	-2314
겠습니다	-2315
하지마라	-2316
해주세요	-2317
▁....	-2318
▁100%	-2319
▁>>>>	-2320
▁걸크러쉬	-2321
▁결혼하고	-2322
▁결혼해서	-2323
▁그럴수도	-2324
▁김치년들	-2325
▁남자에게	-2326
▁남자한테	-2327
▁누가봐도	-2328
▁능력있고	-2329
▁대단하다	-2330
▁드라마가	-2331
▁드라마만	-2332
▁방송출연	-2333
▁불쌍하다	-2334
▁사람들도	-2335
▁성범죄자	-2336
▁싫어하는	-2337
▁언제부터	-2338
▁여기저기	-2339
▁여성분들	-2340
▁여성비율	-2341
▁여성인권	-2342
▁여자나이	-2343
▁여자들만	-2344
▁여자로서	-2345
▁여자분들	-2346
▁여자한테	-2347
▁연예인은	-2348
▁연예인이	-2349
▁음주운전	-2350
▁이쁘니까	-2351
▁있습니다	-2352
▁자기보다	-2353
▁잘나가는	-2354
▁조강지처	-2355
▁조용하네	-2356
▁좋아하는	-2357
▁좋아한다	-2358
▁쿵쾅쿵쾅	-2359
▁페미들이	-2360
▁하는것도	-2361
▁한채아가	-2362
▁행복하게	-2363
▁결혼하는게	-2364
▁누군지모르	-2365
▁데이트폭력	-2366
▁아줌마들아	-2367
▁한국남자들	-2368
........	-2369
▁ᄏᄏᄏᄏᄏᄏᄏᄏᄏ	-2370
1%	-2371
2%	-2372
99	-2373
?"	-2374
AV	-2375
bs	-2376
cd	-2377
ek	-2378
ex	-2379
in	-2380
kg	-2381
oe	-2382
to	-2383
~!	-2384
~?	-2385
ᄅᄀ	-2386
ᄆᄎ	-2387
ᄇᄃ	-2388
ᅮᅲ	-2389
▁'	-2390
▁E	-2391
▁G	-2392
▁J	-2393
▁a	-2394
▁v	-2395
▁ᅳ	-2396
▁갈	-2397
▁검	-2398
▁겨	-2399
▁D	-2400
▁겪	-2401
▁곽	-2402
▁교	-2403
▁굿	-2404
▁깜	-2405
▁깽	-2406
▁끊	-2407
▁넣	-2408
▁는	-2409
▁님	-2410
▁닥	-2411
▁독	-2412
▁디	-2413
▁딴	-2414
▁땡	-2415
▁띄	-2416
▁띠	-2417
▁런	-2418
▁룸	-2419
▁멀	-2420
▁멍	-2421
▁뭣	-2422
▁밉	-2423
▁밖	-2424
▁뱃	-2425
▁번	-2426
▁볶	-2427
▁빅	-2428
▁빤	-2429
▁뿐	-2430
▁삭	-2431
▁섭	-2432
▁쇼	-2433
▁식	-2434
▁쌍	-2435
▁얻	-2436
▁엑	-2437
▁엠	-2438
▁엿	-2439
▁옆	-2440
▁운	-2441
▁젠	-2442
▁쥐	-2443
▁짝	-2444
▁짧	-2445
▁쩔	-2446
▁찐	-2447
▁찢	-2448
▁찬	-2449
▁침	-2450
▁컴	-2451
▁쿵	-2452
▁탑	-2453
▁테	-2454
▁톱	-2455
▁툭	-2456
▁페	-2457
▁폭	-2458
▁햇	-2459
▁향	-2460
▁혜	-2461
가뜨	-2462
가락	-2463
가며	-2464
가슴	-2465
간다	-2466
간은	-2467
갑네	-2468
갔네	-2469
갔던	-2470
갖는	-2471
개비	-2472
개지	-2473
거고	-2474
건지	-2475
걸들	-2476
겉은	-2477
게요	-2478
겟지	-2479
겠군	-2480
겨신	-2481
결국	-2482
경씨	-2483
고사	-2484
고서	-2485
고요	-2486
구선	-2487
구요	-2488
국에	-2489
궁창	-2490
그램	-2491
글징	-2492
기냐	-2493
기녀	-2494
기를	-2495
기본	-2496
기서	-2497
기자	-2498
기전	-2499
▁뜨	-2500
▁프	-2501
▁흉	-2502
▁흐	-2503
▁흥	-2504
곘네	-2505
군요	-2506
기안	-2507
기왕	-2508
김치	-2509
꺼리	-2510
꾸로	-2511
끄럽	-2512
낄낄	-2513
나겠	-2514
나고	-2515
나보	-2516
나봐	-2517
나올	-2518
날리	-2519
날수	-2520
남친	-2521
났고	-2522
났네	-2523
내가	-2524
내들	-2525
냐는	-2526
냐오	-2527
넘들	-2528
네들	-2529
녀는	-2530
녀야	-2531
녀에	-2532
년일	-2533
놓구	-2534
뇨나	-2535
뇬들	-2536
느껴	-2537
느낌	-2538
는듯	-2539
니스	-2540
니안	-2541
다처	-2542
달라	-2543
담이	-2544
당시	-2545
대기	-2546
대들	-2547
대를	-2548
대상	-2549
대야	-2550
대체	-2551
댄다	-2552
덕은	-2553
던거	-2554
덜덜	-2555
덩이	-2556
데뷔	-2557
도소	-2558
도안	-2559
도위	-2560
돌아	-2561
동건	-2562
동도	-2563
돼니	-2564
되서	-2565
되지	-2566
둘이	-2567
드는	-2568
드신	-2569
듣보	-2570
디언	-2571
딩때	-2572
따위	-2573
딸은	-2574
딸이	-2575
때는	-2576
때다	-2577
때문	-2578
때서	-2579
라나	-2580
라며	-2581
라버	-2582
라스	-2583
래는	-2584
랫도	-2585
러기	-2586
러울	-2587
려니	-2588
려야	-2589
력을	-2590
련이	-2591
렸지	-2592
로서	-2593
로영	-2594
르노	-2595
르는	-2596
리냐	-2597
리다	-2598
린거	-2599
84	-2600
▁월	-2601
▁품	-2602
가능	-2603
갑수	-2604
건알	-2605
릴듯	-2606
마안	-2607
마약	-2608
만듬	-2609
많네	-2610
망신	-2611
매나	-2612
먹는	-2613
먹지	-2614
메갈	-2615
멤버	-2616
목잡	-2617
못하	-2618
무시	-2619
문을	-2620
미수	-2621
미지	-2622
민이	-2623
바뀌	-2624
바로	-2625
박육	-2626
반성	-2627
밤에	-2628
방송	-2629
배가	-2630
버려	-2631
번이	-2632
벌받	-2633
범한	-2634
법이	-2635
벨트	-2636
별의	-2637
보가	-2638
보검	-2639
보일	-2640
본적	-2641
봐요	-2642
봐주	-2643
봤다	-2644
봤자	-2645
부모	-2646
부증	-2647
분은	-2648
불만	-2649
붕어	-2650
빠서	-2651
빠졌	-2652
빠진	-2653
뼛속	-2654
뿐임	-2655
삐뚤	-2656
사가	-2657
사건	-2658
사나	-2659
사냥	-2660
사유	-2661
사친	-2662
산다	-2663
살기	-2664
상관	-2665
상대	-2666
상도	-2667
상만	-2668
상을	-2669
상태	-2670
서운	-2671
선강	-2672
선생	-2673
선영	-2674
세계	-2675
세대	-2676
세상	-2677
셔서	-2678
솔직	-2679
수다	-2680
수를	-2681
수진	-2682
순수	-2683
술이	-2684
스나	-2685
스런	-2686
스크	-2687
스팅	-2688
스프	-2689
시나	-2690
시대	-2691
시오	-2692
시절	-2693
신고	-2694
실은	-2695
실이	-2696
싫다	-2697
싫은	-2698
싫음	-2699
il	-2700
두지	-2701
러니	-2702
싱싱	-2703
싶은	-2704
싼티	-2705
썩은	-2706
아내	-2707
아들	-2708
아래	-2709
아무	-2710
악의	-2711
악플	-2712
안감	-2713
안에	-2714
안타	-2715
안한	-2716
안함	-2717
않는	-2718
았어	-2719
았을	-2720
애가	-2721
야돼	-2722
양은	-2723
어고	-2724
어드	-2725
어쩌	-2726
어트	-2727
어휴	-2728
없고	-2729
없네	-2730
없어	-2731
없지	-2732
었냐	-2733
여도	-2734
여주	-2735
연도	-2736
연애	-2737
열음	-2738
였을	-2739
예진	-2740
오고	-2741
오오	-2742
올듯	-2743
왕조	-2744
용히	-2745
움을	-2746
웃겨	-2747
위에	-2748
유명	-2749
유진	-2750
유천	-2751
육비	-2752
윤화	-2753
으려	-2754
으루	-2755
은건	-2756
은혜	-2757
음주	-2758
의한	-2759
이들	-2760
이런	-2761
이뻐	-2762
이슬	-2763
이엿	-2764
인도	-2765
인드	-2766
일단	-2767
일뿐	-2768
임신	-2769
입고	-2770
입은	-2771
잇고	-2772
있냐	-2773
있네	-2774
있다	-2775
있었	-2776
자다	-2777
자랑	-2778
자로	-2779
자현	-2780
작은	-2781
잘못	-2782
장난	-2783
장한	-2784
재도	-2785
저런	-2786
적남	-2787
적여	-2788
전이	-2789
전자	-2790
전제	-2791
정수	-2792
정신	-2793
정했	-2794
정훈	-2795
제발	-2796
제에	-2797
져주	-2798
조심	-2799
▁풋	-2800
난거	-2801
망치	-2802
보아	-2803
부럽	-2804
빼고	-2805
이만	-2806
이하	-2807
조작	-2808
좁은	-2809
좋다	-2810
주변	-2811
주지	-2812
주혁	-2813
줄듯	-2814
줄이	-2815
줬음	-2816
지금	-2817
지러	-2818
지로	-2819
지매	-2820
지어	-2821
지우	-2822
지키	-2823
지효	-2824
지훈	-2825
진국	-2826
질드	-2827
집고	-2828
징어	-2829
쩌네	-2830
쯧쯧	-2831
차예	-2832
찬오	-2833
창여	-2834
체를	-2835
최고	-2836
추기	-2837
추행	-2838
치면	-2839
친다	-2840
킁킁	-2841
킬로	-2842
타고	-2843
태기	-2844
텔방	-2845
통령	-2846
특히	-2847
파서	-2848
팬들	-2849
편력	-2850
편은	-2851
평생	-2852
피해	-2853
하구	-2854
하길	-2855
하던	-2856
한국	-2857
한나	-2858
한남	-2859
한넘	-2860
한일	-2861
한텐	-2862
할까	-2863
해봐	-2864
해요	-2865
해집	-2866
햇지	-2867
했을	-2868
허니	-2869
험담	-2870
험한	-2871
현이	-2872
현정	-2873
화가	-2874
활동	-2875
회전	-2876
훈남	-2877
히려	-2878
힘든	-2879
,,"	-2880
,30	-2881
^^;	-2882
ery	-2883
ing	-2884
too	-2885
ᄃᄃᄃ	-2886
ᄃᄇᄃ	-2887
ᄊᄅᄀ	-2888
▁36	-2889
▁37	-2890
▁38	-2891
▁50	-2892
▁70	-2893
▁dm	-2894
▁do	-2895
▁oe	-2896
▁ᄆᄎ	-2897
▁ᄉᄉ	-2898
▁ᄌᄅ	-2899
▁년	-2900
겨도	-2901
됐어	-2902
먹기	-2903
실히	-2904
애를	-2905
지들	-2906
지부	-2907
▁99	-2908
▁가득	-2909
▁가서	-2910
▁가식	-2911
▁가지	-2912
▁가진	-2913
▁가질	-2914
▁감동	-2915
▁강남	-2916
▁같잖	-2917
▁개그	-2918
▁개노	-2919
▁개뿔	-2920
▁개인	-2921
▁개집	-2922
▁거론	-2923
▁거야	-2924
▁거울	-2925
▁건지	-2926
▁걸러	-2927
▁것도	-2928
▁것임	-2929
▁겨우	-2930
▁고발	-2931
▁고자	-2932
▁골빈	-2933
▁공통	-2934
▁관대	-2935
▁관상	-2936
▁구라	-2937
▁국민	-2938
▁궁금	-2939
▁그건	-2940
▁그녀	-2941
▁그랬	-2942
▁그립	-2943
▁그의	-2944
▁그지	-2945
▁그치	-2946
▁근거	-2947
▁기어	-2948
▁김칫	-2949
▁까고	-2950
▁꼬리	-2951
▁꿀빨	-2952
▁끼고	-2953
▁나경	-2954
▁나래	-2955
▁나만	-2956
▁날리	-2957
▁남에	-2958
▁남혐	-2959
▁내면	-2960
▁내일	-2961
▁너가	-2962
▁너의	-2963
▁넘쳐	-2964
▁넣어	-2965
▁녀자	-2966
▁년이	-2967
▁노려	-2968
▁노력	-2969
▁놀아	-2970
▁놈도	-2971
▁누굴	-2972
▁느껴	-2973
▁늙탱	-2974
▁다나	-2975
▁다녀	-2976
▁다는	-2977
▁다물	-2978
▁다이	-2979
▁단단	-2980
▁달달	-2981
▁달라	-2982
▁답답	-2983
▁당시	-2984
▁당신	-2985
▁대세	-2986
▁대신	-2987
▁대중	-2988
▁대충	-2989
▁도배	-2990
▁도우	-2991
▁도태	-2992
▁되게	-2993
▁되고	-2994
▁되면	-2995
▁되지	-2996
▁된다	-2997
▁들고	-2998
▁들이	-2999
신랑	-3000
았네	-3001
▁국제	-3002
▁깨끗	-3003
▁닮아	-3004
▁듣기	-3005
▁듣보	-3006
▁등골	-3007
▁등등	-3008
▁디게	-3009
▁때가	-3010
▁때도	-3011
▁떠난	-3012
▁떨어	-3013
▁똑같	-3014
▁똥차	-3015
▁라고	-3016
▁런닝	-3017
▁로코	-3018
▁마녀	-3019
▁마눌	-3020
▁마땅	-3021
▁마라	-3022
▁마치	-3023
▁막상	-3024
▁만남	-3025
▁만석	-3026
▁많다	-3027
▁말던	-3028
▁맘충	-3029
▁맛은	-3030
▁맞네	-3031
▁맞지	-3032
▁먹기	-3033
▁먹은	-3034
▁먹지	-3035
▁멋집	-3036
▁모음	-3037
▁모텔	-3038
▁몰고	-3039
▁몰카	-3040
▁못되	-3041
▁못즐	-3042
▁문재	-3043
▁물이	-3044
▁뭐건	-3045
▁미안	-3046
▁바깥	-3047
▁바랍	-3048
▁박성	-3049
▁박혜	-3050
▁밖에	-3051
▁발정	-3052
▁밝혔	-3053
▁밝히	-3054
▁밥은	-3055
▁배려	-3056
▁백퍼	-3057
▁버려	-3058
▁버린	-3059
▁범죄	-3060
▁변호	-3061
▁별거	-3062
▁병원	-3063
▁보나	-3064
▁보다	-3065
▁보였	-3066
▁보지	-3067
▁본능	-3068
▁부터	-3069
▁북한	-3070
▁분유	-3071
▁불러	-3072
▁비즈	-3073
▁빵터	-3074
▁빻앗	-3075
▁빼애	-3076
▁삐뚤	-3077
▁사겨	-3078
▁사귄	-3079
▁사업	-3080
▁사용	-3081
▁산다	-3082
▁살찐	-3083
▁상태	-3084
▁색기	-3085
▁색녀	-3086
▁생김	-3087
▁생리	-3088
▁서로	-3089
▁서른	-3090
▁선동	-3091
▁선택	-3092
▁설마	-3093
▁설치	-3094
▁섭외	-3095
▁성깔	-3096
▁성노	-3097
▁세다	-3098
▁소리	-3099
▁손이	-3100
▁솔찍	-3101
▁수고	-3102
▁수지	-3103
▁수컷	-3104
▁술먹	-3105
▁숨길	-3106
▁쉬울	-3107
▁슴가	-3108
▁승리	-3109
▁시기	-3110
▁시댁	-3111
▁시어	-3112
▁시전	-3113
▁시청	-3114
▁신경	-3115
▁실수	-3116
▁싫고	-3117
▁심심	-3118
▁싶어	-3119
▁싶은	-3120
▁써라	-3121
▁쓸모	-3122
▁아기	-3123
▁아까	-3124
▁아냐	-3125
▁아녀	-3126
▁아마	-3127
▁아버	-3128
▁아빠	-3129
▁아쉬	-3130
▁아앙	-3131
▁아침	-3132
▁아픈	-3133
▁안가	-3134
▁안걸	-3135
▁안달	-3136
▁안맞	-3137
▁안보	-3138
▁안본	-3139
▁않는	-3140
▁않음	-3141
▁알았	-3142
▁알지	-3143
▁암탉	-3144
▁애낳	-3145
▁얘가	-3146
▁어렸	-3147
▁어마	-3148
▁어미	-3149
▁언능	-3150
▁언론	-3151
▁없네	-3152
▁없음	-3153
▁없이	-3154
▁없지	-3155
▁에혀	-3156
▁엑소	-3157
▁여신	-3158
▁여장	-3159
▁여친	-3160
▁여행	-3161
▁역대	-3162
▁역할	-3163
▁연옌	-3164
▁열어	-3165
▁예비	-3166
▁예의	-3167
▁오달	-3168
▁오빠	-3169
▁왜이	-3170
▁외간	-3171
▁요거	-3172
▁요리	-3173
▁욕도	-3174
▁욕을	-3175
▁욕하	-3176
▁웃기	-3177
▁웃김	-3178
▁원인	-3179
▁유나	-3180
▁유재	-3181
▁유혹	-3182
▁유흥	-3183
▁육아	-3184
▁육지	-3185
▁음탕	-3186
▁의상	-3187
▁의심	-3188
▁이름	-3189
▁이번	-3190
▁이분	-3191
▁이뻤	-3192
▁이수	-3193
▁이와	-3194
▁이용	-3195
▁이자	-3196
▁이혜	-3197
▁인신	-3198
▁인증	-3199
▁일상	-3200
▁일은	-3201
▁일을	-3202
▁일이	-3203
▁일진	-3204
▁임창	-3205
▁입김	-3206
▁입소	-3207
▁있냐	-3208
▁자격	-3209
▁자고	-3210
▁자극	-3211
▁자리	-3212
▁작은	-3213
▁잘난	-3214
▁잘한	-3215
▁잘해	-3216
▁잠깐	-3217
▁잠잠	-3218
▁장가	-3219
▁재벌	-3220
▁재혼	-3221
▁저건	-3222
▁저럴	-3223
▁전라	-3224
▁전처	-3225
▁절라	-3226
▁젊고	-3227
▁정복	-3228
▁조폭	-3229
▁조현	-3230
▁존중	-3231
▁졸라	-3232
▁종족	-3233
▁종특	-3234
▁좋고	-3235
▁좋지	-3236
▁죄지	-3237
▁주고	-3238
▁주기	-3239
▁주장	-3240
▁주접	-3241
▁죽어	-3242
▁죽이	-3243
▁준비	-3244
▁줄을	-3245
▁지가	-3246
▁지겹	-3247
▁지네	-3248
▁지능	-3249
▁지도	-3250
▁지딸	-3251
▁지성	-3252
▁지적	-3253
▁지지	-3254
▁직장	-3255
▁직접	-3256
▁집안	-3257
▁집착	-3258
▁찌찌	-3259
▁처음	-3260
▁천국	-3261
▁천박	-3262
▁철저	-3263
▁첫회	-3264
▁청순	-3265
▁쳐맞	-3266
▁초반	-3267
▁촬영	-3268
▁최근	-3269
▁최대	-3270
▁카톡	-3271
▁컴플	-3272
▁코는	-3273
▁크지	-3274
▁타입	-3275
▁트와	-3276
▁패션	-3277
▁팬티	-3278
▁폐미	-3279
▁폭로	-3280
▁표현	-3281
▁풋풋	-3282
▁피곤	-3283
▁하니	-3284
▁하던	-3285
▁하든	-3286
▁하루	-3287
▁하차	-3288
▁하필	-3289
▁한거	-3290
▁한두	-3291
▁한여	-3292
▁한지	-3293
▁한창	-3294
▁한테	-3295
▁할거	-3296
▁할게	-3297
▁할수	-3298
▁함께	-3299
▁합법	-3300
▁해당	-3301
▁해소	-3302
▁해체	-3303
▁했나	-3304
▁했냐	-3305
▁행동	-3306
▁허리	-3307
▁현역	-3308
▁혐오	-3309
▁혜교	-3310
▁호구	-3311
▁호빗	-3312
▁홀랑	-3313
▁화나	-3314
▁효린	-3315
▁후배	-3316
▁훈남	-3317
▁흥분	-3318
가는거	-3319
가서는	-3320
거같다	-3321
거리지	-3322
걸수도	-3323
것같다	-3324
것처럼	-3325
겠는데	-3326
겠지뭐	-3327
겨운은	-3328
겼다가	-3329
고사냐	-3330
관계를	-3331
구선수	-3332
그리고	-3333
그여자	-3334
글징글	-3335
기왕성	-3336
기전에	-3337
꾸겨신	-3338
끼리만	-3339
나보지	-3340
나소나	-3341
나오면	-3342
나이에	-3343
났으면	-3344
녀들이	-3345
놈들이	-3346
놈인데	-3347
뇬들이	-3348
는거고	-3349
는거네	-3350
는건가	-3351
다니까	-3352
다니냐	-3353
다처제	-3354
당하는	-3355
당한거	-3356
대여성	-3357
댓글이	-3358
도위반	-3359
도하고	-3360
돈으로	-3361
돌아가	-3362
되는데	-3363
드는거	-3364
들이지	-3365
들인듯	-3366
때처럼	-3367
라면서	-3368
려가서	-3369
련들은	-3370
로맨스	-3371
로부터	-3372
로영화	-3373
리는게	-3374
리는듯	-3375
많으면	-3376
메이크	-3377
명이서	-3378
모습은	-3379
무조건	-3380
받는데	-3381
보네요	-3382
보이고	-3383
본적도	-3384
봤지만	-3385
부분이	-3386
붕어빵	-3387
사세요	-3388
사이에	-3389
성형은	-3390
셨는지	-3391
소리는	-3392
소리도	-3393
속에서	-3394
솔직히	-3395
수밖에	-3396
수준에	-3397
수치심	-3398
스러운	-3399
스럽네	-3400
스트로	-3401
스프레	-3402
시켜야	-3403
식으로	-3404
싶은데	-3405
싸면서	-3406
아니였	-3407
안나오	-3408
어나니	-3409
어나도	-3410
어나온	-3411
어야지	-3412
어진다	-3413
에서는	-3414
에서도	-3415
여자네	-3416
였다면	-3417
왕조개	-3418
워마드	-3419
원인데	-3420
으니깐	-3421
으라고	-3422
으로만	-3423
은혜가	-3424
을거다	-3425
이네요	-3426
이니까	-3427
이더라	-3428
이던데	-3429
이미지	-3430
이유는	-3431
인이랑	-3432
입니까	-3433
있는거	-3434
있는데	-3435
있어도	-3436
있을듯	-3437
잘하고	-3438
잘하는	-3439
전현무	-3440
정준영	-3441
조용히	-3442
좋아야	-3443
주혁님	-3444
줌마는	-3445
지들은	-3446
지않나	-3447
지키는	-3448
쪽에서	-3449
척하지	-3450
총각이	-3451
춘향이	-3452
하고파	-3453
하나도	-3454
하는걸	-3455
하는척	-3456
하니깐	-3457
하다가	-3458
하다고	-3459
하셔요	-3460
하시구	-3461
하잖아	-3462
하지는	-3463
하지도	-3464
한것들	-3465
한테나	-3466
한혜진	-3467
합니까	-3468
해보고	-3469
해보임	-3470
해봐라	-3471
해야해	-3472
해주면	-3473
해주자	-3474
했겠지	-3475
했다가	-3476
했으니	-3477
했지만	-3478
..."	-3479
...?	-3480
▁20%	-3481
▁sek	-3482
▁sns	-3483
▁가능성	-3484
▁가리는	-3485
▁가만히	-3486
▁가시나	-3487
▁감정은	-3488
▁강남이	-3489
▁같아서	-3490
▁같아요	-3491
▁거짓말	-3492
▁건모형	-3493
▁결혼도	-3494
▁경제적	-3495
▁고딩때	-3496
▁고현정	-3497
▁공효진	-3498
▁곽선영	-3499
▁관심도	-3500
▁관심받	-3501
▁관심이	-3502
▁괜찮아	-3503
▁괴롭혀	-3504
▁교도소	-3505
▁권리도	-3506
▁권태기	-3507
▁그나마	-3508
▁그녀들	-3509
▁그당시	-3510
▁그대로	-3511
▁그동안	-3512
▁그러고	-3513
▁그러다	-3514
▁그러면	-3515
▁그런데	-3516
▁그만들	-3517
▁그만좀	-3518
▁그이상	-3519
▁그정도	-3520
▁그치만	-3521
▁기다려	-3522
▁기러기	-3523
▁기레기	-3524
▁기사는	-3525
▁기사에	-3526
▁기자가	-3527
▁기자놈	-3528
▁기자님	-3529
▁김갑수	-3530
▁김건모	-3531
▁김생민	-3532
▁김원희	-3533
▁김정훈	-3534
▁김종국	-3535
▁김치쉰	-3536
▁김태리	-3537
▁김태희	-3538
▁깽상도	-3539
▁꼴보기	-3540
▁꽃뱀들	-3541
▁끝까지	-3542
▁끝이다	-3543
▁나는데	-3544
▁나쁘냐	-3545
▁나오고	-3546
▁나온다	-3547
▁나와라	-3548
▁나이값	-3549
▁나이대	-3550
▁나이도	-3551
▁나이에	-3552
▁난리냐	-3553
▁남녀간	-3554
▁남이사	-3555
▁남자나	-3556
▁남자냐	-3557
▁남자답	-3558
▁남자분	-3559
▁남잔데	-3560
▁남적남	-3561
▁남친이	-3562
▁남편은	-3563
▁넘어가	-3564
▁누군데	-3565
▁눈작은	-3566
▁눈크고	-3567
▁느개비	-3568
▁능력도	-3569
▁능력이	-3570
▁니네가	-3571
▁니네는	-3572
▁니들이	-3573
▁다르게	-3574
▁다르네	-3575
▁다해도	-3576
▁당신은	-3577
▁대단한	-3578
▁대통령	-3579
▁댓글들	-3580
▁더럽게	-3581
▁더럽다	-3582
▁데려가	-3583
▁데리고	-3584
▁독박육	-3585
▁돼지년	-3586
▁됐을지	-3587
▁뒤에서	-3588
▁듣고싶	-3589
▁딱보니	-3590
▁똑똑한	-3591
▁뚱뚱한	-3592
▁마스크	-3593
▁마시고	-3594
▁마음이	-3595
▁마인드	-3596
▁많아서	-3597
▁말하는	-3598
▁맙시다	-3599
▁맞지만	-3600
▁매력이	-3601
▁머리채	-3602
▁메갈들	-3603
▁메퇘지	-3604
▁면상도	-3605
▁면상을	-3606
▁못생겼	-3607
▁못생김	-3608
▁무섭고	-3609
▁무섭다	-3610
▁문제네	-3611
▁문제인	-3612
▁문제임	-3613
▁물어뜯	-3614
▁뭐랄까	-3615
▁미개한	-3616
▁바빠서	-3617
▁박보검	-3618
▁박정수	-3619
▁받아야	-3620
▁발언을	-3621
▁발연기	-3622
▁방법이	-3623
▁보내는	-3624
▁보이면	-3625
▁본인이	-3626
▁봤는데	-3627
▁부러운	-3628
▁부럽네	-3629
▁부르면	-3630
▁불쌍한	-3631
▁불쌍해	-3632
▁사건도	-3633
▁사과문	-3634
▁사과할	-3635
▁사람을	-3636
▁사생활	-3637
▁사실상	-3638
▁사진은	-3639
▁산이는	-3640
▁살빼야	-3641
▁상처는	-3642
▁새로운	-3643
▁생각은	-3644
▁생각이	-3645
▁생겼다	-3646
▁생기면	-3647
▁생긴거	-3648
▁서현진	-3649
▁설리를	-3650
▁성범죄	-3651
▁성질드	-3652
▁성추행	-3653
▁속바지	-3654
▁속좁은	-3655
▁손가락	-3656
▁손절은	-3657
▁송종국	-3658
▁송지효	-3659
▁수치심	-3660
▁술이나	-3661
▁스스로	-3662
▁시궁창	-3663
▁시선강	-3664
▁시엄마	-3665
▁시집못	-3666
▁싶어서	-3667
▁아까워	-3668
▁아내가	-3669
▁아내의	-3670
▁아무나	-3671
▁아무도	-3672
▁아무튼	-3673
▁아쉽다	-3674
▁아이들	-3675
▁아줌씨	-3676
▁아지매	-3677
▁아파서	-3678
▁악플다	-3679
▁악플러	-3680
▁악플이	-3681
▁안느껴	-3682
▁안되고	-3683
▁안좋은	-3684
▁안해도	-3685
▁안해본	-3686
▁않더라	-3687
▁않으니	-3688
▁앞에서	-3689
▁앞에선	-3690
▁애네가	-3691
▁애들도	-3692
▁양예원	-3693
▁양육비	-3694
▁얘네는	-3695
▁어때서	-3696
▁어려서	-3697
▁어린게	-3698
▁억지다	-3699
▁언제고	-3700
▁언젠간	-3701
▁얼굴도	-3702
▁얼굴로	-3703
▁얼굴은	-3704
▁얼굴을	-3705
▁얼굴작	-3706
▁얼마안	-3707
▁엄마가	-3708
▁엄마를	-3709
▁업소도	-3710
▁없으니	-3711
▁엉덩이	-3712
▁여성이	-3713
▁여우짓	-3714
▁여자네	-3715
▁여자다	-3716
▁여자애	-3717
▁여자에	-3718
▁여자와	-3719
▁여자욕	-3720
▁여자인	-3721
▁여적여	-3722
▁역겨워	-3723
▁역겹다	-3724
▁연기가	-3725
▁연기자	-3726
▁열등감	-3727
▁예전에	-3728
▁오정연	-3729
▁오지랖	-3730
▁오징어	-3731
▁오히려	-3732
▁올리면	-3733
▁왜그러	-3734
▁욕먹고	-3735
▁욕먹을	-3736
▁욕하고	-3737
▁욕하네	-3738
▁웃기는	-3739
▁워너비	-3740
▁위험한	-3741
▁유부남	-3742
▁유부녀	-3743
▁유치한	-3744
▁의미가	-3745
▁의부증	-3746
▁이기적	-3747
▁이년들	-3748
▁이래야	-3749
▁이민정	-3750
▁이뻐서	-3751
▁이쁘다	-3752
▁이쁜게	-3753
▁이소라	-3754
▁이시언	-3755
▁이야기	-3756
▁이열음	-3757
▁이종석	-3758
▁이찬오	-3759
▁이해가	-3760
▁이혼녀	-3761
▁인생선	-3762
▁인생쫑	-3763
▁인터넷	-3764
▁임산부	-3765
▁임신만	-3766
▁임신을	-3767
▁있는건	-3768
▁있어도	-3769
▁있으니	-3770
▁있을까	-3771
▁자빠졌	-3772
▁잘만나	-3773
▁잘못은	-3774
▁잘버는	-3775
▁잘생기	-3776
▁잘어울	-3777
▁재결합	-3778
▁저러고	-3779
▁저런거	-3780
▁저런말	-3781
▁전국민	-3782
▁전세계	-3783
▁절대로	-3784
▁젊은넘	-3785
▁정도면	-3786
▁정신이	-3787
▁젖꼭지	-3788
▁제대로	-3789
▁조금만	-3790
▁조보아	-3791
▁좋다는	-3792
▁좋던가	-3793
▁좋아서	-3794
▁좋아함	-3795
▁좋은데	-3796
▁주지훈	-3797
▁죽었다	-3798
▁중요해	-3799
▁증거다	-3800
▁지들만	-3801
▁짜증나	-3802
▁찌라시	-3803
▁챙녀들	-3804
▁천이슬	-3805
▁최소한	-3806
▁최지우	-3807
▁추자현	-3808
▁캐스팅	-3809
▁코르셋	-3810
▁클라스	-3811
▁키작고	-3812
▁태어나	-3813
▁토니안	-3814
▁투표권	-3815
▁툭하면	-3816
▁판사님	-3817
▁평범한	-3818
▁평생을	-3819
▁피임을	-3820
▁하나로	-3821
▁하는지	-3822
▁하다가	-3823
▁한남은	-3824
▁한다고	-3825
▁한쪽은	-3826
▁한채아	-3827
▁해주고	-3828
▁핸드폰	-3829
▁했다면	-3830
▁했잖아	-3831
▁행복한	-3832
▁헤어지	-3833
▁헤어진	-3834
▁현아는	-3835
▁호스트	-3836
▁혼전임	-3837
▁홍윤화	-3838
▁홍진영	-3839
▁화사가	-3840
▁화사도	-3841
▁힘든데	-3842
▁힘들다	-3843
가슴이나	-3844
가지한다	-3845
년전이면	-3846
다고하면	-3847
대여자들	-3848
되는거고	-3849
드립니다	-3850
들이랑은	-3851
들한테는	-3852
민국에서	-3853
불쌍하다	-3854
사람한테	-3855
아니었음	-3856
아줌마가	-3857
안타까워	-3858
어볼려고	-3859
여자들은	-3860
이제와서	-3861
이해안감	-3862
인생이나	-3863
주고싶고	-3864
주고싶은	-3865
지마셔요	-3866
차예련이	-3867
척하지좀	-3868
취급하고	-3869
튀어나온	-3870
하면되지	-3871
한여자가	-3872
해보이고	-3873
해집시다	-3874
ᅲᅲᅲᅲᅲ	-3875
▁3~40	-3876
▁oecd	-3877
▁ᄇᄃᄇᄃ	-3878
▁결혼까지	-3879
▁결혼생활	-3880
▁결혼하기	-3881
▁결혼하지	-3882
▁계집년들	-3883
▁계집들이	-3884
▁계집새끼	-3885
▁고마해라	-3886
▁관심없다	-3887
▁국제결혼	-3888
▁그랬을까	-3889
▁그러는거	-3890
▁그러니까	-3891
▁그성별의	-3892
▁김주혁님	-3893
▁김치남들	-3894
▁김태희는	-3895
▁꽃뱀한테	-3896
▁나오는데	-3897
▁나이어린	-3898
▁남자들도	-3899
▁남자라서	-3900
▁남자로서	-3901
▁남자집에	-3902
▁남편한테	-3903
▁내가봐도	-3904
▁너무아까	-3905
▁노브라를	-3906
▁능력없는	-3907
▁능력있는	-3908
▁다이어트	-3909
▁대왕조개	-3910
▁댓글비율	-3911
▁댓글에서	-3912
▁돼지들은	-3913
▁돼지들이	-3914
▁드라마나	-3915
▁들어갔을	-3916
▁똑똑하고	-3917
▁마녀사냥	-3918
▁마찬가지	-3919
▁만나세요	-3920
▁만나야함	-3921
▁많을텐데	-3922
▁먹었는데	-3923
▁멋집니다	-3924
▁모델이나	-3925
▁모르겠다	-3926
▁몸매자랑	-3927
▁못생긴게	-3928
▁미개인들	-3929
▁바랍니다	-3930
▁박나래가	-3931
▁박나래랑	-3932
▁박은혜가	-3933
▁박해미도	-3934
▁발정나서	-3935
▁보고싶다	-3936
▁보나마나	-3937
▁보여줘라	-3938
▁부러우면	-3939
▁부러워서	-3940
▁불편하다	-3941
▁비난하는	-3942
▁비즈니스	-3943
▁빼애애액	-3944
▁사고치고	-3945
▁사람인데	-3946
▁살다보면	-3947
▁살았으면	-3948
▁생각나네	-3949
▁생각해서	-3950
▁성비봐라	-3951
▁성폭행을	-3952
▁세상인데	-3953
▁섹시하지	-3954
▁소지섭이	-3955
▁속도위반	-3956
▁쉬울텐데	-3957
▁시어머니	-3958
▁아니잖아	-3959
▁아무것도	-3960
▁아버지가	-3961
▁아이즈원	-3962
▁아주머니	-3963
▁아줌마는	-3964
▁안재현이	-3965
▁안하는거	-3966
▁알아야지	-3967
▁야구선수	-3968
▁어디가서	-3969
▁어지간히	-3970
▁언젠가는	-3971
▁업소녀가	-3972
▁에로영화	-3973
▁여배우는	-3974
▁여시같은	-3975
▁여자답게	-3976
▁여자들도	-3977
▁여자들아	-3978
▁여자라면	-3979
▁여자로써	-3980
▁여자친구	-3981
▁여자편은	-3982
▁여자하나	-3983
▁여편네들	-3984
▁연예인도	-3985
▁연예인들	-3986
▁연하남은	-3987
▁외간남자	-3988
▁욕하면서	-3989
▁유재석이	-3990
▁유흥업소	-3991
▁육지담이	-3992
▁응원한다	-3993
▁이기적이	-3994
▁이기적인	-3995
▁이드라마	-3996
▁이런기사	-3997
▁이뻤는데	-3998
▁이성으로	-3999
▁이와중에	-4000
▁이정도는	-4001
▁이해한다	-4002
▁임신하면	-4003
▁입장에선	-4004
▁있다는걸	-4005
▁자기인생	-4006
▁잘나가던	-4007
▁잘못한거	-4008
▁잡았다고	-4009
▁전라디언	-4010
▁전현무가	-4011
▁전현무는	-4012
▁전현무랑	-4013
▁정상적인	-4014
▁정신병자	-4015
▁정신차리	-4016
▁정액비누	-4017
▁정준영이	-4018
▁제목보고	-4019
▁조신하게	-4020
▁좋아하네	-4021
▁좋았는데	-4022
▁지금와서	-4023
▁질투하는	-4024
▁징글징글	-4025
▁창피하다	-4026
▁책임져라	-4027
▁첫회부터	-4028
▁커리어가	-4029
▁코스프레	-4030
▁탈코르셋	-4031
▁트와이스	-4032
▁페미들아	-4033
▁페미들은	-4034
▁풀메이크	-4035
▁피해주는	-4036
▁하겠는데	-4037
▁하는거지	-4038
▁하는구나	-4039
▁하늘같은	-4040
▁하지마셈	-4041
▁하지말고	-4042
▁한국남성	-4043
▁한남들은	-4044
▁한녀들은	-4045
▁한녀들이	-4046
▁할일없는	-4047
▁해본적도	-4048
▁현실이다	-4049
▁혈기왕성	-4050
▁힘내세요	-4051
▁힘들다고	-4052
것같은데요	-4053
놈들입니다	-4054
춘향이보다	-4055
!?️!?️	-4056
▁30~40	-4057
▁ᄏᄏᄏ원래	-4058
▁가시나들이	-4059
▁결혼했으면	-4060
▁남자들한테	-4061
▁남자연예인	-4062
▁노려보세요	-4063
▁러브라인이	-4064
▁마약한것도	-4065
▁마찬가지고	-4066
▁부담스러워	-4067
▁빠순이들아	-4068
▁빨아주는거	-4069
▁생각하면서	-4070
▁성질드러운	-4071
▁싫어합니다	-4072
▁쓰레기만듬	-4073
▁아이즈원은	-4074
▁아줌마들이	-4075
▁않겠습니다	-4076
▁여자들에게	-4077
▁여자들한테	-4078
▁여자아이돌	-4079
▁여자였으면	-4080
▁연예인들은	-4081
▁연예인들이	-4082
▁열폭하는거	-4083
▁일부다처제	-4084
▁잘못이라고	-4085
▁잘생겼는데	-4086
▁젊은여자들	-4087
▁조심해야지	-4088
▁페미니스트	-4089
▁한국여자는	-4090
▁한국여자랑	-4091
그여자들이랑	-4092
▁>>>>>>	-4093
▁왜그러고사냐	-4094
▁한국여자들이	-4095
▁ᄏᄏᄏᄏᄏᄏᄏ	-4096
▁여자연예인들은	-4097
ᄏᄏᄏᄏᄏᄏᄏᄏᄏ	-4098
ᄏᄏᄏᄏᄏᄏᄏᄏᄏᄏᄏᄏ	-4099
▁!!️!!️!!️!!️	-4100
▁ᄏᄏᄏᄏᄏᄏᄏᄏᄏᄏᄏᄏᄏ	-4101
ilb	-4102
ill	-4103
ᄎ먹는	-4104
▁Gi	-4105
▁ab	-4106
▁ao	-4107
▁갈굴	-4108
▁갈보	-4109
▁검사	-4110
▁겉은	-4111
▁깜짝	-4112
▁끊고	-4113
▁님자	-4114
▁땡잡	-4115
▁뜨끔	-4116
▁띄어	-4117
▁띄운	-4118
▁멀가	-4119
▁멍도	-4120
▁멍이	-4121
▁뭣도	-4122
▁밉상	-4123
▁번드	-4124
▁벨트	-4125
▁빤쯔	-4126
▁뿐만	-4127
▁쇼건	-4128
▁식당	-4129
▁싱싱	-4130
▁싼티	-4131
▁쌍욕	-4132
▁썩은	-4133
▁얻어	-4134
▁엿나	-4135
▁엿먹	-4136
▁월드	-4137
▁젠더	-4138
▁젠틀	-4139
▁짝을	-4140
▁짝짓	-4141
▁쩔고	-4142
▁쩔어	-4143
▁찐거	-4144
▁찬물	-4145
▁침대	-4146
▁침묵	-4147
▁테러	-4148
▁톱임	-4149
▁페북	-4150
▁페티	-4151
▁품지	-4152
▁프듀	-4153
▁향단	-4154
▁향한	-4155
▁험담	-4156
▁활동	-4157
▁흉자	-4158
▁흉측	-4159
▁흐물	-4160
▁흐음	-4161
가망신	-4162
가스나	-4163
가해봐	-4164
갈김치	-4165
건알았	-4166
걸린거	-4167
걸릴듯	-4168
겨주지	-4169
굉장한	-4170
구살기	-4171
기서도	-4172
기싫은	-4173
깠던거	-4174
꼭신고	-4175
끄럽냐	-4176
끄럽네	-4177
나올때	-4178
난거냐	-4179
난상태	-4180
남사친	-4181
남았네	-4182
남친일	-4183
내주변	-4184
냅두지	-4185
냐오냐	-4186
냐오창	-4187
넣었냐	-4188
년안에	-4189
년일을	-4190
뇬둘이	-4191
는갑네	-4192
니신랑	-4193
다녀야	-4194
다움을	-4195
대상황	-4196
데뷔는	-4197
도돼니	-4198
돌리냐	-4199
799	-4200
99%	-4201
sex	-4202
tex	-4203
ᅮᅲᅮ	-4204
ᅲᅮᅲ	-4205
돌이들	-4206
딩이만	-4207
따위로	-4208
때릴듯	-4209
때문아	-4210
라버리	-4211
래지어	-4212
량줄이	-4213
러울거	-4214
려줬음	-4215
로하구	-4216
론조작	-4217
린느낌	-4218
릴게요	-4219
만져주	-4220
망가뜨	-4221
망덕은	-4222
맞추기	-4223
먼세상	-4224
멋있다	-4225
멤버를	-4226
명일뿐	-4227
무서운	-4228
바뀌었	-4229
바로해	-4230
바보가	-4231
받기를	-4232
발라버	-4233
발목잡	-4234
배였을	-4235
벌받아	-4236
벌받으	-4237
병허니	-4238
뼛속꺼	-4239
사가됬	-4240
사건도	-4241
사실이	-4242
사연도	-4243
사유가	-4244
사유는	-4245
산오오	-4246
살기편	-4247
상력을	-4248
상연애	-4249
상태가	-4250
선시대	-4251
설화가	-4252
세대라	-4253
수진보	-4254
수하길	-4255
순수한	-4256
스일뿐	-4257
시오패	-4258
시절에	-4259
시절일	-4260
신랑도	-4261
신의한	-4262
싸돌아	-4263
싼티걸	-4264
쌉가능	-4265
아래윗	-4266
아랫도	-4267
아먹지	-4268
아무렴	-4269
아무리	-4270
악플질	-4271
안으려	-4272
안좋다	-4273
았을테	-4274
어고쳤	-4275
어났네	-4276
어쩌라	-4277
억날리	-4278
업자다	-4279
없나봐	-4280
여남친	-4281
여주신	-4282
연녀에	-4283
연도이	-4284
우싫다	-4285
우팬들	-4286
우회전	-4287
윗아래	-4288
유명인	-4289
유전자	-4290
으루보	-4291
으셔서	-4292
은없어	-4293
을매나	-4294
이경씨	-4295
이때다	-4296
이많네	-4297
이뻐서	-4298
이없네	-4299
놓구서	-4300
인간은	-4301
인미수	-4302
일안에	-4303
잘못된	-4304
잘피해	-4305
장동건	-4306
장실은	-4307
저러니	-4308
전제를	-4309
접대야	-4310
져산다	-4311
져주나	-4312
주제에	-4313
죽여도	-4314
줄줄이	-4315
지금도	-4316
지러웡	-4317
질라나	-4318
쯧쯧쯧	-4319
창여들	-4320
치는듯	-4321
칠거고	-4322
케이만	-4323
쾅이들	-4324
킁킁킁	-4325
키유천	-4326
탈덕은	-4327
팀이엿	-4328
패스나	-4329
팬들위	-4330
퍼날리	-4331
편력의	-4332
평안함	-4333
폐기녀	-4334
포르노	-4335
하기냐	-4336
하던중	-4337
한녀는	-4338
한딸이	-4339
한아내	-4340
했을걸	-4341
행동도	-4342
현민이	-4343
현이형	-4344
후덜덜	-4345
흐르는	-4346
2,30	-4347
7994	-4348
Very	-4349
etoo	-4350
hing	-4351
ilbe	-4352
text	-4353
ᄊᄅᄀ뒤	-4354
ᄏᄏ듣보	-4355
ᄏᄏ장난	-4356
▁36%	-4357
▁37%	-4358
▁81%	-4359
▁Gir	-4360
▁dog	-4361
▁ᄆᄎᄌ	-4362
▁ᄌᄅ떠	-4363
▁가문을	-4364
▁가식떨	-4365
▁가식적	-4366
▁갈굴지	-4367
▁감동시	-4368
▁같잖고	-4369
▁개그우	-4370
▁개집ᄂ	-4371
▁건장한	-4372
▁걸래는	-4373
▁걸러라	-4374
▁걸려야	-4375
▁겉은젊	-4376
▁겨우중	-4377
▁겪으면	-4378
▁겪은거	-4379
▁고발하	-4380
▁공통문	-4381
▁관대해	-4382
▁굉장한	-4383
▁구라에	-4384
▁구라일	-4385
▁그녀를	-4386
▁그녀와	-4387
▁그립내	-4388
▁그립다	-4389
▁그이하	-4390
▁그지에	-4391
▁글타고	-4392
▁기르는	-4393
▁기어코	-4394
▁꼬리흔	-4395
▁꼭불만	-4396
▁꿀빨러	-4397
▁끊이지	-4398
▁끝났고	-4399
▁끼어드	-4400
▁나경은	-4401
▁나댄다	-4402
▁나래충	-4403
▁나올듯	-4404
▁날이엿	-4405
▁남달라	-4406
▁내린거	-4407
▁내버려	-4408
▁내주변	-4409
▁냅두지	-4410
▁넘기자	-4411
▁넘웃겨	-4412
▁놀아난	-4413
▁느껴질	-4414
▁늙탱이	-4415
▁님자만	-4416
▁다녀라	-4417
▁단단한	-4418
▁닮았네	-4419
▁당시에	-4420
▁당신앞	-4421
▁대신에	-4422
▁대중가	-4423
▁대충검	-4424
▁도대체	-4425
▁도태가	-4426
▁뒤집고	-4427
▁뒷목잡	-4428
▁뒷전이	-4429
▁듣보잡	-4430
▁들이대	-4431
▁따먹기	-4432
▁딴여자	-4433
▁땡기는	-4434
▁또오오	-4435
▁띄운것	-4436
▁마눌님	-4437
▁만남을	-4438
▁만석씨	-4439
▁만석아	-4440
▁말장난	-4441
▁맞추기	-4442
▁먹은적	-4443
▁멤버를	-4444
▁모음창	-4445
▁몰카냐	-4446
▁못갖는	-4447
▁못되게	-4448
▁못되보	-4449
▁못봐주	-4450
▁못즐기	-4451
▁문재인	-4452
▁문화가	-4453
▁뭐어쩌	-4454
▁뭔상관	-4455
▁미안해	-4456
▁바깥손	-4457
▁바보가	-4458
▁박성훈	-4459
▁박혜미	-4460
▁밖에는	-4461
▁밖으로	-4462
▁발전이	-4463
▁백퍼고	-4464
▁범죄를	-4465
▁변호사	-4466
▁부위에	-4467
▁부터알	-4468
▁분유먹	-4469
▁분유스	-4470
▁불러야	-4471
▁불러주	-4472
▁붕어빵	-4473
▁비집고	-4474
▁빅인가	-4475
▁빌어드	-4476
▁빌었냐	-4477
▁빨았어	-4478
▁빵터졌	-4479
▁빵터짐	-4480
▁뼛속꺼	-4481
▁사귄적	-4482
▁삭제가	-4483
▁산다예	-4484
▁살빠진	-4485
▁살았을	-4486
▁상상만	-4487
▁상태로	-4488
▁새나봐	-4489
▁색기오	-4490
▁색녀다	-4491
▁생리즁	-4492
▁선진국	-4493
▁설치니	-4494
▁설친다	-4495
▁섭외도	-4496
▁손예진	-4497
▁수지야	-4498
▁수컷들	-4499
▁상관은	-4500
▁생활이	-4501
▁성욕은	-4502
▁소름돋	-4503
▁순간은	-4504
▁순수한	-4505
▁순수함	-4506
▁술마신	-4507
▁숨길게	-4508
▁숨길때	-4509
▁쉽게변	-4510
▁쉽게볼	-4511
▁스토리	-4512
▁슴가가	-4513
▁승자다	-4514
▁시기질	-4515
▁시대를	-4516
▁시댁에	-4517
▁시전함	-4518
▁시청률	-4519
▁신경쓸	-4520
▁신경좀	-4521
▁신상을	-4522
▁실망을	-4523
▁실체를	-4524
▁심지어	-4525
▁싸우네	-4526
▁쌉가능	-4527
▁아기와	-4528
▁아까움	-4529
▁아랫도	-4530
▁아빠의	-4531
▁아쉬울	-4532
▁아쉬워	-4533
▁아웃겨	-4534
▁안맞는	-4535
▁안맞았	-4536
▁알고있	-4537
▁알았지	-4538
▁암탉들	-4539
▁암탉이	-4540
▁애낳았	-4541
▁애미랑	-4542
▁애미야	-4543
▁애정했	-4544
▁얘가뭔	-4545
▁어렸을	-4546
▁어마어	-4547
▁어쩌자	-4548
▁억지로	-4549
▁언론이	-4550
▁얼매나	-4551
▁엑소의	-4552
▁여사친	-4553
▁여선생	-4554
▁역할이	-4555
▁연락안	-4556
▁연예계	-4557
▁연예처	-4558
▁영입은	-4559
▁오달수	-4560
▁오래오	-4561
▁오빠가	-4562
▁오양은	-4563
▁오크먜	-4564
▁왜이러	-4565
▁왜이리	-4566
▁요리실	-4567
▁용대야	-4568
▁용서못	-4569
▁운동만	-4570
▁운동회	-4571
▁웃겨도	-4572
▁웃기네	-4573
▁워너원	-4574
▁유나씨	-4575
▁육아하	-4576
▁음탕녀	-4577
▁음탕한	-4578
▁의사나	-4579
▁의심스	-4580
▁이뇨나	-4581
▁이듣보	-4582
▁이때다	-4583
▁이름이	-4584
▁이자야	-4585
▁이중성	-4586
▁이혜성	-4587
▁이혜정	-4588
▁인지부	-4589
▁일진들	-4590
▁입고다	-4591
▁입김이	-4592
▁입김일	-4593
▁입소문	-4594
▁입었는	-4595
▁있을게	-4596
▁잊고서	-4597
▁자격읍	-4598
▁자리잡	-4599
막히고	-4600
▁가수나	-4601
▁가스내	-4602
▁감히넘	-4603
▁거르셈	-4604
▁경제권	-4605
▁경찰이	-4606
▁경찰조	-4607
▁경향이	-4608
▁과거가	-4609
▁그성깔	-4610
▁기본섹	-4611
▁기본옵	-4612
▁까지네	-4613
▁깡패다	-4614
▁꾸미고	-4615
▁낳으신	-4616
▁낳으실	-4617
▁냄비가	-4618
▁노산에	-4619
▁노산이	-4620
▁노잼의	-4621
▁뉴스메	-4622
▁느그도	-4623
▁다가온	-4624
▁다리와	-4625
▁다음에	-4626
▁다음정	-4627
▁마른게	-4628
▁먹히고	-4629
▁모유수	-4630
▁무죄받	-4631
▁미모에	-4632
▁미쳤어	-4633
▁바닥에	-4634
▁바닥을	-4635
▁바닥임	-4636
▁박해미	-4637
▁벌받는	-4638
▁벌받아	-4639
▁부자냐	-4640
▁사기꾼	-4641
▁사기친	-4642
▁사형을	-4643
▁자유가	-4644
▁자유지	-4645
▁잘빠진	-4646
▁잠잠해	-4647
▁장동건	-4648
▁장애를	-4649
▁재미없	-4650
▁저세상	-4651
▁절라녀	-4652
▁정복감	-4653
▁정확한	-4654
▁조개갖	-4655
▁조개한	-4656
▁종특인	-4657
▁죄가된	-4658
▁주작질	-4659
▁주장할	-4660
▁주접킹	-4661
▁준비나	-4662
▁지능순	-4663
▁지민이	-4664
▁지성의	-4665
▁지적질	-4666
▁지키고	-4667
▁직장관	-4668
▁진리다	-4669
▁진실은	-4670
▁진실이	-4671
▁집안빵	-4672
▁찍은건	-4673
▁찢어라	-4674
▁찢어질	-4675
▁철저한	-4676
▁철저히	-4677
▁청순한	-4678
▁쳐맞고	-4679
▁쳐맞은	-4680
▁쳐먹어	-4681
▁쳐보질	-4682
▁최대한	-4683
▁최악의	-4684
▁충실히	-4685
▁카톡에	-4686
▁커가며	-4687
▁커플좀	-4688
▁쿨한나	-4689
▁크게변	-4690
▁큰딸은	-4691
▁태양은	-4692
▁테이프	-4693
▁톱스타	-4694
▁퇴물에	-4695
▁티비에	-4696
▁패션이	-4697
▁팬벨트	-4698
▁퍼날리	-4699
늙은이	-4700
를하든	-4701
만바뀌	-4702
묵하러	-4703
배자들	-4704
압올려	-4705
예은이	-4706
올려도	-4707
와이프	-4708
웃긴뇬	-4709
장님에	-4710
지말길	-4711
지말아	-4712
첩질도	-4713
최자는	-4714
친거랑	-4715
콩여행	-4716
키우고	-4717
키우며	-4718
탄자들	-4719
하든지	-4720
화오는	-4721
▁내조가	-4722
▁노력들	-4723
▁대역이	-4724
▁떡이되	-4725
▁머하러	-4726
▁메인에	-4727
▁모여서	-4728
▁무의식	-4729
▁배역이	-4730
▁애인들	-4731
▁약한게	-4732
▁역할만	-4733
▁오져서	-4734
▁와이프	-4735
▁왜올려	-4736
▁젖타령	-4737
▁주제가	-4738
▁지은이	-4739
▁페북을	-4740
▁폐미는	-4741
▁폭력범	-4742
▁품느라	-4743
▁풋풋한	-4744
▁피곤할	-4745
▁핑계로	-4746
▁한걸래	-4747
▁한둘이	-4748
▁한명은	-4749
▁한분은	-4750
▁한쪽만	-4751
▁한테올	-4752
▁할게뻔	-4753
▁할배가	-4754
▁할수있	-4755
▁할짓은	-4756
▁합법인	-4757
▁해소는	-4758
▁햇을까	-4759
▁했나싶	-4760
▁행사나	-4761
▁향단이	-4762
▁협박범	-4763
▁혜교가	-4764
▁호감안	-4765
▁호감을	-4766
▁호구는	-4767
▁혼나고	-4768
▁화자는	-4769
▁활동접	-4770
▁효린은	-4771
▁후덜덜	-4772
▁후진국	-4773
▁훈남기	-4774
▁훨씬나	-4775
▁흉측한	-4776
가는나올	-4777
가능한가	-4778
가뜨리고	-4779
가보네요	-4780
가스나들	-4781
가저러니	-4782
가흐르는	-4783
값받기를	-4784
갔나보네	-4785
갔네남성	-4786
개나소나	-4787
거리지뻔	-4788
거지뇨나	-4789
게사세요	-4790
게없나봐	-4791
견스러운	-4792
결혼상대	-4793
과하라고	-4794
그놈인데	-4795
그램이라	-4796
글거리지	-4797
기본적인	-4798
김치소리	-4799
ᆢ불쌍	-4800
거에요	-4801
근시켰	-4802
김생민	-4803
깐사진	-4804
넘어질	-4805
년생김	-4806
뉴스로	-4807
도속은	-4808
릴수록	-4809
많아도	-4810
망상에	-4811
목사님	-4812
물어뜯	-4813
보소ᆢ	-4814
쁜사진	-4815
신부가	-4816
아까웠	-4817
아파디	-4818
안되겠	-4819
안되냐	-4820
안보냐	-4821
이비슷	-4822
장부가	-4823
장시키	-4824
제안되	-4825
직업이	-4826
진아도	-4827
청소나	-4828
추어져	-4829
풀어져	-4830
ᆢ불쌍해	-4831
▁가봤자	-4832
▁구속은	-4833
▁단속은	-4834
▁될수없	-4835
▁떨어질	-4836
▁바보냐	-4837
▁빼애액	-4838
▁살아도	-4839
▁왜보냐	-4840
▁용어로	-4841
▁풀어볼	-4842
▁할수없	-4843
고넘어질	-4844
근시켰던	-4845
깨어나도	-4846
꽥하고파	-4847
끄럽네ᅲ	-4848
나겠구만	-4849
난거에요	-4850
날수있지	-4851
낳으셔서	-4852
내가면서	-4853
내들중에	-4854
냐오창석	-4855
녀사이에	-4856
년놈들이	-4857
다는거냐	-4858
다는넘들	-4859
달라더니	-4860
당하는한	-4861
대년들아	-4862
대늙은이	-4863
대상황이	-4864
대장부가	-4865
대했다가	-4866
던데애를	-4867
데뷔해서	-4868
도안보일	-4869
도연도이	-4870
도팀이엿	-4871
두명이서	-4872
드는거봐	-4873
드립친거	-4874
들끼리만	-4875
들만잇고	-4876
뛰어나니	-4877
라버리든	-4878
락시켜야	-4879
랑붕어빵	-4880
려니하고	-4881
려죽여도	-4882
루만져주	-4883
를꾸겨신	-4884
리는거네	-4885
리케이만	-4886
마약으로	-4887
만바뀌면	-4888
망치는데	-4889
멜갈김치	-4890
면안되냐	-4891
몰려가서	-4892
못하겠네	-4893
못하도록	-4894
미인이랑	-4895
믹키유천	-4896
민기딸은	-4897
반성따위	-4898
받는데도	-4899
간수를	-4900
극받고	-4901
깨냄새	-4902
놔라배	-4903
다라시	-4904
되나여	-4905
된다나	-4906
둥이년	-4907
둥이에	-4908
때나마	-4909
려놔라	-4910
를르르	-4911
만명은	-4912
매력의	-4913
모를까	-4914
미투라	-4915
바람핀	-4916
바지에	-4917
받을꺼	-4918
번째로	-4919
새벽에	-4920
아먹네	-4921
에놈들	-4922
웰메이	-4923
있도록	-4924
쟁나면	-4925
▁끌린다	-4926
▁다를까	-4927
▁대리를	-4928
▁되도록	-4929
▁모를까	-4930
▁못났다	-4931
▁빼먹네	-4932
▁수만명	-4933
▁외면이	-4934
▁욕먹네	-4935
▁웰메이	-4936
▁저난리	-4937
▁좋단다	-4938
▁지네는	-4939
깜둥이년	-4940
르를르르	-4941
말아먹네	-4942
매력도가	-4943
몸간수를	-4944
미투당한	-4945
바람핀거	-4946
발꾸겨신	-4947
방송촬영	-4948
배였을걸	-4949
병허니냐	-4950
보게되서	-4951
보기힘든	-4952
보들인듯	-4953
보이군요	-4954
보일것을	-4955
보입니까	-4956
복하시구	-4957
봐주나요	-4958
부러우면	-4959
부러울거	-4960
부모한테	-4961
브래지어	-4962
븐걸린거	-4963
빈마누라	-4964
빵워마드	-4965
쁜사진들	-4966
사가됬냐	-4967
사아닌가	-4968
살것같다	-4969
살기편타	-4970
살되는데	-4971
살아나고	-4972
살이니까	-4973
살인미수	-4974
상관이고	-4975
상에서도	-4976
상하니깐	-4977
선시대인	-4978
세대라불	-4979
세대와서	-4980
세보인다	-4981
세한다는	-4982
수없는경	-4983
시오패스	-4984
시켰겠지	-4985
시켰냐고	-4986
시키지말	-4987
식도하고	-4988
신의한수	-4989
싫다ᅳᅳ	-4990
심해보임	-4991
십만명은	-4992
싶으니깐	-4993
아ᅲᅮᅲ	-4994
아까웠지	-4995
아닌가요	-4996
안에서도	-4997
안좋다잉	-4998
안했으니	-4999
▁착용	-5000
▁채널	-5001
▁채워	-5002
▁케바	-5003
▁클났	-5004
▁파헤	-5005
▁헐리	-5006
▁황교	-5007
▁황찬	-5008
▁회사	-5009
▁휴학	-5010
▁희대	-5011
▁희한	-5012
▁히잌	-5013
겠나봐	-5014
고만할	-5015
기감은	-5016
난거야	-5017
는것은	-5018
딧겠나	-5019
숨걸고	-5020
역겨워	-5021
은것은	-5022
을꺼같	-5023
자같고	-5024
출까요	-5025
▁결정했	-5026
▁될것을	-5027
▁딸가진	-5028
▁망가진	-5029
▁못가고	-5030
▁못돌아	-5031
▁뭘까요	-5032
▁안가진	-5033
▁안갖는	-5034
▁저랬어	-5035
▁정겨운	-5036
▁채널돌	-5037
▁케바케	-5038
▁틀리네	-5039
▁파이팅	-5040
▁헐리웃	-5041
▁환자나	-5042
▁황교활	-5043
▁황찬성	-5044
▁휴가나	-5045
▁희대의	-5046
▁희한한	-5047
공자같고	-5048
긁은것은	-5049
되는것을	-5050
맞출까요	-5051
목숨걸고	-5052
았을테데	-5053
액비누도	-5054
어넣었냐	-5055
어돌아가	-5056
어이없네	-5057
어쩌라구	-5058
에놈들과	-5059
여주신게	-5060
여행에서	-5061
연애하다	-5062
였을뿐임	-5063
옮겼다가	-5064
요기감은	-5065
웃는거냐	-5066
워맞추기	-5067
윗아래로	-5068
유명한데	-5069
유하시구	-5070
으려나가	-5071
으루보답	-5072
은망덕은	-5073
음주운전	-5074
의식에서	-5075
의이미지	-5076
이는건가	-5077
이되냐고	-5078
인거같음	-5079
인도가서	-5080
인으로만	-5081
인이라면	-5082
임신해도	-5083
있었겠지	-5084
자극받고	-5085
잖아부럽	-5086
잘못만나	-5087
잘키우고	-5088
잘피해갓	-5089
쟁이들과	-5090
적이없네	-5091
전현무는	-5092
정준영도	-5093
정준영카	-5094
정해주자	-5095
조심하자	-5096
조작프로	-5097
주일안에	-5098
죽겠나봐	-5099
ᆢᆢ왜	-5100
▁>=	-5101
▁bo	-5102
▁갖추	-5103
▁곧휴	-5104
▁광분	-5105
▁깔껀	-5106
▁깔끔	-5107
▁꺼져	-5108
▁끌면	-5109
▁낫지	-5110
▁났네	-5111
▁뇌가	-5112
▁명복	-5113
▁명심	-5114
▁명확	-5115
▁밭도	-5116
▁밭일	-5117
▁북어	-5118
▁빚이	-5119
▁빚투	-5120
▁빻은	-5121
▁싹다	-5122
▁싹아	-5123
▁앉을	-5124
▁엠씨	-5125
▁옛말	-5126
▁옛어	-5127
▁왔네	-5128
▁왠시	-5129
▁울고	-5130
▁울산	-5131
▁줌내	-5132
▁착각	-5133
야겠군	-5134
▁갖추고	-5135
▁곧휴가	-5136
▁광대는	-5137
▁깔끔한	-5138
▁뇬드라	-5139
▁뇬들이	-5140
▁담부터	-5141
▁돋는다	-5142
▁돋보여	-5143
▁명복은	-5144
▁명확한	-5145
▁목소리	-5146
▁목적이	-5147
▁북어와	-5148
▁싹아지	-5149
▁역대급	-5150
▁옛말에	-5151
▁옛어른	-5152
▁왠시비	-5153
▁울고갈	-5154
▁쟤들은	-5155
▁줌들이	-5156
▁짱이야	-5157
▁짱인듯	-5158
▁찔리는	-5159
▁착각에	-5160
즈시절일	-5161
즉했겠지	-5162
지들보다	-5163
지말길이	-5164
지않나ᄏ	-5165
지포르노	-5166
직업이머	-5167
질도하고	-5168
짓일수도	-5169
차리는게	-5170
창여들다	-5171
청소나처	-5172
쳐묵하러	-5173
촌스럽게	-5174
최고인데	-5175
치뇬둘이	-5176
칭다니까	-5177
코패스나	-5178
콩깠던거	-5179
키우기도	-5180
태진아도	-5181
텔방가서	-5182
텔방까지	-5183
통난거냐	-5184
판친거랑	-5185
패배자들	-5186
팬들위해	-5187
피해보네	-5188
하고파람	-5189
하길바람	-5190
하나도없	-5191
하지는않	-5192
학로맨스	-5193
한국여자	-5194
한넘들이	-5195
한넘하고	-5196
한혜진이	-5197
할거같다	-5198
했나봐요	-5199
0.1	-5200
3.1	-5201
ang	-5202
any	-5203
ons	-5204
ᆢᆢ죽	-5205
▁ᄅᄋ	-5206
..,"	-5207
anyt	-5208
hang	-5209
mons	-5210
wwww	-5211
ᆢᆢ죽일	-5212
▁원수다	-5213
찔해보임	-5214
퍼하겠다	-5215
허식으로	-5216
현민이엇	-5217
현우팬들	-5218
형이던데	-5219
호한거고	-5220
혼자산다	-5221
화시켜야	-5222
79945	-5223
monst	-5224
ᄏᄏ듣보잡	-5225
ᄒᄒᄒᄒᄒ	-5226
ᆢᆢ죽일놈	-5227
▁43.1	-5228
▁Girl	-5229
▁Jill	-5230
▁Very	-5231
▁anyt	-5232
▁seki	-5233
▁sekk	-5234
▁very	-5235
▁ᄇᄉ페미	-5236
▁ᄋᄌᄅ하	-5237
▁ᄌᄂ웃긴	-5238
▁ᄌᄅ떠는	-5239
▁ᄏᄏ메갈	-5240
▁ᄒᄃᄃ한	-5241
▁가능성도	-5242
▁가스나도	-5243
▁가스내스	-5244
▁가식떨지	-5245
▁가야겠군	-5246
▁간지러웡	-5247
▁감놔라배	-5248
▁감동시킨	-5249
▁갓양녀와	-5250
▁강요하니	-5251
▁개그우먼	-5252
▁개나소나	-5253
▁개때처럼	-5254
▁개멋있다	-5255
▁개빻아서	-5256
▁개빻은거	-5257
▁개소리는	-5258
▁개소리로	-5259
▁개인적인	-5260
▁개집들이	-5261
▁거론해서	-5262
▁거르는게	-5263
▁거울보니	-5264
▁거짓말탐	-5265
▁건강하게	-5266
▁건들여서	-5267
▁건들이지	-5268
▁게스트로	-5269
▁결혼식을	-5270
▁경제적손	-5271
▁경제적책	-5272
▁계속나오	-5273
▁고발하는	-5274
▁공통문화	-5275
▁공효진이	-5276
▁관상보니	-5277
▁관상이니	-5278
▁관심받기	-5279
▁관심받나	-5280
▁광분하나	-5281
▁괴롭혀서	-5282
▁괴롭히고	-5283
▁국민들을	-5284
▁그거라도	-5285
▁그녀들만	-5286
▁그래봤자	-5287
▁그런것은	-5288
▁그런여행	-5289
▁그만들좀	-5290
▁그이하도	-5291
▁근거없는	-5292
▁긁은것은	-5293
▁기다려봐	-5294
▁기러기짓	-5295
▁기본섹스	-5296
▁기자놈같	-5297
▁김갑수와	-5298
▁김건모는	-5299
▁띠동	-5300
ᅮ집에서	-5301
▁띠동갑	-5302
▁신의한	-5303
▁진지빨	-5304
▁진지한	-5305
▁진지해	-5306
▁찌질이	-5307
▁축하받	-5308
▁특히부	-5309
▁피부미	-5310
▁필요가	-5311
▁필요도	-5312
▁하겠죠	-5313
▁하늘로	-5314
▁합의금	-5315
▁현빈이	-5316
나보다ᅮ	-5317
내나보다	-5318
넣지마라	-5319
년들이지	-5320
들안하고	-5321
먹으면서	-5322
았네ᄏᄏ	-5323
았다고들	-5324
장폐기녀	-5325
중이라니	-5326
지마라급	-5327
집에서서	-5328
카라는거	-5329
한여자도	-5330
했다는게	-5331
했었는데	-5332
▁김태리의	-5333
▁김태희이	-5334
▁깡패구나	-5335
▁깨끗하고	-5336
▁깨끗하냐	-5337
▁깨어나도	-5338
▁꼬라지들	-5339
▁꼬리흔드	-5340
▁꾸미기전	-5341
▁꿀빨러에	-5342
▁꿀빨려고	-5343
▁끊이지않	-5344
▁끝난거야	-5345
▁나가는거	-5346
▁나경은은	-5347
▁나이값못	-5348
▁나이차가	-5349
▁나이차이	-5350
▁난리났다	-5351
▁난리치던	-5352
▁난리친거	-5353
▁날려줬음	-5354
▁날리나겠	-5355
▁날이네요	-5356
▁남에프로	-5357
▁남자같음	-5358
▁남자답게	-5359
▁남자답노	-5360
▁남자답지	-5361
▁남자랑은	-5362
▁남자있냐	-5363
▁남자한텐	-5364
▁남주는유	-5365
▁낫지않나	-5366
▁내연녀에	-5367
▁내일부터	-5368
▁너무아파	-5369
▁넘어가면	-5370
▁녀자들이	-5371
▁노사연도	-5372
▁노산이면	-5373
▁노이해다	-5374
▁노처녀는	-5375
▁논리보단	-5376
▁놀아나는	-5377
▁뉴스꺼리	-5378
▁뉴스에서	-5379
▁늦기전에	-5380
▁다니곘네	-5381
▁다리까지	-5382
▁다물더니	-5383
▁다보이고	-5384
▁다한거고	-5385
▁단단하니	-5386
▁달라드는	-5387
▁달라진다	-5388
▁답답한일	-5389
▁당연한일	-5390
▁대중가요	-5391
▁대중한테	-5392
▁더러운건	-5393
▁더러운듯	-5394
▁더러워서	-5395
▁데려가냐	-5396
▁데려가네	-5397
▁데리고놀	-5398
▁도박하고	-5399
▁61%	-5400
▁can	-5401
▁느낌상	-5402
▁느낌이	-5403
▁덩어리	-5404
▁데려갔	-5405
▁돈도많	-5406
▁돈벌면	-5407
▁레즈네	-5408
▁맞는말	-5409
▁맞춰야	-5410
▁맞춰주	-5411
▁멋있다	-5412
▁멋있었	-5413
▁미국귀	-5414
▁미모를	-5415
▁바로버	-5416
▁보내고	-5417
▁봐야알	-5418
▁서현숙	-5419
▁성비를	-5420
▁섹스할	-5421
▁섹스해	-5422
▁신고도	-5423
▁신고하	-5424
▁아래도	-5425
▁아예벗	-5426
▁아줌매	-5427
▁안나옴	-5428
▁안쓰고	-5429
▁어딜봐	-5430
▁어울리	-5431
▁여러명	-5432
▁여러모	-5433
▁역겹고	-5434
▁올라가	-5435
▁음악만	-5436
▁음악은	-5437
▁음주뺑	-5438
▁이딴거	-5439
▁이종현	-5440
▁인성도	-5441
▁자신있	-5442
▁잘나간	-5443
▁잘살게	-5444
▁잘살겠	-5445
▁잡아갔	-5446
▁잡아떼	-5447
▁잡아먹	-5448
▁재밌고	-5449
▁재밌어	-5450
▁저질스	-5451
▁주제에	-5452
▁넣어줘야	-5453
▁덩어리인	-5454
▁데려갔지	-5455
▁돈벌면뭐	-5456
▁돈일수도	-5457
▁돋보여야	-5458
▁돌려놔라	-5459
▁동성애옹	-5460
▁동성애자	-5461
▁동성애지	-5462
▁두번들어	-5463
▁둘이그냥	-5464
▁뒷목잡고	-5465
▁듣고싶고	-5466
▁듣보줌마	-5467
▁들고나온	-5468
▁들어가고	-5469
▁들어오고	-5470
▁들이대지	-5471
▁딱이니까	-5472
▁딴여자좀	-5473
▁떡이되게	-5474
▁떨어지고	-5475
▁떨어질만	-5476
▁똑같드만	-5477
▁똑바로해	-5478
▁똥차가고	-5479
▁똥차타령	-5480
▁뚱뚱하고	-5481
▁뛰어나니	-5482
▁띄어주고	-5483
▁로맨스라	-5484
▁마눌님은	-5485
▁마땅하지	-5486
▁마인드임	-5487
▁마지막은	-5488
▁만났는데	-5489
▁만났으면	-5490
▁만드는거	-5491
▁만져주나	-5492
▁만족시켜	-5493
▁만족하니	-5494
▁말아먹지	-5495
▁말아야지	-5496
▁말장난에	-5497
▁말하는애	-5498
▁망상연애	-5499
긴했어	-5500
김지영	-5501
노총각	-5502
만했어	-5503
밝히는	-5504
법촬영	-5505
비호감	-5506
숙했던	-5507
애초에	-5508
율희는	-5509
지않긬	-5510
착했네	-5511
태현의	-5512
패했네	-5513
하긴커	-5514
하긴함	-5515
했던거	-5516
▁180	-5517
▁강간모	-5518
▁강간할	-5519
▁건들면	-5520
▁고만들	-5521
▁고만좀	-5522
▁고쳐서	-5523
▁관계를	-5524
▁관계자	-5525
▁괴롭게	-5526
▁구했네	-5527
▁그짓을	-5528
▁급한가	-5529
▁기분나	-5530
▁기분이	-5531
▁김지영	-5532
▁나라가	-5533
▁나라를	-5534
▁나라차	-5535
▁나쁘다	-5536
▁남성용	-5537
▁느낌ᅮ	-5538
▁뒤진다	-5539
▁먼짓을	-5540
▁묻히는	-5541
▁밝히는	-5542
▁백지영	-5543
▁스토린	-5544
▁야하긴	-5545
▁잘했어	-5546
거아니냐	-5547
남태현의	-5548
비호감에	-5549
사랑했던	-5550
총각들이	-5551
하긴커녕	-5552
힐만했어	-5553
▁가졌는데	-5554
▁가졌을까	-5555
▁관계없는	-5556
▁급한가보	-5557
▁기분나쁠	-5558
▁기분좋아	-5559
▁나라차원	-5560
▁남이하면	-5561
▁노답들만	-5562
▁노답이다	-5563
▁노답이라	-5564
▁맞지ᄒᄒ	-5565
▁매력있냐	-5566
▁매장시키	-5567
▁머리채만	-5568
▁멋있다고	-5569
▁메갈어로	-5570
▁명심해라	-5571
▁모음이나	-5572
▁모텔갔던	-5573
▁몰고갔던	-5574
▁몰라하네	-5575
▁못났으면	-5576
▁못되게생	-5577
▁못물어뜯	-5578
▁못생겨도	-5579
▁무매력의	-5580
▁물어뜯는	-5581
▁뭔악플질	-5582
▁뭣때문에	-5583
▁미국귀족	-5584
▁미국으로	-5585
▁미모인데	-5586
▁미숙했던	-5587
▁미워하면	-5588
▁미워해도	-5589
▁미쳤간다	-5590
▁미쳤구나	-5591
▁미투한번	-5592
▁믹키유천	-5593
▁민원인데	-5594
▁바보가되	-5595
▁박혜미도	-5596
▁반성하며	-5597
▁받는모습	-5598
▁받으려고	-5599
▁환영	-5600
겨주면	-5601
꼴보기	-5602
네정말	-5603
따지면	-5604
미인은	-5605
벙어리	-5606
비누는	-5607
빠지게	-5608
살아보	-5609
살아요	-5610
서지게	-5611
석이조	-5612
수미가	-5613
애비가	-5614
애비로	-5615
어지졍	-5616
어지지	-5617
연언니	-5618
이쁜아	-5619
이쁜척	-5620
저살아	-5621
주어라	-5622
터지게	-5623
터지면	-5624
▁가져라	-5625
▁관상이	-5626
▁따지면	-5627
▁멋지게	-5628
▁멋지다	-5629
▁못사는	-5630
▁방아를	-5631
▁벗었지	-5632
▁벙어리	-5633
▁빠져라	-5634
▁사용하	-5635
▁수사는	-5636
▁슈언니	-5637
▁싸주면	-5638
▁아역이	-5639
▁안이쁜	-5640
▁유명한	-5641
▁윤아를	-5642
▁있었지	-5643
▁지아를	-5644
▁천지다	-5645
김수미가	-5646
나오지않	-5647
먼저살아	-5648
보이는거	-5649
보이는건	-5650
뼈빠지게	-5651
사는인생	-5652
사랑하고	-5653
아니예요	-5654
어주어라	-5655
언니같은	-5656
유비누는	-5657
이다제도	-5658
이유없이	-5659
챙겨주면	-5660
헤어지지	-5661
▁개꼴보기	-5662
▁늘어지졍	-5663
▁될거같다	-5664
▁발연기스	-5665
▁밝혔기로	-5666
▁밝히는건	-5667
▁밥쳐먹고	-5668
▁밭일하고	-5669
▁뱃속에서	-5670
▁버려야지	-5671
▁버리는듯	-5672
▁버린다고	-5673
▁번드르르	-5674
▁벌리는게	-5675
▁벌받아야	-5676
▁벌받아요	-5677
▁범죄자들	-5678
▁벗으라고	-5679
▁벼슬이냐	-5680
▁벼슬이야	-5681
▁변명일뿐	-5682
▁별거아닌	-5683
▁병원에서	-5684
▁보기싫음	-5685
▁보긴했어	-5686
▁보네지금	-5687
▁보니허니	-5688
▁보수진보	-5689
▁보였는데	-5690
▁볶았으면	-5691
▁본능적인	-5692
▁봐야하니	-5693
▁부러운갑	-5694
▁부서지게	-5695
▁부터알아	-5696
▁부풀어져	-5697
▁북한남자	-5698
▁북한여성	-5699
▁♡♡	-5700
▁귀신	-5701
▁앉아	-5702
▁짜리	-5703
▁쪽이	-5704
▁친형	-5705
▁쿵광	-5706
▁타고	-5707
▁퇴사	-5708
▁학원	-5709
▁효성	-5710
가없어	-5711
고생은	-5712
된거임	-5713
러가라	-5714
만가라	-5715
못낳는	-5716
법나온	-5717
수가없	-5718
순간에	-5719
시간에	-5720
신들의	-5721
원나잇	-5722
을건데	-5723
인간이	-5724
차라리	-5725
화가없	-5726
후라이	-5727
히어로	-5728
ᄊᄅᄀ와	-5729
▁경찰도	-5730
▁나가면	-5731
▁달리지	-5732
▁또라이	-5733
▁못낳는	-5734
▁무도가	-5735
▁박수진	-5736
▁반대도	-5737
▁잘가라	-5738
▁중간에	-5739
▁지나도	-5740
▁짜리몽	-5741
▁철가면	-5742
▁트페미	-5743
▁팬들의	-5744
▁하겟지	-5745
▁하드만	-5746
▁한명이	-5747
고생이냐	-5748
고생했나	-5749
나이많고	-5750
당신들의	-5751
드만ᄏᄏ	-5752
란후라이	-5753
러우니까	-5754
로만가라	-5755
뭐가없어	-5756
법나온거	-5757
블히어로	-5758
줌마들의	-5759
한순간에	-5760
할시간에	-5761
▁ᄊᄅᄀ와	-5762
▁ᄒ차라리	-5763
▁♡♡♡♡	-5764
▁관심도가	-5765
▁귀신같이	-5766
▁남편관리	-5767
▁늙은거임	-5768
▁물러가라	-5769
▁분유스유	-5770
▁불법촬영	-5771
▁불편할까	-5772
▁붙이지마	-5773
▁붙이지좀	-5774
▁브래지어	-5775
▁비율보소	-5776
▁빠져산다	-5777
▁빵터졌다	-5778
▁뻔한거임	-5779
▁뼈빠지게	-5780
▁뼛속꺼지	-5781
▁뿐만아니	-5782
▁삐뚤어진	-5783
▁사겨ᅳᅳ	-5784
▁사과문도	-5785
▁사랑받지	-5786
▁사업하다	-5787
▁산다는게	-5788
▁살아야될	-5789
▁살아야지	-5790
▁삼산오오	-5791
▁상관없고	-5792
▁상관이냐	-5793
▁상대하냐	-5794
▁상상력을	-5795
▁색기있게	-5796
▁생각없지	-5797
▁생기다가	-5798
▁서현진이	-5799
▁--	-5800
▁69	-5801
▁cc	-5802
▁ᄂ들	-5803
▁ᄂ이	-5804
▁갓스	-5805
▁금방	-5806
▁금전	-5807
▁꾸지	-5808
▁녀ᄂ	-5809
▁늘어	-5810
▁떡만	-5811
▁떡밥	-5812
▁민주	-5813
▁민폐	-5814
▁민혁	-5815
▁복귀	-5816
▁복장	-5817
▁복찬	-5818
▁빌딩	-5819
▁빌미	-5820
▁뻔한	-5821
▁삼가	-5822
▁삼고	-5823
▁슈도	-5824
▁슈퍼	-5825
▁슴이	-5826
▁써도	-5827
▁써주	-5828
▁왕년	-5829
▁왕따	-5830
▁왕새	-5831
▁왕지	-5832
▁접대	-5833
▁즐겁	-5834
▁즐겨	-5835
▁즐기	-5836
▁즐길	-5837
욕없고	-5838
▁갓스시	-5839
▁갔다가	-5840
▁금전적	-5841
▁늘어졋	-5842
▁민폐녀	-5843
▁민혁은	-5844
▁복장도	-5845
▁빌미로	-5846
▁뻔하지	-5847
▁슴가는	-5848
▁왕년에	-5849
▁왕새우	-5850
▁왕지혜	-5851
▁접대부	-5852
▁즐겁겠	-5853
▁즐기려	-5854
▁짜증부	-5855
상했는데	-5856
질했는데	-5857
▁갓스시녀	-5858
▁걸그룹은	-5859
▁남자집엔	-5860
▁녀ᄂ이네	-5861
▁민주인줄	-5862
▁복찬거지	-5863
▁사람이시	-5864
▁삼가하고	-5865
▁선동해서	-5866
▁설현에게	-5867
▁설현이나	-5868
▁섭외들어	-5869
▁성격좋은	-5870
▁세계최고	-5871
▁세보여서	-5872
▁섹스할때	-5873
▁소름돋네	-5874
▁소리들을	-5875
▁소유물이	-5876
▁손가락에	-5877
▁송지효는	-5878
▁송혜교가	-5879
▁송혜교는	-5880
▁수고하네	-5881
▁수영복이	-5882
▁수있도록	-5883
▁수컷들은	-5884
▁술집언니	-5885
▁쉴드치면	-5886
▁슈퍼스타	-5887
▁스타일은	-5888
▁승리라고	-5889
▁승현이형	-5890
▁시끄럽냐	-5891
▁시작하네	-5892
▁시작하는	-5893
▁시집못갔	-5894
▁실패했네	-5895
▁심심하니	-5896
▁심심한가	-5897
▁싱싱한게	-5898
▁싸보인다	-5899
kbs	-5900
▁닥치	-5901
을라나	-5902
▁kbs	-5903
▁년들은	-5904
▁닥치지	-5905
▁아는것	-5906
▁아쉽네	-5907
▁애를낳	-5908
▁억울한	-5909
▁여시쭉	-5910
▁여주도	-5911
▁여주를	-5912
▁올려도	-5913
▁원래도	-5914
▁이딴식	-5915
▁이뻐야	-5916
▁이뻐지	-5917
▁조사중	-5918
▁친구도	-5919
▁팩트가	-5920
▁팩트다	-5921
▁팩트로	-5922
▁힘내라	-5923
▁힘내세	-5924
▁힘든거	-5925
▁힘든일	-5926
가보세요	-5927
경아줌마	-5928
말하는것	-5929
박하네요	-5930
벌었다고	-5931
북하네요	-5932
아줌마는	-5933
정도로ᆢ	-5934
폰아줌마	-5935
▁그정도로	-5936
▁내마누라	-5937
▁되었다고	-5938
▁말하는것	-5939
▁색기오지	-5940
▁심하네요	-5941
▁싶을라나	-5942
▁싸우는데	-5943
▁써라ᄍᄍ	-5944
▁쓰지마라	-5945
▁쓸모없는	-5946
▁아기낳는	-5947
▁아까워요	-5948
▁아내의맛	-5949
▁아니예요	-5950
▁아닌듯ᄏ	-5951
▁아다라시	-5952
▁아들낳고	-5953
▁아예벗지	-5954
▁아줌니들	-5955
▁아직도섹	-5956
▁아프다고	-5957
▁아픈사람	-5958
▁악플다냐	-5959
▁악플쩌네	-5960
▁안걸리고	-5961
▁안나대도	-5962
▁안나올듯	-5963
▁안느껴짐	-5964
▁안달이네	-5965
▁안돼겠다	-5966
▁안받는데	-5967
▁안쓰럽다	-5968
▁안어울림	-5969
▁안타까워	-5970
▁안타깝게	-5971
▁안타깝기	-5972
▁안타깝네	-5973
▁안하잖아	-5974
▁앉아야지	-5975
▁앉아있지	-5976
▁앉을대도	-5977
▁않았다고	-5978
▁알수가없	-5979
▁앞모습은	-5980
▁애낳는거	-5981
▁애들이야	-5982
▁애첩질도	-5983
▁애키우며	-5984
▁얘가뭔죄	-5985
▁어딧겠나	-5986
▁어려야됨	-5987
▁어려움을	-5988
▁어렸을때	-5989
▁어지간하	-5990
▁어쩌라고	-5991
▁언제해요	-5992
▁얼매나좋	-5993
▁엄마걸고	-5994
▁없나보네	-5995
▁없나보다	-5996
▁없어보이	-5997
▁없었다고	-5998
▁엉뎅이도	-5999
감해줘	-6000
기오는	-6001
뜯어고	-6002
부할수	-6003
해줘라	-6004
▁ᅳᅳᄏ	-6005
▁가정을	-6006
▁고생길	-6007
▁공개열	-6008
▁관종임	-6009
▁구해줘	-6010
▁그리구	-6011
▁나왔다	-6012
▁나왔음	-6013
▁남친의	-6014
▁냄새나	-6015
▁대체로	-6016
▁따라다	-6017
▁따라온	-6018
▁못하구	-6019
▁바꿔가	-6020
▁보이던	-6021
▁부모입	-6022
▁비난개	-6023
▁사내를	-6024
▁사회다	-6025
▁사회적	-6026
▁생겼네	-6027
▁서울에	-6028
▁세계급	-6029
▁세계원	-6030
▁세계의	-6031
▁세계최	-6032
▁잘할수	-6033
▁취집을	-6034
▁확인은	-6035
뜯어고쳐	-6036
왈부할수	-6037
▁가만있어	-6038
▁가정폭력	-6039
▁결혼했나	-6040
▁고생하고	-6041
▁공감해줘	-6042
▁공개까지	-6043
▁공개열애	-6044
▁관종으로	-6045
▁관종이네	-6046
▁극혐이네	-6047
▁극혐이야	-6048
▁나왔는지	-6049
▁나왔으니	-6050
▁나왔으면	-6051
▁냄새나네	-6052
▁냄새나는	-6053
▁둘다모르	-6054
▁따라다닌	-6055
▁모델이니	-6056
▁못하니까	-6057
▁못하다고	-6058
▁보이는데	-6059
▁부모들은	-6060
▁부모입장	-6061
▁불륜보다	-6062
▁불륜으로	-6063
▁불륜이야	-6064
▁불륜이지	-6065
▁살인에는	-6066
▁살인하네	-6067
▁성공해서	-6068
▁세계원정	-6069
▁세계최하	-6070
▁술집가서	-6071
▁쉴드치고	-6072
▁싫다는데	-6073
▁엉딩이만	-6074
▁에혀저런	-6075
▁엑소좋아	-6076
▁여기서도	-6077
▁여러명을	-6078
▁여럿있네	-6079
▁여론조작	-6080
▁여보세요	-6081
▁여시퇘지	-6082
▁여신이다	-6083
▁여자라며	-6084
▁여자분은	-6085
▁여자출연	-6086
▁여장이나	-6087
▁여적여는	-6088
▁여적여를	-6089
▁여주어린	-6090
▁여친처럼	-6091
▁여편내들	-6092
▁여편네가	-6093
▁역할하시	-6094
▁연기자할	-6095
▁연애한번	-6096
▁연하남도	-6097
▁열등감임	-6098
▁열등의식	-6099
▁cf	-6100
갖은데	-6101
곳이있	-6102
꺼없이	-6103
났어요	-6104
돈이있	-6105
돌이를	-6106
랑할때	-6107
미있어	-6108
받았다	-6109
방할듯	-6110
살어린	-6111
실한건	-6112
심없이	-6113
아닌데	-6114
어린척	-6115
어차피	-6116
얼굴에	-6117
얼굴은	-6118
었나봄	-6119
요즘은	-6120
이란다	-6121
이있네	-6122
인거야	-6123
자리로	-6124
전없이	-6125
진이를	-6126
취자리	-6127
콕하며	-6128
팔할때	-6129
할수는	-6130
▁갔다고	-6131
▁남았다	-6132
▁멋있고	-6133
▁봐야함	-6134
▁분수를	-6135
▁싸우는	-6136
▁알았다	-6137
▁있어요	-6138
▁현우는	-6139
▁현재도	-6140
겠지하며	-6141
고다녀야	-6142
똑갖은데	-6143
받았다쳐	-6144
수도있지	-6145
아니었나	-6146
이있으니	-6147
있어보여	-6148
작전없이	-6149
주고있지	-6150
척어린척	-6151
통났어요	-6152
하지않는	-6153
할때인데	-6154
할수있는	-6155
확실한건	-6156
▁가만있음	-6157
▁남태현이	-6158
▁냄새난다	-6159
▁단돌이를	-6160
▁딸이있네	-6161
▁먼돈이있	-6162
▁먼얼굴에	-6163
▁무방할듯	-6164
▁방콕하며	-6165
▁생각이란	-6166
▁생각할듯	-6167
▁성접대야	-6168
▁싸우는것	-6169
▁쓸곳이있	-6170
▁아니었나	-6171
▁안좋은놈	-6172
▁양심없이	-6173
▁여자얼굴	-6174
▁예로부터	-6175
▁예쁜갑네	-6176
▁예진이를	-6177
▁오달수도	-6178
▁오달수씨	-6179
▁오정연이	-6180
▁오지고요	-6181
▁오지랖좀	-6182
▁오크돼지	-6183
▁오크먜갈	-6184
▁올라가지	-6185
▁올려놓고	-6186
▁완벽하면	-6187
▁완벽해서	-6188
▁왕새우에	-6189
▁왜년들의	-6190
▁요구하고	-6191
▁요리배우	-6192
▁요리실력	-6193
▁욕먹을게	-6194
▁욕하기도	-6195
▁욕하는걸	-6196
▁욕하지만	-6197
▁용서해도	-6198
▁웃기는건	-6199
그동안	-6200
내려서	-6201
니들가	-6202
들사이	-6203
라먹을	-6204
려러니	-6205
먹은건	-6206
먹을논	-6207
병헌도	-6208
보내고	-6209
보내야	-6210
사이도	-6211
새끼네	-6212
생각만	-6213
생각을	-6214
수니들	-6215
왔더만	-6216
으시네	-6217
이사이	-6218
일반인	-6219
있더만	-6220
주먹은	-6221
줄만한	-6222
치더만	-6223
하던가	-6224
▁가던가	-6225
▁가려서	-6226
▁걸려서	-6227
▁걸만한	-6228
▁공부도	-6229
▁놀더만	-6230
▁등신이	-6231
▁밤마다	-6232
▁배신이	-6233
▁별생각	-6234
▁빼먹을	-6235
▁상당히	-6236
▁성대는	-6237
▁시대는	-6238
▁안보는	-6239
▁예시네	-6240
▁처보는	-6241
▁쳐먹은	-6242
▁합의하	-6243
깝치더만	-6244
니들가족	-6245
님들사이	-6246
더만같은	-6247
라먹을수	-6248
랭이사이	-6249
러내려서	-6250
먹은사람	-6251
먹을논아	-6252
보내고이	-6253
보내주고	-6254
새끼지만	-6255
생각해도	-6256
어있더만	-6257
일반인과	-6258
조심해라	-6259
픈주먹은	-6260
▁가려서해	-6261
▁같은생각	-6262
▁그려러니	-6263
▁그새끼네	-6264
▁깝치더만	-6265
▁나이먹은	-6266
▁남자보는	-6267
▁남태현빠	-6268
▁동한거지	-6269
▁봐줄만한	-6270
▁빠수니들	-6271
▁술먹은건	-6272
▁웃으면서	-6273
▁원나잇과	-6274
▁월드스타	-6275
▁웰메이드	-6276
▁위아래윗	-6277
▁유나같은	-6278
▁유부녀면	-6279
▁유치하고	-6280
▁음주뺑소	-6281
▁음탕녀래	-6282
▁의부증에	-6283
▁의부증이	-6284
▁의심스러	-6285
▁의심했나	-6286
▁의욕없고	-6287
▁이국주가	-6288
▁이국주도	-6289
▁이딴소리	-6290
▁이름만큼	-6291
▁이모예요	-6292
▁이민정에	-6293
▁이뻐야돼	-6294
▁이상한단	-6295
▁이상화는	-6296
▁이성미도	-6297
▁이시언급	-6298
▁이야기에	-6299
▁증명	-6300
▁짓뭉	-6301
▁창백	-6302
▁축복	-6303
▁취급	-6304
▁취미	-6305
▁칼꽂	-6306
▁칼들	-6307
▁칼라	-6308
▁토악	-6309
▁통달	-6310
▁투영	-6311
▁폐경	-6312
▁핑크	-6313
▁핑클	-6314
▁훨낫	-6315
겠어ᄒ	-6316
기거든	-6317
내나네	-6318
느라ᄏ	-6319
는다ᅲ	-6320
니깐아	-6321
든가나	-6322
러나네	-6323
리기만	-6324
먹기만	-6325
몇년전	-6326
뿌기만	-6327
생겨서	-6328
시기만	-6329
시기사	-6330
시기에	-6331
하거든	-6332
utoo	-6333
▁ᄋᄋᄏ	-6334
▁걸겠어	-6335
▁그남들	-6336
▁됐겠어	-6337
▁박성광	-6338
▁본거다	-6339
▁사느라	-6340
▁성기에	-6341
▁시기에	-6342
▁않는다	-6343
▁인건가	-6344
▁짓거리	-6345
▁짓뭉게	-6346
▁칼같이	-6347
▁칼들고	-6348
▁칼라거	-6349
▁토악질	-6350
▁통달한	-6351
▁폐경에	-6352
▁핑크빛	-6353
▁하거든	-6354
▁하기사	-6355
남들보다	-6356
는시기에	-6357
말든가나	-6358
먹기만해	-6359
뿌시기만	-6360
생기거든	-6361
성이거든	-6362
잘생겨서	-6363
주느라ᄏ	-6364
택시기사	-6365
outoo	-6366
▁그런건가	-6367
▁나오니깐	-6368
▁드러나네	-6369
▁못즐기는	-6370
▁불편해할	-6371
▁사느라수	-6372
▁아닌건가	-6373
▁안되니깐	-6374
▁요즘것들	-6375
▁이뿌기만	-6376
▁이쁘니깐	-6377
▁이여자도	-6378
▁이여자분	-6379
▁이여자야	-6380
▁이열음의	-6381
▁이열음이	-6382
▁이이경씨	-6383
▁이인간은	-6384
▁이정도로	-6385
▁이정도면	-6386
▁이중성이	-6387
▁이중적인	-6388
▁이찬오가	-6389
▁이혜정씨	-6390
▁이혼남이	-6391
▁이혼이여	-6392
▁이혼한건	-6393
▁인가보네	-6394
▁인성부분	-6395
▁인정안함	-6396
▁인지부조	-6397
▁일본녀는	-6398
▁일상이고	-6399
▁45	-6400
▁75	-6401
▁ᄉᄇ	-6402
▁ᄉ궁	-6403
▁간게	-6404
▁간다	-6405
▁간당	-6406
▁간편	-6407
▁금수	-6408
▁꿀꿀	-6409
▁낮고	-6410
▁낮짝	-6411
▁네뇬	-6412
▁된거	-6413
▁드뎌	-6414
▁드럽	-6415
▁뚱보	-6416
▁러브	-6417
▁레이	-6418
▁리더	-6419
▁리벤	-6420
▁리얼	-6421
▁묻은	-6422
▁묻혔	-6423
▁벗어	-6424
▁변질	-6425
▁봤네	-6426
▁숨은	-6427
▁슬슬	-6428
▁슬프	-6429
▁씨가	-6430
▁씨는	-6431
▁온갓	-6432
▁온갖	-6433
▁온거	-6434
▁온겨	-6435
▁온통	-6436
▁윤곽	-6437
▁윤아	-6438
▁점점	-6439
▁점차	-6440
▁좌시	-6441
▁좌표	-6442
제동도	-6443
▁45~	-6444
▁70%	-6445
▁75%	-6446
▁90%	-6447
▁ᄉ궁합	-6448
▁간당께	-6449
▁간편식	-6450
▁겁없는	-6451
▁골라서	-6452
▁궁하니	-6453
▁금수저	-6454
▁꿀꿀꿀	-6455
▁낮는건	-6456
▁낮짝공	-6457
▁된거마	-6458
▁러는거	-6459
▁러브가	-6460
▁레이싱	-6461
▁리더로	-6462
▁리얼로	-6463
▁묻었네	-6464
▁묻지마	-6465
▁묻혔을	-6466
▁벗어재	-6467
▁봤구나	-6468
▁씨처럼	-6469
▁위해서	-6470
▁정유진	-6471
마약쟁이	-6472
▁45~7	-6473
▁ᄉ궁합이	-6474
▁김제동도	-6475
▁낮짝공개	-6476
▁네뇬들은	-6477
▁된거마냥	-6478
▁러는거여	-6479
▁리더로써	-6480
▁묻혔을일	-6481
▁밝혔으면	-6482
▁벗어재낄	-6483
▁변질됐어	-6484
▁슬프겠다	-6485
▁씨가일단	-6486
▁위해서지	-6487
▁일석이조	-6488
▁일어나니	-6489
▁일어났네	-6490
▁임산부논	-6491
▁임산부석	-6492
▁임신햇지	-6493
▁임신힘든	-6494
▁임창정이	-6495
▁입고다니	-6496
▁입소문타	-6497
▁입었는ᄃ	-6498
▁입었다면	-6499
▁트젠	-6500
▁이러는	-6501
▁이러니	-6502
▁이성전	-6503
▁인간의	-6504
▁인간적	-6505
▁절대목	-6506
▁제목뽑	-6507
▁제목이	-6508
▁제발빼	-6509
▁책임이	-6510
▁트젠이	-6511
▁혼자사	-6512
가나더라	-6513
나가지고	-6514
년이라는	-6515
는다는걸	-6516
러가지고	-6517
리가지고	-6518
뱀이라는	-6519
분이지만	-6520
야하는건	-6521
▁그런거라	-6522
▁넘쳐나는	-6523
▁노브라는	-6524
▁노브라에	-6525
▁데이지만	-6526
▁사는거야	-6527
▁아이돌아	-6528
▁아이돌은	-6529
▁아이돌이	-6530
▁안재현과	-6531
▁어떻게든	-6532
▁없으니까	-6533
▁이러는거	-6534
▁이성전화	-6535
▁인간이라	-6536
▁인간적으	-6537
▁입장하고	-6538
▁있는걸까	-6539
▁있다기자	-6540
▁있어야함	-6541
▁잊겠지만	-6542
▁잊지말아	-6543
▁자격있지	-6544
▁자기관리	-6545
▁자살한거	-6546
▁자유지ᄋ	-6547
▁작당한거	-6548
▁작작하고	-6549
▁잘나가니	-6550
▁잘만나오	-6551
▁잘못이크	-6552
▁잘못타고	-6553
▁잘빠진것	-6554
▁잘살기를	-6555
▁잘생겼고	-6556
▁잘생겼냐	-6557
▁잘생기게	-6558
▁잘생기긴	-6559
▁잠자리에	-6560
▁장수하길	-6561
▁재력이면	-6562
▁재미없음	-6563
▁재밌다고	-6564
▁재수없는	-6565
▁재취자리	-6566
▁재혼하는	-6567
▁저기서도	-6568
▁저나이에	-6569
▁저남자가	-6570
▁저랬어봐	-6571
▁저랬으면	-6572
▁저런건데	-6573
▁저런사진	-6574
▁저정도면	-6575
▁저질스런	-6576
▁저질이지	-6577
▁저질적인	-6578
▁적당히해	-6579
▁전국민의	-6580
▁전남친일	-6581
▁전남편과	-6582
▁전세계도	-6583
▁전쟁나면	-6584
▁전화오는	-6585
▁절대목만	-6586
▁절대친구	-6587
▁절라인은	-6588
▁젊고싱싱	-6589
▁젊은넘이	-6590
▁정복당한	-6591
▁정상이냐	-6592
▁정상이지	-6593
▁정신차려	-6594
▁정준영꼴	-6595
▁정착했네	-6596
▁정확하니	-6597
▁젖깐사진	-6598
▁젖꼭지였	-6599
▁타게	-6600
가해보	-6601
망했다	-6602
싑진짜	-6603
요하자	-6604
좀하자	-6605
패했다	-6606
했다간	-6607
했다라	-6608
혜교는	-6609
ᅮᅮ진짜	-6610
▁;;;	-6611
▁노래가	-6612
▁노래는	-6613
▁노래도	-6614
▁노래방	-6615
▁노래쫌	-6616
▁느끼한	-6617
▁머하자	-6618
▁부부는	-6619
▁살빼라	-6620
▁상폐녀	-6621
▁상폐되	-6622
▁상폐들	-6623
▁성상납	-6624
▁성형한	-6625
▁섹시한	-6626
▁싑진짜	-6627
▁아들낳	-6628
▁안했다	-6629
▁어떤년	-6630
▁여우같	-6631
▁여우다	-6632
▁여우들	-6633
▁영화계	-6634
▁영화관	-6635
▁영화나	-6636
▁와진짜	-6637
▁자연인	-6638
▁한심해	-6639
강요하자	-6640
권한테만	-6641
때릴듯ᄏ	-6642
라지는거	-6643
맛인가요	-6644
생가해보	-6645
실패했다	-6646
킹해봐라	-6647
^^;;;	-6648
▁나도는데	-6649
▁노래방은	-6650
▁당했다라	-6651
▁마약이나	-6652
▁맨날남자	-6653
▁머하자는	-6654
▁받아줄듯	-6655
▁별로던데	-6656
▁보여주는	-6657
▁본인들만	-6658
▁본인이랑	-6659
▁살빼ᅲᅲ	-6660
▁살빼세요	-6661
▁상폐녀가	-6662
▁상폐되어	-6663
▁생긴것도	-6664
▁섹시하냐	-6665
▁섹시한거	-6666
▁손절하고	-6667
▁아들낳은	-6668
▁어떤남자	-6669
▁여우같네	-6670
▁여우다진	-6671
▁영화에서	-6672
▁오늘보니	-6673
▁잘망했다	-6674
▁제대로된	-6675
▁젠틀하고	-6676
▁조개갖고	-6677
▁조개한마	-6678
▁조사받지	-6679
▁조사하면	-6680
▁조사해라	-6681
▁조신해야	-6682
▁조용히살	-6683
▁조재현은	-6684
▁조폭이냐	-6685
▁조폭한테	-6686
▁존나싫어	-6687
▁좋다는걸	-6688
▁좋던가요	-6689
▁좋아할지	-6690
▁좋으시네	-6691
▁좌시하지	-6692
▁죄가되나	-6693
▁죄여남친	-6694
▁주기싫어	-6695
▁주작으로	-6696
▁주장했던	-6697
▁주접킹이	-6698
▁죽기전에	-6699
▁DD	-6700
그만큼	-6701
글시켜	-6702
난쟁이	-6703
내나는	-6704
단녀가	-6705
되있음	-6706
들끼리	-6707
듯이말	-6708
만큼벌	-6709
만큼은	-6710
문인지	-6711
문제집	-6712
벌었네	-6713
복되는	-6714
서에도	-6715
셨을때	-6716
수준낮	-6717
쉴드칠	-6718
시고살	-6719
시켜라	-6720
싼운동	-6721
쑤시고	-6722
아파야	-6723
어가고	-6724
올려라	-6725
운동은	-6726
이없다	-6727
임에도	-6728
잘되는	-6729
잼없다	-6730
저씨를	-6731
저인지	-6732
주에도	-6733
즈인지	-6734
췄듯이	-6735
투성이	-6736
패듯이	-6737
흘리면	-6738
ᄒᄒ진심	-6739
▁DDR	-6740
▁개저씨	-6741
▁남녀가	-6742
▁남성이	-6743
▁돌려라	-6744
▁만지러	-6745
▁맘에도	-6746
▁맛있음	-6747
▁버려라	-6748
▁보이니	-6749
▁쑤시고	-6750
▁올려라	-6751
▁있듯이	-6752
▁있었네	-6753
▁잼없다	-6754
▁제어가	-6755
▁죽을때	-6756
▁차려라	-6757
게되있음	-6758
그들끼리	-6759
글시켜준	-6760
남잘되는	-6761
담주에도	-6762
돈벌었네	-6763
만큼벌겠	-6764
먹듯이말	-6765
문투성이	-6766
수준낮고	-6767
수치심을	-6768
순서에도	-6769
쉰내나는	-6770
쉴드칠게	-6771
시고살람	-6772
싼운동화	-6773
연시켜라	-6774
을흘리면	-6775
이아파야	-6776
인저인지	-6777
있겠지뭐	-6778
하는건지	-6779
호해주자	-6780
▁가능성이	-6781
▁개저씨는	-6782
▁개패듯이	-6783
▁경단녀가	-6784
▁나저씨를	-6785
▁노처녀가	-6786
▁능력되는	-6787
▁되어가고	-6788
▁때문인지	-6789
▁맞췄듯이	-6790
▁메갈짓만	-6791
▁문제있음	-6792
▁바람난다	-6793
▁반복되는	-6794
▁쉰내나는	-6795
▁어이없다	-6796
▁잼없다했	-6797
▁좀올려라	-6798
▁줌마시대	-6799
▁ᅲᅮ	-6800
▁권력	-6801
▁권유	-6802
▁뭘바	-6803
▁밝혀	-6804
▁베베	-6805
▁쉬싸	-6806
▁쓸데	-6807
▁암놈	-6808
▁암튼	-6809
▁종나	-6810
▁종종	-6811
▁줄도	-6812
▁챙녀	-6813
▁챙롬	-6814
▁챙피	-6815
▁철벽	-6816
▁철지	-6817
▁탈출	-6818
▁태국	-6819
▁태콩	-6820
▁티나	-6821
▁티내	-6822
▁티조	-6823
▁포기	-6824
▁포르	-6825
▁포주	-6826
▁포함	-6827
▁형편	-6828
고싶네	-6829
그런듯	-6830
그런삼	-6831
따같다	-6832
중기가	-6833
▁뭘바래	-6834
▁밝혀질	-6835
▁쉬싸는	-6836
▁쓸데가	-6837
▁암놈숫	-6838
▁암퇘지	-6839
▁우르르	-6840
▁챙롬들	-6841
▁철지난	-6842
▁탈출축	-6843
▁티나게	-6844
▁포르투	-6845
▁형아들	-6846
▁형편없	-6847
고싶었다	-6848
고싶으면	-6849
그런삼류	-6850
뺏고싶네	-6851
식으로든	-6852
을거같다	-6853
자나그런	-6854
▁권력관계	-6855
▁딸바보가	-6856
▁뺏고싶네	-6857
▁송중기가	-6858
▁쉬싸는곳	-6859
▁암놈숫놈	-6860
▁억울하긴	-6861
▁중요한데	-6862
▁즐길수도	-6863
▁지금난리	-6864
▁지났는데	-6865
▁지랄하노	-6866
▁지랄할만	-6867
▁지생각만	-6868
▁지적이고	-6869
▁지주제에	-6870
▁직업여성	-6871
▁직장관두	-6872
▁직장인이	-6873
▁직접나서	-6874
▁진지하게	-6875
▁진짜싫음	-6876
▁질투나면	-6877
▁질투할만	-6878
▁집에가서	-6879
▁징징거리	-6880
▁짜리몽땅	-6881
▁짱깨냄새	-6882
▁쫑난상태	-6883
▁찌질하고	-6884
▁찐따같다	-6885
▁참는다ᅲ	-6886
▁참지않긬	-6887
▁창백한데	-6888
▁창피해서	-6889
▁채널돌림	-6890
▁채워지면	-6891
▁책임없이	-6892
▁처음부터	-6893
▁천국이랑	-6894
▁천박스럽	-6895
▁천박하고	-6896
▁천한것들	-6897
▁철가면쓴	-6898
▁철벽치고	-6899
▁52	-6900
깍지가	-6901
▁가리면	-6902
▁가장높	-6903
▁가장에	-6904
▁괜찮게	-6905
▁그럴걸	-6906
▁꼭지가	-6907
▁다니네	-6908
▁다니엘	-6909
▁많아도	-6910
▁보기시	-6911
▁봐라ᄏ	-6912
▁사귀면	-6913
▁사귀자	-6914
▁사귀지	-6915
▁안할듯	-6916
▁자랑이	-6917
▁현아급	-6918
▁현아랑	-6919
▁화장을	-6920
▁화장좀	-6921
스럽지가	-6922
입니다요	-6923
콩깍지가	-6924
▁가장에쁘	-6925
▁구혜선이	-6926
▁김태리도	-6927
▁누군지는	-6928
▁다니엘헤	-6929
▁당했다고	-6930
▁만들어서	-6931
▁만들어줄	-6932
▁많아가지	-6933
▁면상이나	-6934
▁못하는듯	-6935
▁무죄받는	-6936
▁보기보다	-6937
▁보기시름	-6938
▁부들거리	-6939
▁사겼다가	-6940
▁사귀는거	-6941
▁쓰레기임	-6942
▁아나보고	-6943
▁안했다고	-6944
▁여배우로	-6945
▁여배우의	-6946
▁이야기가	-6947
▁자랑이나	-6948
▁지들이랑	-6949
▁찍었나봄	-6950
▁청바지에	-6951
▁쳐먹는데	-6952
▁쳐먹다가	-6953
▁촌스럽게	-6954
▁촬영장에	-6955
▁촬영해서	-6956
▁최설화가	-6957
▁최소한의	-6958
▁추자현씨	-6959
▁충분하다	-6960
▁취미인가	-6961
▁친했다고	-6962
▁친형제도	-6963
▁침대에선	-6964
▁칼꽂고싶	-6965
▁커리어도	-6966
▁컴플이지	-6967
▁케바케로	-6968
▁콩깍지가	-6969
▁클났구나	-6970
▁클라스에	-6971
▁키작은거	-6972
▁타고나면	-6973
▁탈코모르	-6974
▁태국이나	-6975
▁태콩이나	-6976
▁택시기사	-6977
▁테러하네	-6978
▁토니안이	-6979
▁토악질나	-6980
▁퇴물되서	-6981
▁투영시켜	-6982
▁튀어나온	-6983
▁트젠이었	-6984
▁판단에서	-6985
▁팔려가서	-6986
▁팔팔할때	-6987
▁페미니즘	-6988
▁페북을보	-6989
▁평생혼자	-6990
▁폐가망신	-6991
▁포기하는	-6992
▁포르투갈	-6993
▁폭력범은	-6994
▁표정연기	-6995
▁풀지말고	-6996
▁피부미용	-6997
▁핑계대기	-6998
▁하겠고만	-6999
가멀	-7000
견질	-7001
듣지	-7002
라기	-7003
서로	-7004
예여	-7005
회에	-7006
ᄀᄅᄋ	-7007
▁깔고	-7008
▁드립	-7009
▁성기	-7010
▁속이	-7011
▁점을	-7012
▁정력	-7013
▁좌궁	-7014
가멀까	-7015
거나지	-7016
그래바	-7017
기그래	-7018
나서도	-7019
너밖에	-7020
데기로	-7021
떨어져	-7022
라기보	-7023
로인듯	-7024
먹었나	-7025
민인줄	-7026
보기로	-7027
보니까	-7028
비율이	-7029
살이상	-7030
서로좋	-7031
셨을거	-7032
신드립	-7033
씌인듯	-7034
없음저	-7035
우시다	-7036
이기도	-7037
이상은	-7038
이인줄	-7039
인줄아	-7040
죄해라	-7041
질라서	-7042
컵라면	-7043
하기도	-7044
▁거기도	-7045
▁거기로	-7046
▁그리도	-7047
▁그밤에	-7048
▁녀자가	-7049
▁더이상	-7050
▁드립좀	-7051
▁떠나서	-7052
▁말라서	-7053
▁몰라서	-7054
▁부러워	-7055
▁생리충	-7056
▁쉴드처	-7057
▁신나서	-7058
▁쓰던거	-7059
▁씌인듯	-7060
▁정력왕	-7061
▁참견질	-7062
▁추거나	-7063
▁팬이랑	-7064
▁합시다	-7065
게이인줄	-7066
그래바짜	-7067
기도하지	-7068
남자라면	-7069
머신드립	-7070
물보니까	-7071
빼먹었나	-7072
살이지만	-7073
색기그래	-7074
시민인줄	-7075
아니예여	-7076
여자라면	-7077
울안보냐	-7078
점컵라면	-7079
트너밖에	-7080
파탄자들	-7081
피해자들	-7082
▁ᄋᄀᄅᄋ	-7083
▁거기로가	-7084
▁걱정없음	-7085
▁고우시다	-7086
▁군대밖에	-7087
▁김치년은	-7088
▁나이자나	-7089
▁드립좀만	-7090
▁말거나지	-7091
▁모질라서	-7092
▁무데기로	-7093
▁본보기로	-7094
▁사죄해라	-7095
▁시작부터	-7096
▁여자애들	-7097
▁이기회에	-7098
▁이런거나	-7099
^„	-7100
곳을	-7101
디에	-7102
라니	-7103
라보	-7104
래ᅲ	-7105
미와	-7106
빈아	-7107
상금	-7108
새는	-7109
세영	-7110
승준	-7111
용임	-7112
유공	-7113
종신	-7114
지ᅳ	-7115
칙은	-7116
희랑	-7117
희열	-7118
^„^	-7119
▁다행	-7120
▁단박	-7121
▁모두	-7122
▁보증	-7123
▁효도	-7124
같은거	-7125
기가맥	-7126
녀인데	-7127
만디에	-7128
말지ᅳ	-7129
속이나	-7130
승상금	-7131
식용임	-7132
유공장	-7133
율희랑	-7134
은곳을	-7135
저래ᅲ	-7136
종신도	-7137
줍니다	-7138
쳐줘야	-7139
콜라보	-7140
희열도	-7141
????	-7142
▁단박에	-7143
▁보증금	-7144
▁살인마	-7145
▁상대가	-7146
▁성욕이	-7147
▁여성만	-7148
▁올려치	-7149
▁요새는	-7150
▁우빈아	-7151
▁웃기고	-7152
▁원칙은	-7153
▁유승준	-7154
▁율희랑	-7155
▁의미와	-7156
▁있었나	-7157
▁장나라	-7158
▁차겠냐	-7159
▁콜라보	-7160
▁효도를	-7161
가기가맥	-7162
국민들이	-7163
라니ᄒᄒ	-7164
유공장은	-7165
표적으로	-7166
해주세영	-7167
해줍니다	-7168
▁개같은거	-7169
▁높은곳을	-7170
▁다행이다	-7171
▁단속이나	-7172
▁받쳐줘야	-7173
▁불평안함	-7174
▁여배우가	-7175
▁올려치기	-7176
▁왜저래ᅲ	-7177
▁우승상금	-7178
▁유희열도	-7179
▁윤종신도	-7180
▁의식용임	-7181
▁장나라의	-7182
▁제로인듯	-7183
▁조재현씨	-7184
▁좋은거지	-7185
▁죽이더니	-7186
▁질떨어져	-7187
▁하고싶고	-7188
▁하고싶다	-7189
▁하기싫은	-7190
▁하네이제	-7191
▁하는건데	-7192
▁하는건지	-7193
▁하는걸까	-7194
▁하니깐아	-7195
▁하루밤에	-7196
▁하면된다	-7197
▁하지마라	-7198
▁하차드립	-7199
▁늑	-7200
▁엣	-7201
▁옥	-7202
꾸가	-7203
난듯	-7204
너라	-7205
네사	-7206
드나	-7207
명수	-7208
배경	-7209
상진	-7210
색도	-7211
오리	-7212
은치	-7213
이레	-7214
잼임	-7215
줄아	-7216
중이	-7217
지식	-7218
폐미	-7219
하튼	-7220
▁뇌구	-7221
▁늑대	-7222
▁리턴	-7223
▁말만	-7224
▁안경	-7225
▁엣날	-7226
▁옥죄	-7227
난듯저	-7228
네사네	-7229
다그러	-7230
못하시	-7231
민같은	-7232
박명수	-7233
받드나	-7234
부린다	-7235
사배경	-7236
석인데	-7237
셨어요	-7238
오리와	-7239
유리는	-7240
은치마	-7241
지식이	-7242
▁그럴줄	-7243
▁꼴폐미	-7244
▁꿀잼임	-7245
▁나와야	-7246
▁내색도	-7247
▁늑대본	-7248
▁문재앙	-7249
▁술마시	-7250
▁안경여	-7251
▁엣날에	-7252
▁여하튼	-7253
▁오너라	-7254
▁오상진	-7255
▁와꾸가	-7256
▁임신전	-7257
▁집중이	-7258
▁할줄아	-7259
남자혼자	-7260
다그러냐	-7261
듯유리는	-7262
못하시는	-7263
별난듯저	-7264
용석인데	-7265
종민같은	-7266
통한것도	-7267
하셨어요	-7268
▁가해자인	-7269
▁끼부린다	-7270
▁논들한테	-7271
▁뇌구조가	-7272
▁늑대본성	-7273
▁목소리도	-7274
▁부부관계	-7275
▁술마시냐	-7276
▁안경여드	-7277
▁어떻게아	-7278
▁역사배경	-7279
▁열받드나	-7280
▁옥죄다니	-7281
▁유명하게	-7282
▁이쁜이레	-7283
▁있는다니	-7284
▁죽네사네	-7285
▁짧은치마	-7286
▁학원선생	-7287
▁한거보면	-7288
▁한걸래는	-7289
▁한남자로	-7290
▁한남한남	-7291
▁한두번이	-7292
▁한만디에	-7293
▁한명빼고	-7294
▁한여잖아	-7295
▁한창나는	-7296
▁한채아는	-7297
▁한테올인	-7298
▁할거면서	-7299
48	-7300
꺼야	-7301
넷사	-7302
들말	-7303
럽지	-7304
렇케	-7305
름에	-7306
벌을	-7307
생얼	-7308
울한	-7309
윽시	-7310
의국	-7311
이급	-7312
일꺼	-7313
전투	-7314
제기	-7315
종특	-7316
주랑	-7317
하연	-7318
▁결론	-7319
▁까네	-7320
▁대성	-7321
▁반띵	-7322
▁진솔	-7323
갈꺼야	-7324
더럽지	-7325
물주랑	-7326
안가는	-7327
억울한	-7328
의국가	-7329
이번이	-7330
전투표	-7331
제기할	-7332
쳤겠냐	-7333
희들말	-7334
▁결론은	-7335
▁그니까	-7336
▁내려고	-7337
▁대성했	-7338
▁바람남	-7339
▁사겨라	-7340
▁사회면	-7341
▁새벽에	-7342
▁성형좀	-7343
▁에이급	-7344
▁엠넷사	-7345
▁여름에	-7346
▁여윽시	-7347
▁저렇케	-7348
▁지인이	-7349
▁학벌을	-7350
너희들말	-7351
사랑하는	-7352
안갈꺼야	-7353
일꺼라고	-7354
있으니까	-7355
전투표나	-7356
종특인가	-7357
주의국가	-7358
창여들이	-7359
▁가만있게	-7360
▁건물주랑	-7361
▁다쳤겠냐	-7362
▁룸안가는	-7363
▁사람마다	-7364
▁안더럽지	-7365
▁애기하네	-7366
▁억울하연	-7367
▁여자생얼	-7368
▁열등감에	-7369
▁전현무데	-7370
▁중요부분	-7371
▁지인이였	-7372
▁축복ᄏᄏ	-7373
▁할때마다	-7374
▁할줌마는	-7375
▁함소원도	-7376
▁합의해서	-7377
▁해야한다	-7378
▁해체나가	-7379
▁핸드폰은	-7380
▁했는데임	-7381
▁행동하고	-7382
▁헤어지니	-7383
▁혐오스런	-7384
▁형량줄이	-7385
▁혜교보단	-7386
▁호감도가	-7387
▁호스트바	-7388
▁홍콩여행	-7389
▁화나셔서	-7390
▁화장좀봨	-7391
▁화장해도	-7392
▁후배들은	-7393
▁후배애들	-7394
▁훈남기준	-7395
▁훈남인데	-7396
▁훨씬나음	-7397
▁흐물거리	-7398
▁흥분해서	-7399
BT	-7400
▁y	-7401
▁객	-7402
간을	-7403
격은	-7404
꼴을	-7405
놓노	-7406
뎃노	-7407
딨냐	-7408
떨까	-7409
베르	-7410
염소	-7411
으나	-7412
의된	-7413
작살	-7414
중간	-7415
진데	-7416
짜피	-7417
쩐지	-7418
콧수	-7419
할게	-7420
GBT	-7421
▁yg	-7422
▁가치	-7423
▁객관	-7424
▁높히	-7425
▁뻔하	-7426
▁선정	-7427
▁염소	-7428
▁옛날	-7429
▁찌면	-7430
▁해투	-7431
▁홀림	-7432
각했어	-7433
겠으나	-7434
공격은	-7435
그러게	-7436
년동안	-7437
달하고	-7438
마드쌍	-7439
많네요	-7440
무진데	-7441
베르토	-7442
상대할	-7443
시구요	-7444
콧수염	-7445
합의된	-7446
LGBT	-7447
▁가치가	-7448
▁개고생	-7449
▁객관적	-7450
▁기간을	-7451
▁대해서	-7452
▁들어갈	-7453
▁살빼도	-7454
▁않놓노	-7455
▁어뎃노	-7456
▁어딨냐	-7457
▁어떨까	-7458
▁어중간	-7459
▁어짜피	-7460
▁어쩐지	-7461
▁이쁨좀	-7462
▁재벌과	-7463
▁참아라	-7464
▁프로도	-7465
▁해투피	-7466
때문아님	-7467
라고하면	-7468
아야할게	-7469
▁LGBT	-7470
▁객관적지	-7471
▁나오면서	-7472
▁높히세요	-7473
▁발달하고	-7474
▁선정적이	-7475
▁알베르토	-7476
▁야무진데	-7477
▁워마드쌍	-7478
▁입소문을	-7479
▁죽어버려	-7480
▁티내니까	-7481
▁파헤쳐서	-7482
▁하시구요	-7483
▁해투피디	-7484
▁힘내라든	-7485
▁힘내세용	-7486
가기가맥힌	-7487
가왈부할수	-7488
간통한것도	-7489
감님들사이	-7490
같은데결국	-7491
같이벌받아	-7492
거리지뻔해	-7493
거야라는거	-7494
거울안보냐	-7495
건알겠지만	-7496
건취급하고	-7497
것도아니고	-7498
겠네신부가	-7499
▁떼	-7500
갈똥	-7501
남매	-7502
띠로	-7503
련아	-7504
매미	-7505
세당	-7506
씨가	-7507
아빠	-7508
알지	-7509
지베	-7510
포티	-7511
피나	-7512
햇어	-7513
▁떼라	-7514
▁맛을	-7515
▁안낳	-7516
▁자는	-7517
▁주시	-7518
▁투샷	-7519
갈똥네	-7520
같이좀	-7521
거라도	-7522
단하다	-7523
대상반	-7524
더군요	-7525
말세당	-7526
문제는	-7527
언냐는	-7528
여하는	-7529
왔으니	-7530
지띠로	-7531
질난다	-7532
출하는	-7533
토피나	-7534
포티비	-7535
▁기지베	-7536
▁남배우	-7537
▁낮은게	-7538
▁니네면	-7539
▁벌이냐	-7540
▁별로네	-7541
▁성부분	-7542
▁소유물	-7543
▁않아요	-7544
▁애아빠	-7545
▁이런상	-7546
▁이련아	-7547
▁저게ᅲ	-7548
▁주시청	-7549
▁투샷잡	-7550
▁틀리지	-7551
▁합니까	-7552
간지띠로	-7553
같이좀먹	-7554
는거알지	-7555
단하다참	-7556
대상반납	-7557
매미들은	-7558
역질난다	-7559
준거라도	-7560
하게햇어	-7561
▁경제권은	-7562
▁괴롭혀라	-7563
▁남배우가	-7564
▁니네면상	-7565
▁동영상이	-7566
▁말이많네	-7567
▁물린느낌	-7568
▁사랑해서	-7569
▁성부분도	-7570
▁스포티비	-7571
▁아갈똥네	-7572
▁아토피나	-7573
▁안낳는게	-7574
▁이런상간	-7575
▁조현씨가	-7576
▁주시청층	-7577
▁참여하는	-7578
▁천이슬이	-7579
▁표출하는	-7580
▁하는애들	-7581
▁헤어진지	-7582
같이좀먹자	-7583
고넘어질까	-7584
고생했나더	-7585
골빈마누라	-7586
관계라기보	-7587
관리하는거	-7588
굶어돌아가	-7589
그냥벌받으	-7590
기본적인항	-7591
긴뭐가없어	-7592
김지영보다	-7593
깜둥이년나	-7594
깽판친거랑	-7595
꼭신고해요	-7596
나혼자산다	-7597
남자발목잡	-7598
내달라더니	-7599
▁u	-7600
▁띁	-7601
▁므	-7602
▁쎄	-7603
▁쎈	-7604
담에	-7605
력파	-7606
르메	-7607
몰웨	-7608
별적	-7609
붓감	-7610
승환	-7611
어죽	-7612
엽과	-7613
영수	-7614
완선	-7615
위적	-7616
임마	-7617
있던	-7618
잘갔	-7619
재은	-7620
족속	-7621
팔림	-7622
폐남	-7623
한대	-7624
▁up	-7625
▁그딴	-7626
▁띁어	-7627
▁쎄한	-7628
각하는	-7629
김완선	-7630
동엽과	-7631
드신도	-7632
르메스	-7633
리다가	-7634
몰웨딩	-7635
붓감을	-7636
성희롱	-7637
수하나	-7638
어죽을	-7639
여있던	-7640
이족속	-7641
임마도	-7642
차별적	-7643
한대화	-7644
▁그담에	-7645
▁까이네	-7646
▁다한거	-7647
▁만드는	-7648
▁보이죠	-7649
▁신영수	-7650
▁신재은	-7651
▁실력파	-7652
▁쌍폐남	-7653
▁쎈건가	-7654
▁아까비	-7655
▁안받고	-7656
▁안팔림	-7657
▁어디로	-7658
▁얼굴과	-7659
▁오승환	-7660
▁인위적	-7661
▁징그러	-7662
깔은없어	-7663
껀수하나	-7664
놈들이나	-7665
뜨리다가	-7666
렉이족속	-7667
성희롱인	-7668
스몰웨딩	-7669
쌓여있던	-7670
흔한대화	-7671
▁껀수하나	-7672
▁망각하는	-7673
▁배드신도	-7674
▁범죄인줄	-7675
▁성매매가	-7676
▁시집잘갔	-7677
▁신동엽과	-7678
▁신붓감을	-7679
▁쌓여있던	-7680
▁쎄한느낌	-7681
▁얼어죽을	-7682
▁에르메스	-7683
▁흔한대화	-7684
내들중에는	-7685
내주변에도	-7686
년전이면오	-7687
눈깔은없어	-7688
는거자체가	-7689
는건아니고	-7690
는데댓글이	-7691
대지마라급	-7692
댓글보소ᆢ	-7693
도안하지만	-7694
돌리냐ᄏᄏ	-7695
돌아가는데	-7696
돼지년들의	-7697
된거아니냐	-7698
된다나처럼	-7699
▁숙	-7700
갔다	-7701
게원	-7702
공짜	-7703
꺼고	-7704
놓은	-7705
료로	-7706
말이	-7707
백억	-7708
벌레	-7709
브스	-7710
스마	-7711
슬의	-7712
심한	-7713
썸녀	-7714
야에	-7715
증가	-7716
티들	-7717
ᄂ게원	-7718
ᆢ그냥	-7719
▁깨뜨	-7720
▁돈은	-7721
▁벗방	-7722
▁사가	-7723
▁사주	-7724
▁숙연	-7725
▁썸녀	-7726
▁존재	-7727
갔다오	-7728
겨놓은	-7729
공짜로	-7730
될꺼고	-7731
리스마	-7732
백억을	-7733
벌레하	-7734
신료로	-7735
앗으면	-7736
캐슬의	-7737
ᄂ게원칙	-7738
ᆢ그냥스	-7739
▁깨뜨린	-7740
▁높은게	-7741
▁많은듯	-7742
▁모유건	-7743
▁박유천	-7744
▁사가시	-7745
▁스브스	-7746
▁시야에	-7747
▁실수할	-7748
▁안티들	-7749
▁연기할	-7750
▁의대를	-7751
▁인정ᄏ	-7752
▁젠더갈	-7753
같이생김	-7754
리스마스	-7755
수정도면	-7756
이캐슬의	-7757
좋앗으면	-7758
ᆢ그냥스토	-7759
▁누구말이	-7760
▁벗방수준	-7761
▁사람이고	-7762
▁사주니까	-7763
▁수백억을	-7764
▁수신료로	-7765
▁숙연하다	-7766
▁숨겨놓은	-7767
▁실수할걸	-7768
▁예비며느	-7769
▁젠더갈등	-7770
▁헤벌레하	-7771
갔다오는게	-7772
거같이생김	-7773
겧ᄂ게원칙	-7774
될꺼고ᄏᄏ	-7775
든몸간수를	-7776
들조작프로	-7777
뜯어볼려고	-7778
라니ᄒᄒ시	-7779
랭이사이요	-7780
레인저인지	-7781
례허식으로	-7782
로맨스에는	-7783
리갔네남성	-7784
리는뇬들이	-7785
리로만가라	-7786
린듯유리는	-7787
만생가해보	-7788
만좋앗으면	-7789
만큼벌겠구	-7790
말하는것만	-7791
망가뜨렸지	-7792
망갔나보네	-7793
맹세한다는	-7794
메갈워마드	-7795
며살것같다	-7796
모유비누는	-7797
무시하세요	-7798
문제인가요	-7799
▁센	-7800
그게	-7801
부인	-7802
셰프	-7803
쇠퇴	-7804
숏컷	-7805
스있	-7806
장창	-7807
젠더	-7808
죄임	-7809
트폰	-7810
^♡♡	-7811
ᄏᄏ생	-7812
▁듣은	-7813
▁셰프	-7814
▁쇠퇴	-7815
▁쇼윈	-7816
▁숏컷	-7817
▁지루	-7818
▁쪽빠	-7819
국이다	-7820
되니깐	-7821
마트폰	-7822
았는데	-7823
정한거	-7824
젠더권	-7825
할려고	-7826
~^♡♡	-7827
ᄏᄏ생리	-7828
▁됐구나	-7829
▁뭔죄임	-7830
▁센스있	-7831
▁셰프가	-7832
▁쇼윈도	-7833
▁와장창	-7834
▁지루할	-7835
▁쪽빠리	-7836
▁쾅이들	-7837
▁한거도	-7838
▁합법화	-7839
았는데상	-7840
재유전자	-7841
젠더권력	-7842
^~^♡♡	-7843
▁군대가라	-7844
▁꽥하고파	-7845
▁듣은이야	-7846
▁뭐할려고	-7847
▁반성해라	-7848
▁쇠퇴하는	-7849
▁스마트폰	-7850
▁욕했지만	-7851
▁이런짓을	-7852
▁이종석이	-7853
▁진국이다	-7854
▁책정한거	-7855
▁최지우가	-7856
미투라는건	-7857
민해보이고	-7858
바ᅮᅮ진짜	-7859
바뀌었으면	-7860
받았다쳐도	-7861
발라버리네	-7862
보게스트로	-7863
보여도속은	-7864
복맛인가요	-7865
빈대년들아	-7866
빵보내고이	-7867
뽑힐만했어	-7868
사람만큼은	-7869
사주고싶은	-7870
살아보겠다	-7871
서로좋으면	-7872
선시대인간	-7873
수머신드립	-7874
수준이비슷	-7875
수치심까지	-7876
시끄럽네ᅲ	-7877
시나보다ᅮ	-7878
식먹기만해	-7879
실이다제도	-7880
싫어하는데	-7881
심하게햇어	-7882
썩는다는걸	-7883
아먹을논아	-7884
안되겠더라	-7885
안타까워라	-7886
았는데상주	-7887
애경아줌마	-7888
애비애비가	-7889
양호한거고	-7890
억ᄏᄏ장난	-7891
억날리는데	-7892
업글시켜준	-7893
없음저부터	-7894
에너희들말	-7895
여자댓글이	-7896
여자아이돌	-7897
연기하다가	-7898
연애하다말	-7899
▁쫌	-7900
기엔	-7901
넘봐	-7902
넘어	-7903
단은	-7904
듬뿍	-7905
려나	-7906
로올	-7907
론아	-7908
부려	-7909
싸움	-7910
야뭐	-7911
역사	-7912
였지	-7913
예로	-7914
옷에	-7915
지적	-7916
했지	-7917
▁국산	-7918
▁다닌	-7919
▁듬뿍	-7920
▁자제	-7921
▁잡는	-7922
권에서	-7923
길로올	-7924
꼭지만	-7925
넘어오	-7926
맞기엔	-7927
수단은	-7928
애야뭐	-7929
역사라	-7930
히넘봐	-7931
▁냄비들	-7932
▁다닌거	-7933
▁듬뿍받	-7934
▁말싸움	-7935
▁못할망	-7936
▁새론아	-7937
▁안부려	-7938
▁알려나	-7939
▁옆에서	-7940
▁옷이저	-7941
▁칠거고	-7942
감히넘봐	-7943
계수단은	-7944
길로올리	-7945
마들한테	-7946
애야뭐야	-7947
▁관리하시	-7948
▁구하라욕	-7949
▁국산남들	-7950
▁기사중에	-7951
▁노출ᄏᄏ	-7952
▁모르시네	-7953
▁못할망정	-7954
▁성노예로	-7955
▁써주지는	-7956
▁아내한테	-7957
▁옷이저게	-7958
▁외모지적	-7959
▁잘못했지	-7960
▁잘해줄듯	-7961
▁잡을거다	-7962
▁통역사라	-7963
길로올리시	-7964
넘어오는데	-7965
여주맞기엔	-7966
왜바람핀거	-7967
웃긴뇬이네	-7968
월주의국가	-7969
윗가슴이나	-7970
유하시구여	-7971
으로따지면	-7972
을거같은데	-7973
을러가지고	-7974
의학로맨스	-7975
이고사세요	-7976
이나율희는	-7977
이쁜척하고	-7978
이유가멀까	-7979
이있습니다	-7980
이코패스나	-7981
인거같은데	-7982
인넣지마라	-7983
잇냐오창석	-7984
있는사람은	-7985
있는여자가	-7986
자안좋다잉	-7987
잖아부럽긴	-7988
잘못만나면	-7989
잘하셨어요	-7990
절해주세요	-7991
점점컵라면	-7992
정액비누도	-7993
정이었다고	-7994
정이있을듯	-7995
정준영카톡	-7996
져야하는건	-7997
조용히하지	-7998
좋아야하고	-7999
ta	-8000
▁삥	-8001
▁웩	-8002
독님	-8003
례가	-8004
살림	-8005
색톤	-8006
시기	-8007
은정	-8008
자슥	-8009
찍은	-8010
찾아	-8011
tay	-8012
▁낳아	-8013
▁살좀	-8014
▁싫은	-8015
▁이광	-8016
▁주댕	-8017
▁진리	-8018
▁파워	-8019
감독님	-8020
리는거	-8021
살림도	-8022
엇인지	-8023
으려면	-8024
자슥이	-8025
황은정	-8026
tays	-8027
▁남자등	-8028
▁보기야	-8029
▁사례가	-8030
▁이광수	-8031
▁좋은디	-8032
▁주댕이	-8033
▁한평생	-8034
▁허리둘	-8035
것자체가	-8036
인이구나	-8037
핀걸수도	-8038
▁거리는거	-8039
▁그녀들의	-8040
▁남자등쳐	-8041
▁무엇인지	-8042
▁사랑찾아	-8043
▁사진찍은	-8044
▁아줌마상	-8045
▁이광수등	-8046
▁표정보게	-8047
▁피부색톤	-8048
▁허리둘래	-8049
기로했으면	-8050
놈들이랑은	-8051
좋아야한다	-8052
좋은여자들	-8053
죗값받기를	-8054
주언니같은	-8055
준다고하면	-8056
즈그들끼리	-8057
지받는데도	-8058
짓말하지말	-8059
짝취급하고	-8060
차별적프로	-8061
차있겠지뭐	-8062
참별난듯저	-8063
쳐묵하러간	-8064
카이캐슬의	-8065
탁드립니다	-8066
텅유명한데	-8067
핀걸수도있	-8068
하고파람피	-8069
하냐콧수염	-8070
하는것들은	-8071
하는것보다	-8072
하는사람도	-8073
하지않는것	-8074
하할시간에	-8075
한거아닌가	-8076
한아내연기	-8077
해주고싶고	-8078
핸드폰에는	-8079
호텔방까지	-8080
호하나도없	-8081
회전우회전	-8082
회하긴커녕	-8083
흘러내려서	-8084
희ᅮ집에서	-8085
!!!!!!	-8086
ᄏᄏ생리대로	-8087
ᆢᆢ죽일놈만	-8088
▁"2,30	-8089
▁20,30	-8090
▁Girls	-8091
▁chang	-8092
▁stays	-8093
▁ᄋᄌᄅ하넼	-8094
▁ᄌᄂ역겨워	-8095
▁ᄌᄂ올려도	-8096
▁ᄏᄏᄏ요즘	-8097
▁ᄏᄏ탈덕은	-8098
▁ᅲᅲᅲᅲᅲ	-8099
▁넬	-8100
▁빛	-8101
▁뺄	-8102
▁뺑	-8103
감이	-8104
극뿐	-8105
께요	-8106
넘길	-8107
대니	-8108
때에	-8109
뛴다	-8110
락도	-8111
리수	-8112
미야	-8113
분도	-8114
비실	-8115
빽씨	-8116
셀프	-8117
쑨이	-8118
왜열	-8119
있죠	-8120
장제	-8121
정국	-8122
주얼	-8123
지니	-8124
쳐야	-8125
키니	-8126
▁넬모	-8127
▁닥쳐	-8128
▁뛴다	-8129
▁말다	-8130
▁무고	-8131
▁바뀌	-8132
▁박규	-8133
▁빽씨	-8134
▁뺄게	-8135
▁뺑이	-8136
▁셀프	-8137
굼미야	-8138
기들도	-8139
꺼같지	-8140
다고해	-8141
닷같은	-8142
리수거	-8143
릴께요	-8144
부장제	-8145
빛인생	-8146
실비실	-8147
어넘길	-8148
엇는데	-8149
왜열폭	-8150
윗감이	-8151
켜보고	-8152
했구만	-8153
호하는	-8154
ᄂ빛인생	-8155
ᄉ기들도	-8156
▁굼미야	-8157
▁넬모래	-8158
▁당당한	-8159
▁말다툼	-8160
▁먹는게	-8161
▁무고죄	-8162
▁박규리	-8163
▁비극뿐	-8164
▁비주얼	-8165
▁비키니	-8166
▁빛이나	-8167
▁빠쑨이	-8168
▁빠지니	-8169
▁소름이	-8170
▁안들면	-8171
▁없어질	-8172
▁왠만한	-8173
▁저런데	-8174
▁찌찌를	-8175
▁허락도	-8176
들이대니	-8177
아니였나	-8178
여성분도	-8179
올꺼같지	-8180
왜열폭함	-8181
▁가부장제	-8182
▁경호하는	-8183
▁계집들아	-8184
▁마닷같은	-8185
▁매력있죠	-8186
▁바뀌니까	-8187
▁박규리니	-8188
▁분리수거	-8189
▁비실비실	-8190
▁뺑이쳐야	-8191
▁사윗감이	-8192
▁시엄마도	-8193
▁웃어넘길	-8194
▁지켜보고	-8195
가ᄂ빛인생	-8196
꾸들이대니	-8197
의나이많고	-8198
저여성분도	-8199
깬다	-8200
내로	-8201
료보	-8202
릴거	-8203
바이	-8204
백지	-8205
버다	-8206
봐줄	-8207
상중	-8208
식별	-8209
실해	-8210
좀빼	-8211
▁35	-8212
▁AV	-8213
▁근대	-8214
▁깬다	-8215
▁등꼴	-8216
▁무지	-8217
▁우웩	-8218
▁이정	-8219
▁임금	-8220
▁정작	-8221
▁줄어	-8222
▁찾아	-8223
내로남	-8224
료보험	-8225
못봐줄	-8226
바이벌	-8227
부실해	-8228
아식별	-8229
없으면	-8230
좀빼게	-8231
▁ᄂ이나	-8232
▁김상중	-8233
▁나래씨	-8234
▁나이두	-8235
▁난리임	-8236
▁높은건	-8237
▁부릴거	-8238
▁시집을	-8239
▁오버다	-8240
▁왜만나	-8241
▁장백지	-8242
▁줄어듬	-8243
▁찾아봐	-8244
내로남불	-8245
서바이벌	-8246
실부실해	-8247
▁강지환이	-8248
▁나만그래	-8249
▁노출하는	-8250
▁돈없으면	-8251
▁물좀빼게	-8252
▁아닌가요	-8253
▁의료보험	-8254
▁이정현이	-8255
▁임금문제	-8256
▁피아식별	-8257
못봐줄정도	-8258
쿠ᄉ기들도	-8259
▁sekki	-8260
▁가능한거지	-8261
▁가능합니까	-8262
▁가능합니다	-8263
▁가식적이다	-8264
▁가장높은거	-8265
▁가졌을까요	-8266
▁가해자들도	-8267
▁가해자한테	-8268
▁감동이라고	-8269
▁감성이거든	-8270
▁같아요ᄒᄒ	-8271
▁개그우먼들	-8272
▁개나소나솔	-8273
▁개불쌍하다	-8274
▁개집ᄂ들아	-8275
▁객관적지표	-8276
▁거론하는게	-8277
▁거북하네요	-8278
▁거짓말탐지	-8279
▁거짓일수도	-8280
▁걱정입니다	-8281
▁건강미있어	-8282
▁걸그룹으로	-8283
▁걸그룹하는	-8284
▁게스트로구	-8285
▁결혼까지는	-8286
▁결혼생활중	-8287
▁결혼식장에	-8288
▁결혼이라니	-8289
▁결혼하겠냐	-8290
▁결혼하니까	-8291
▁결혼한다는	-8292
▁결혼할려면	-8293
▁결혼해야지	-8294
▁경사가됬냐	-8295
▁경제적책임	-8296
▁계란후라이	-8297
▁계집련들은	-8298
▁계집새끼덜	-8299
-5	-8300
RG	-8301
▁법	-8302
▁벤	-8303
▁웹	-8304
각지	-8305
개숙	-8306
러감	-8307
레들	-8308
로뛴	-8309
뮤다	-8310
받은	-8311
방이	-8312
방지	-8313
살과	-8314
상국	-8315
서니	-8316
손은	-8317
순업	-8318
아줄	-8319
알꼴	-8320
-50	-8321
▁RG	-8322
▁구걸	-8323
▁기댄	-8324
▁단발	-8325
▁답변	-8326
▁둘은	-8327
▁딸을	-8328
▁법적	-8329
▁벤츠	-8330
▁삭제	-8331
▁숨만	-8332
▁웹툰	-8333
▁접착	-8334
▁초점	-8335
각지대	-8336
개숙여	-8337
굴러감	-8338
놈들은	-8339
들이침	-8340
라니가	-8341
림받은	-8342
뮤다삼	-8343
밧아줄	-8344
방지네	-8345
순업다	-8346
우다니	-8347
으로붙	-8348
▁건모씨	-8349
▁기댄애	-8350
▁누구임	-8351
▁단발머	-8352
▁마약에	-8353
▁망햇지	-8354
▁발로뛴	-8355
▁밧아줄	-8356
▁배알꼴	-8357
▁뱃살과	-8358
▁벌레들	-8359
▁별로야	-8360
▁보자로	-8361
▁서방이	-8362
▁아니더	-8363
▁애기날	-8364
▁양상국	-8365
▁어딜까	-8366
▁인기를	-8367
▁인기폭	-8368
▁접착식	-8369
▁증거나	-8370
▁초점이	-8371
▁후손은	-8372
각지대안	-8373
갈라니가	-8374
겠다싶다	-8375
들이침흘	-8376
만놈들은	-8377
버림받은	-8378
션으로붙	-8379
▁건모씨는	-8380
▁건방지네	-8381
▁걸크지만	-8382
▁고개숙여	-8383
▁기댄애는	-8384
▁단발머리	-8385
▁답변하라	-8386
▁못지키는	-8387
▁버뮤다삼	-8388
▁복스럽게	-8389
▁쓰레기인	-8390
▁안굴러감	-8391
▁애기날때	-8392
▁여자보고	-8393
▁연애부터	-8394
▁이랑할때	-8395
▁인기폭발	-8396
▁인신매매	-8397
▁찌우다니	-8398
▁한심하게	-8399
결돼	-8400
겼네	-8401
대햇	-8402
란얘	-8403
만까	-8404
버린	-8405
속추	-8406
얘쁜	-8407
유하	-8408
인을	-8409
한이	-8410
할뿐	-8411
▁bj	-8412
▁구글	-8413
▁그짓	-8414
▁미드	-8415
▁사이	-8416
▁인격	-8417
가란얘	-8418
계속추	-8419
대햇대	-8420
우는거	-8421
질하며	-8422
쳐버린	-8423
한이래	-8424
한테는	-8425
▁그짓안	-8426
▁기억될	-8427
▁꼭지만	-8428
▁미만까	-8429
▁미인을	-8430
▁박얘쁜	-8431
▁박유하	-8432
▁베이스	-8433
▁아이폰	-8434
▁연결돼	-8435
▁인격살	-8436
▁좋아라	-8437
가란얘긴	-8438
계속추켜	-8439
목적으로	-8440
상여자가	-8441
식적으로	-8442
할뿐ᄒᄒ	-8443
▁갑질하며	-8444
▁구글에서	-8445
▁기억될것	-8446
▁남자라도	-8447
▁넘겨주지	-8448
▁듣고싶다	-8449
▁미쳐버린	-8450
▁반대햇대	-8451
▁베이스다	-8452
▁사이에서	-8453
▁세상이이	-8454
▁어릴수록	-8455
▁인격살해	-8456
▁자신감은	-8457
▁키우는거	-8458
▁할생각을	-8459
가란얘긴가	-8460
대단하다참	-8461
라버리든지	-8462
맹목적으로	-8463
비슷한거지	-8464
션으로붙는	-8465
지계속추켜	-8466
한다하더라	-8467
할뿐ᄒᄒᄒ	-8468
▁건모씨는엥	-8469
▁고생하네요	-8470
▁골라먹을수	-8471
▁공통문화로	-8472
▁관계자들은	-8473
▁관리잘하고	-8474
▁관상이랄까	-8475
▁관종이라고	-8476
▁광분하나요	-8477
▁구역질난다	-8478
▁국제결혼이	-8479
▁군대문제는	-8480
▁권유해보고	-8481
▁귀공자같고	-8482
▁그러네그러	-8483
▁그러네남자	-8484
▁그러는거임	-8485
▁그만하셔요	-8486
▁그짓안하는	-8487
▁극복하시구	-8488
▁기다리기만	-8489
▁기본전제를	-8490
▁기분나쁠까	-8491
▁기사입니다	-8492
▁김생민ᅲᅲ	-8493
▁김종민같은	-8494
▁김치녀들은	-8495
▁김치녀들의	-8496
▁김치녀라는	-8497
▁김치년들의	-8498
▁김치쉰녀들	-8499
같아	-8500
개인	-8501
구욧	-8502
꼇겟	-8503
날릴	-8504
년인	-8505
당해	-8506
등한	-8507
맛이	-8508
밥상	-8509
성기	-8510
세윤	-8511
슬람	-8512
쏘고	-8513
이즈	-8514
작단	-8515
점은	-8516
정의	-8517
준씨	-8518
처지	-8519
평등	-8520
한는	-8521
..,	-8522
▁개이	-8523
▁떠나	-8524
▁빼먹	-8525
▁씨뱅	-8526
▁올릴	-8527
▁일방	-8528
▁케잌	-8529
▁하악	-8530
구년인	-8531
날릴땐	-8532
노이즈	-8533
미개인	-8534
상처지	-8535
성기땐	-8536
세윤이	-8537
아하지	-8538
정신이	-8539
제꼇겟	-8540
중에도	-8541
추정의	-8542
평등을	-8543
한가정	-8544
희준씨	-8545
▁감정적	-8546
▁개이득	-8547
▁고치면	-8548
▁떠나사	-8549
▁못나오	-8550
▁못쏘고	-8551
▁문슬람	-8552
▁사진을	-8553
▁성비율	-8554
▁얘기해	-8555
▁접대도	-8556
▁조작단	-8557
▁지엄마	-8558
▁하등한	-8559
▁하악하	-8560
구년인디	-8561
밥상부터	-8562
아제꼇겟	-8563
이라구욧	-8564
전성기땐	-8565
트날릴땐	-8566
ᄃᄃᄃᄃᄃ	-8567
▁3040	-8568
▁떠나사업	-8569
▁문세윤이	-8570
▁문제점은	-8571
▁문희준씨	-8572
▁보이던데	-8573
▁빼먹더니	-8574
▁아내맛이	-8575
▁아니라면	-8576
▁올릴려고	-8577
▁와중에도	-8578
▁이러고도	-8579
▁제정신이	-8580
▁조아하지	-8581
▁지엄마네	-8582
▁질투한는	-8583
▁케잌처럼	-8584
▁하악하악	-8585
▁헤어지자	-8586
▁협박당해	-8587
결혼상대면	-8588
도전성기땐	-8589
미개인들아	-8590
▁감정적이네	-8591
▁김치였다면	-8592
▁김칫년들아	-8593
▁깨시민인줄	-8594
▁깽상도가서	-8595
▁꼬라지봐라	-8596
▁꼭낳으셔서	-8597
▁꼴페미들도	-8598
▁꽃뱀아니냐	-8599
▁ᄄ	-8600
▁엔	-8601
가도	-8602
갔어	-8603
겠음	-8604
내립	-8605
느니	-8606
멍이	-8607
시받	-8608
쏠들	-8609
안들	-8610
좀가	-8611
코트	-8612
퉤지	-8613
흥이	-8614
▁가임	-8615
▁눈에	-8616
▁양보	-8617
▁엔진	-8618
▁좋겠	-8619
▁중단	-8620
구멍이	-8621
리안들	-8622
린거임	-8623
멸시받	-8624
분인거	-8625
사장님	-8626
스코트	-8627
이고뭐	-8628
좀가자	-8629
폭행은	-8630
▁가임기	-8631
▁감흥이	-8632
▁그렇다	-8633
▁그려서	-8634
▁다내립	-8635
▁메퉤지	-8636
▁멸시받	-8637
▁모쏠들	-8638
▁몰겠음	-8639
▁살텐데	-8640
▁생활에	-8641
▁엔진룸	-8642
▁연상녀	-8643
▁이용대	-8644
▁좋겠죠	-8645
▁폭행은	-8646
▁했을거	-8647
걸리안들	-8648
아니였다	-8649
올린거임	-8650
이고뭐고	-8651
콧구멍이	-8652
,,,,"	-8653
▁나오니까	-8654
▁모텔가도	-8655
▁몰고갔어	-8656
▁생각한다	-8657
▁슈한테만	-8658
▁아니구요	-8659
▁에스코트	-8660
▁저분인거	-8661
▁중단하고	-8662
▁콧구멍이	-8663
모르겠으나	-8664
아니였다구	-8665
▁글올린거임	-8666
▁꽃뱀이라면	-8667
▁꾸미기전과	-8668
▁끼어드는데	-8669
▁나보이는건	-8670
▁나쁜놈인데	-8671
▁나오는걸까	-8672
▁나이대보면	-8673
▁나이많으면	-8674
▁나이쳐먹고	-8675
▁난리치겠네	-8676
▁난리치는거	-8677
▁난리치면서	-8678
▁난이해안감	-8679
▁날이엿으면	-8680
▁남성편력의	-8681
▁남의집에서	-8682
▁남자등쳐먹	-8683
▁남자분들도	-8684
▁남자집으로	-8685
▁남자쪽에서	-8686
▁남편돈으로	-8687
▁낳으실려면	-8688
▁내마누라가	-8689
▁냄비들처럼	-8690
▁너무아까운	-8691
▁너무아까움	-8692
▁넌잘피해갓	-8693
▁넘어가다니	-8694
▁녀자들이었	-8695
▁노답이라이	-8696
▁노처녀들이	-8697
▁노총각들이	-8698
▁노출이라고	-8699
가씨	-8700
그라	-8701
기여	-8702
껴야	-8703
놔배	-8704
림용	-8705
망해	-8706
맞다	-8707
먹었	-8708
발표	-8709
버릇	-8710
빠지	-8711
신창	-8712
썼지	-8713
아마	-8714
잇는	-8715
저럼	-8716
지랄	-8717
책이	-8718
친놈	-8719
텔서	-8720
▁급이	-8721
▁까서	-8722
▁꼬셧	-8723
▁단물	-8724
▁먹다	-8725
▁있답	-8726
▁주현	-8727
▁특정	-8728
▁해봤	-8729
▁현무	-8730
구하라	-8731
그라잉	-8732
기여차	-8733
나이로	-8734
놔배놔	-8735
망해소	-8736
발표를	-8737
버릇도	-8738
신창이	-8739
알림용	-8740
왜저럼	-8741
을려고	-8742
잘썼지	-8743
호텔서	-8744
화책이	-8745
▁관종짓	-8746
▁꼬셧을	-8747
▁대단했	-8748
▁만악의	-8749
▁망친놈	-8750
▁뭐먹었	-8751
▁뭐하는	-8752
▁바껴야	-8753
▁부자야	-8754
▁빻앗어	-8755
▁성폭력	-8756
▁썩은고	-8757
▁아가씨	-8758
▁어려야	-8759
▁책임지	-8760
▁현무야	-8761
구하라편	-8762
라호텔서	-8763
망해소가	-8764
묻을려고	-8765
빠지는거	-8766
여자좋아	-8767
집알림용	-8768
▁감놔배놔	-8769
▁관종짓에	-8770
▁꼬셧을가	-8771
▁만신창이	-8772
▁만화책이	-8773
▁말그라잉	-8774
▁말버릇도	-8775
▁매력잇는	-8776
▁사랑지랄	-8777
▁성폭력을	-8778
▁썩은고기	-8779
▁얘기하고	-8780
▁어기여차	-8781
▁어느누가	-8782
▁이성이랑	-8783
▁이제아마	-8784
▁있답니다	-8785
▁있을수도	-8786
▁진지빨고	-8787
▁책임지라	-8788
아가셨을때	-8789
▁결혼발표를	-8790
▁눈요기감은	-8791
▁뉴스메인에	-8792
▁늑대본성들	-8793
▁늘어졋겟지	-8794
▁늙은마누라	-8795
▁다가온다면	-8796
▁다내립니다	-8797
▁다녀라ᄏᄏ	-8798
▁다니엘헤니	-8799
//	-8800
ew	-8801
om	-8802
ps	-8803
▁뛸	-8804
▁린	-8805
고의	-8806
구려	-8807
넘게	-8808
는설	-8809
덩치	-8810
백히	-8811
변치	-8812
삭이	-8813
습도	-8814
시시	-8815
시자	-8816
안하	-8817
오줌	-8818
저도	-8819
지디	-8820
토준	-8821
://	-8822
com	-8823
iew	-8824
tps	-8825
▁덩치	-8826
▁뛸거	-8827
▁	-8828
이	-8829
.	-8830
ᄏ	-8831
자	-8832
는	-8833
고	-8834
다	-8835
하	-8836
지	-8837
들	-8838
가	-8839
아	-8840
여	-8841
나	-8842
도	-8843
한	-8844
은	-8845
남	-8846
라	-8847
니	-8848
?	-8849
어	-8850
서	-8851
기	-8852
그	-8853
면	-8854
에	-8855
인	-8856
리	-8857
만	-8858
거	-8859
보	-8860
데	-8861
사	-8862
네	-8863
해	-8864
게	-8865
마	-8866
로	-8867
대	-8868
을	-8869
안	-8870
성	-8871
시	-8872
생	-8873
요	-8874
야	-8875
!	-8876
으	-8877
있	-8878
진	-8879
상	-8880
정	-8881
~	-8882
부	-8883
주	-8884
냐	-8885
미	-8886
무	-8887
까	-8888
수	-8889
,	-8890
저	-8891
"	-8892
혼	-8893
연	-8894
구	-8895
건	-8896
같	-8897
잘	-8898
없	-8899
의	-8900
신	-8901
못	-8902
애	-8903
제	-8904
임	-8905
오	-8906
살	-8907
0	-8908
결	-8909
러	-8910
랑	-8911
좋	-8912
스	-8913
일	-8914
모	-8915
예	-8916
겠	-8917
국	-8918
말	-8919
전	-8920
내	-8921
려	-8922
할	-8923
녀	-8924
를	-8925
런	-8926
치	-8927
년	-8928
조	-8929
히	-8930
현	-8931
왜	-8932
것	-8933
음	-8934
했	-8935
우	-8936
김	-8937
더	-8938
비	-8939
세	-8940
적	-8941
래	-8942
집	-8943
편	-8944
드	-8945
많	-8946
먹	-8947
소	-8948
좀	-8949
유	-8950
ᄒ	-8951
람	-8952
노	-8953
심	-8954
ᅲ	-8955
되	-8956
개	-8957
장	-8958
처	-8959
너	-8960
짜	-8961
화	-8962
난	-8963
매	-8964
와	-8965
걸	-8966
바	-8967
글	-8968
때	-8969
문	-8970
ᄍ	-8971
간	-8972
듯	-8973
얼	-8974
봐	-8975
관	-8976
원	-8977
줌	-8978
3	-8979
뭐	-8980
영	-8981
피	-8982
실	-8983
재	-8984
질	-8985
긴	-8986
테	-8987
력	-8988
르	-8989
분	-8990
역	-8991
돈	-8992
동	-8993
욕	-8994
^	-8995
당	-8996
던	-8997
박	-8998
각	-8999
계	-9000
냥	-9001
누	-9002
입	-9003
본	-9004
었	-9005
댓	-9006
민	-9007
배	-9008
중	-9009
과	-9010
단	-9011
불	-9012
차	-9013
알	-9014
직	-9015
2	-9016
감	-9017
럼	-9018
렇	-9019
린	-9020
받	-9021
투	-9022
함	-9023
ᄃ	-9024
방	-9025
1	-9026
든	-9027
물	-9028
운	-9029
쳐	-9030
굴	-9031
넘	-9032
반	-9033
싶	-9034
않	-9035
작	-9036
명	-9037
빠	-9038
선	-9039
싫	-9040
악	-9041
친	-9042
타	-9043
;	-9044
능	-9045
종	-9046
4	-9047
언	-9048
님	-9049
럽	-9050
쁘	-9051
송	-9052
식	-9053
용	-9054
쾅	-9055
쿵	-9056
금	-9057
페	-9058
폭	-9059
느	-9060
또	-9061
맞	-9062
준	-9063
형	-9064
혜	-9065
닌	-9066
번	-9067
쁜	-9068
솔	-9069
워	-9070
트	-9071
행	-9072
️	-9073
강	-9074
발	-9075
았	-9076
엄	-9077
터	-9078
플	-9079
경	-9080
공	-9081
머	-9082
버	-9083
줄	-9084
희	-9085
ᅳ	-9086
날	-9087
달	-9088
씨	-9089
울	-9090
죄	-9091
참	-9092
크	-9093
근	-9094
돼	-9095
망	-9096
ᄌ	-9097
갈	-9098
겨	-9099
군	-9100
메	-9101
몸	-9102
별	-9103
즘	-9104
최	-9105
키	-9106
프	-9107
호	-9108
놈	-9109
디	-9110
새	-9111
올	-9112
죽	-9113
벌	-9114
순	-9115
열	-9116
짓	-9117
태	-9118
O	-9119
ᄂ	-9120
속	-9121
술	-9122
웃	-9123
잡	-9124
끼	-9125
충	-9126
합	-9127
낳	-9128
돌	-9129
빨	-9130
산	-9131
힘	-9132
두	-9133
레	-9134
뭔	-9135
설	-9136
양	-9137
절	-9138
징	-9139
체	-9140
길	-9141
꼭	-9142
눈	-9143
늙	-9144
답	-9145
딸	-9146
른	-9147
몰	-9148
복	-9149
손	-9150
업	-9151
였	-9152
위	-9153
져	-9154
ᅮ	-9155
외	-9156
출	-9157
패	-9158
8	-9159
격	-9160
따	-9161
며	-9162
얘	-9163
줘	-9164
청	-9165
ᄋ	-9166
급	-9167
범	-9168
쓰	-9169
율	-9170
찌	-9171
추	-9172
텐	-9173
평	-9174
확	-9175
5	-9176
>	-9177
났	-9178
등	-9179
습	-9180
억	-9181
코	-9182
휴	-9183
s	-9184
갔	-9185
목	-9186
빼	-9187
슨	-9188
약	-9189
온	-9190
젊	-9191
즈	-9192
천	-9193
통	-9194
후	-9195
된	-9196
둘	-9197
란	-9198
슴	-9199
존	-9200
증	-9201
창	-9202
%	-9203
9	-9204
겼	-9205
꺼	-9206
꼴	-9207
맨	-9208
백	-9209
브	-9210
싸	-9211
폐	-9212
갑	-9213
권	-9214
꼬	-9215
꽃	-9216
담	-9217
될	-9218
랄	-9219
맛	-9220
먼	-9221
뱀	-9222
승	-9223
잖	-9224
특	-9225
티	-9226
파	-9227
팬	-9228
표	-9229
회	-9230
ᄉ	-9231
극	-9232
놓	-9233
됐	-9234
멋	-9235
섹	-9236
쌍	-9237
초	-9238
혐	-9239
귀	-9240
깐	-9241
꾸	-9242
냄	-9243
뇬	-9244
딱	-9245
똑	-9246
론	-9247
릴	-9248
막	-9249
볼	-9250
봤	-9251
슬	-9252
응	-9253
찍	-9254
판	-9255
-	-9256
e	-9257
o	-9258
ᄅ	-9259
ᆢ	-9260
교	-9261
깝	-9262
끝	-9263
늘	-9264
됨	-9265
떠	-9266
떨	-9267
름	-9268
맘	-9269
뿐	-9270
색	-9271
석	-9272
왔	-9273
쯧	-9274
척	-9275
카	-9276
허	-9277
7	-9278
:	-9279
듣	-9280
립	-9281
변	-9282
병	-9283
빈	-9284
쉬	-9285
앞	-9286
잇	-9287
죠	-9288
쪽	-9289
찬	-9290
채	-9291
취	-9292
토	-9293
팔	-9294
포	-9295
괜	-9296
궁	-9297
럴	-9298
루	-9299
림	-9300
밥	-9301
섭	-9302
윤	-9303
잠	-9304
점	-9305
접	-9306
젖	-9307
젠	-9308
책	-9309
커	-9310
케	-9311
큰	-9312
품	-9313
학	-9314
항	-9315
헤	-9316
활	-9317
효	-9318
=	-9319
t	-9320
골	-9321
깨	-9322
널	-9323
논	-9324
놀	-9325
뒤	-9326
락	-9327
롱	-9328
밤	-9329
베	-9330
셔	-9331
왕	-9332
켜	-9333
탈	-9334
필	-9335
홍	-9336
환	-9337
ᄇ	-9338
걍	-9339
걱	-9340
깔	-9341
높	-9342
똥	-9343
련	-9344
룹	-9345
믿	-9346
밖	-9347
법	-9348
빵	-9349
뻐	-9350
육	-9351
쩌	-9352
퇘	-9353
팅	-9354
향	-9355
'	-9356
b	-9357
c	-9358
d	-9359
i	-9360
k	-9361
n	-9362
ᄀ	-9363
갖	-9364
겁	-9365
광	-9366
꿀	-9367
닥	-9368
덜	-9369
뚱	-9370
렸	-9371
뻔	-9372
쉽	-9373
써	-9374
액	-9375
엔	-9376
옷	-9377
완	-9378
움	-9379
쟁	-9380
졌	-9381
족	-9382
짝	-9383
착	-9384
쳤	-9385
풀	-9386
혀	-9387
훈	-9388
a	-9389
g	-9390
겹	-9391
께	-9392
낌	-9393
닮	-9394
덕	-9395
독	-9396
둥	-9397
득	-9398
딴	-9399
땐	-9400
랬	-9401
몇	-9402
밝	-9403
벗	-9404
벽	-9405
숨	-9406
쓸	-9407
암	-9408
앙	-9409
찮	-9410
챙	-9411
퇴	-9412
튼	-9413
팩	-9414
퍼	-9415
핑	-9416
햇	-9417
헌	-9418
험	-9419
황	-9420
(	-9421
)	-9422
6	-9423
m	-9424
w	-9425
y	-9426
♡	-9427
갓	-9428
곤	-9429
곳	-9430
꿔	-9431
낮	-9432
덩	-9433
델	-9434
떡	-9435
떤	-9436
떻	-9437
뜨	-9438
뜯	-9439
령	-9440
록	-9441
륜	-9442
묻	-9443
뭘	-9444
붙	-9445
빻	-9446
쁨	-9447
삼	-9448
쉴	-9449
싱	-9450
엉	-9451
잔	-9452
잼	-9453
졸	-9454
좌	-9455
즐	-9456
째	-9457
쩔	-9458
철	-9459
축	-9460
춰	-9461
침	-9462
큼	-9463
폰	-9464
혹	-9465
홀	-9466
흥	-9467
/	-9468
r	-9469
x	-9470
검	-9471
껴	-9472
낫	-9473
넷	-9474
놔	-9475
뉴	-9476
댄	-9477
뎅	-9478
뒷	-9479
딩	-9480
맹	-9481
밌	-9482
벼	-9483
북	-9484
셋	-9485
셨	-9486
숙	-9487
슈	-9488
싹	-9489
앗	-9490
월	-9491
잊	-9492
쩐	-9493
쫑	-9494
찐	-9495
첫	-9496
총	-9497
칼	-9498
캐	-9499
클	-9500
탄	-9501
택	-9502
텔	-9503
틀	-9504
혈	-9505
훨	-9506
G	-9507
T	-9508
V	-9509
l	-9510
값	-9511
겟	-9512
괴	-9513
굳	-9514
끈	-9515
끌	-9516
낄	-9517
넣	-9518
념	-9519
돋	-9520
됬	-9521
듬	-9522
딜	-9523
땅	-9524
럿	-9525
례	-9526
롭	-9527
료	-9528
릇	-9529
멍	-9530
봄	-9531
뷔	-9532
빌	-9533
뽑	-9534
슷	-9535
엇	-9536
엥	-9537
염	-9538
엿	-9539
옛	-9540
윗	-9541
짐	-9542
찔	-9543
찾	-9544
촬	-9545
춤	-9546
칠	-9547
컷	-9548
콩	-9549
쿨	-9550
풋	-9551
혔	-9552
흘	-9553
+	-9554
B	-9555
D	-9556
h	-9557
u	-9558
v	-9559
ᄎ	-9560
‘	-9561
’	-9562
겉	-9563
견	-9564
곧	-9565
곽	-9566
긋	-9567
깜	-9568
깡	-9569
깽	-9570
뀌	-9571
끄	-9572
끔	-9573
납	-9574
넌	-9575
뇌	-9576
뇨	-9577
늦	-9578
닐	-9579
닝	-9580
댁	-9581
땡	-9582
뜰	-9583
띠	-9584
랍	-9585
램	-9586
럭	-9587
룸	-9588
류	-9589
률	-9590
맙	-9591
멀	-9592
밭	-9593
벤	-9594
빚	-9595
빛	-9596
뿌	-9597
삭	-9598
센	-9599
셈	-9600
션	-9601
쇼	-9602
쉰	-9603
십	-9604
싼	-9605
썩	-9606
쎄	-9607
씬	-9608
앉	-9609
엽	-9610
옆	-9611
옌	-9612
옴	-9613
왠	-9614
웅	-9615
웠	-9616
잉	-9617
쟤	-9618
짧	-9619
짱	-9620
찰	-9621
춘	-9622
츠	-9623
컵	-9624
켰	-9625
킁	-9626
킨	-9627
킴	-9628
킹	-9629
탑	-9630
탓	-9631
탕	-9632
텅	-9633
톡	-9634
톱	-9635
푼	-9636
픈	-9637
핸	-9638
헐	-9639
혁	-9640
협	-9641
흐	-9642
힌	-9643
*	-9644
A	-9645
C	-9646
E	-9647
J	-9648
R	-9649
p	-9650
°	-9651
·	-9652
ᄆ	-9653
ᄊ	-9654
ᆞ	-9655
겪	-9656
곘	-9657
곡	-9658
굿	-9659
귄	-9660
규	-9661
균	-9662
깊	-9663
깥	-9664
껀	-9665
꽂	-9666
끊	-9667
끗	-9668
넼	-9669
녕	-9670
눌	-9671
닫	-9672
댐	-9673
댕	-9674
듀	-9675
떼	-9676
뚠	-9677
뚤	-9678
뛰	-9679
뛴	-9680
띄	-9681
랖	-9682
랫	-9683
랭	-9684
렁	-9685
렴	-9686
멤	-9687
묵	-9688
뭣	-9689
뮤	-9690
므	-9691
밀	-9692
밉	-9693
뱃	-9694
벨	-9695
볶	-9696
붕	-9697
빅	-9698
빗	-9699
빤	-9700
뺑	-9701
뻤	-9702
뼛	-9703
뽀	-9704
뿔	-9705
쁠	-9706
삐	-9707
샌	-9708
슥	-9709
썼	-9710
쎈	-9711
쑥	-9712
쓴	-9713
씹	-9714
얜	-9715
얻	-9716
엑	-9717
엘	-9718
엠	-9719
왈	-9720
웩	-9721
잌	-9722
쟈	-9723
좁	-9724
줬	-9725
쥐	-9726
짴	-9727
쫌	-9728
쭉	-9729
쯔	-9730
찢	-9731
첩	-9732
층	-9733
칙	-9734
칫	-9735
칭	-9736
캬	-9737
컴	-9738
콧	-9739
퀴	-9740
킬	-9741
탉	-9742
탱	-9743
털	-9744
툭	-9745
퉤	-9746
튀	-9747
틴	-9748
팀	-9749
핀	-9750
훅	-9751
흉	-9752
흔	-9753
힐	-9754
<	-9755
I	-9756
K	-9757
L	-9758
M	-9759
N	-9760
S	-9761
Y	-9762
Z	-9763
f	-9764
j	-9765
ʖ	-9766
͜	-9767
͡	-9768
ᄁ	-9769
ᄄ	-9770
ᅭ	-9771
„	-9772
∩	-9773
╭	-9774
╮	-9775
☆	-9776
갘	-9777
갚	-9778
객	-9779
갠	-9780
갱	-9781
갸	-9782
겄	-9783
겐	-9784
겧	-9785
겻	-9786
곱	-9787
굉	-9788
굶	-9789
굼	-9790
귐	-9791
긁	-9792
긬	-9793
깍	-9794
깎	-9795
깠	-9796
깬	-9797
껌	-9798
껍	-9799
껏	-9800
껓	-9801
꼇	-9802
꼼	-9803
꼽	-9804
꽆	-9805
꽝	-9806
꽥	-9807
꾼	-9808
꿇	-9809
꿈	-9810
끋	-9811
끙	-9812
낀	-9813
낙	-9814
낚	-9815
낸	-9816
낼	-9817
냅	-9818
냉	-9819
냔	-9820
냠	-9821
넓	-9822
넨	-9823
넫	-9824
넬	-9825
녔	-9826
녜	-9827
녹	-9828
농	-9829
눕	-9830
뉜	-9831
늑	-9832
닙	-9833
닭	-9834
닷	-9835
댔	-9836
덤	-9837
덥	-9838
덴	-9839
뎃	-9840
뎌	-9841
됫	-9842
둔	-9843
딘	-9844
딧	-9845
딨	-9846
땀	-9847
떄	-9848
떳	-9849
떴	-9850
똘	-9851
뛸	-9852
뜻	-9853
띁	-9854
띙	-9855
띵	-9856
랐	-9857
랠	-9858
량	-9859
렀	-9860
렉	-9861
롬	-9862
룡	-9863
룬	-9864
륭	-9865
릎	-9866
릭	-9867
링	-9868
맥	-9869
맷	-9870
먜	-9871
멈	-9872
멜	-9873
멸	-9874
몬	-9875
몽	-9876
묘	-9877
뭉	-9878
믹	-9879
및	-9880
밧	-9881
밸	-9882
뱅	-9883
뱐	-9884
벅	-9885
벙	-9886
봣	-9887
봨	-9888
붓	-9889
뷰	-9890
븅	-9891
븐	-9892
블	-9893
빙	-9894
빡	-9895
빳	-9896
빽	-9897
뺀	-9898
뺄	-9899
뺏	-9900
뻥	-9901
뼈	-9902
뽕	-9903
뿍	-9904
쁭	-9905
삘	-9906
삥	-9907
샷	-9908
셀	-9909
셧	-9910
셰	-9911
쇠	-9912
숍	-9913
숏	-9914
숫	-9915
숭	-9916
쉐	-9917
싑	-9918
쌉	-9919
쌓	-9920
쌤	-9921
썸	-9922
쏘	-9923
쏠	-9924
쑤	-9925
쑨	-9926
씀	-9927
씌	-9928
씩	-9929
압	-9930
앨	-9931
얗	-9932
얹	-9933
엣	-9934
엮	-9935
옥	-9936
옮	-9937
옵	-9938
옹	-9939
왓	-9940
욧	-9941
욷	-9942
웜	-9943
웡	-9944
웨	-9945
웬	-9946
웰	-9947
웹	-9948
윈	-9949
윽	-9950
읍	-9951
잃	-9952
젤	-9953
졋	-9954
졍	-9955
좃	-9956
좠	-9957
죗	-9958
줍	-9959
줫	-9960
즁	-9961
즉	-9962
짘	-9963
짤	-9964
짬	-9965
쩍	-9966
쩝	-9967
쪘	-9968
쪼	-9969
쫓	-9970
쯤	-9971
찝	-9972
챌	-9973
챗	-9974
챠	-9975
촌	-9976
촐	-9977
췄	-9978
췌	-9979
측	-9980
칀	-9981
칸	-9982
캔	-9983
컸	-9984
콕	-9985
콘	-9986
콜	-9987
쾌	-9988
쿠	-9989
탁	-9990
탐	-9991
탸	-9992
턴	-9993
톤	-9994
툰	-9995
툼	-9996
