{
  "version": "1.0",
  "truncation": null,
  "padding": null,
  "added_tokens": [],
  "normalizer": {
    "type": "Sequence",
    "normalizers": [
      {
        "type": "NFD"
      },
      {
        "type": "Lowercase"
      }
    ]
  },
  "pre_tokenizer": {
    "type": "Whitespace"
  },
  "post_processor": null,
  "decoder": null,
  "model": {
    "type": "WordPiece",
    "unk_token": "[UNK]",
    "continuing_subword_prefix": "##",
    "max_input_chars_per_word": 100,
    "vocab": {
      "!": 0,
      "\"": 1,
      "%": 2,
      "'": 3,
      "(": 4,
      ")": 5,
      "*": 6,
      "+": 7,
      ",": 8,
      "-": 9,
      ".": 10,
      "/": 11,
      "0": 12,
      "1": 13,
      "2": 14,
      "3": 15,
      "4": 16,
      "5": 17,
      "6": 18,
      "7": 19,
      "8": 20,
      "9": 21,
      ":": 22,
      ";": 23,
      "<": 24,
      "=": 25,
      ">": 26,
      "?": 27,
      "^": 28,
      "a": 29,
      "b": 30,
      "c": 31,
      "d": 32,
      "e": 33,
      "f": 34,
      "g": 35,
      "h": 36,
      "i": 37,
      "j": 38,
      "k": 39,
      "l": 40,
      "m": 41,
      "n": 42,
      "o": 43,
      "p": 44,
      "r": 45,
      "s": 46,
      "t": 47,
      "u": 48,
      "v": 49,
      "w": 50,
      "x": 51,
      "y": 52,
      "z": 53,
      "~": 54,
      "°": 55,
      "·": 56,
      "ʖ": 57,
      "͜": 58,
      "͡": 59,
      "ᄀ": 60,
      "ᄁ": 61,
      "ᄂ": 62,
      "ᄃ": 63,
      "ᄄ": 64,
      "ᄅ": 65,
      "ᄆ": 66,
      "ᄇ": 67,
      "ᄈ": 68,
      "ᄉ": 69,
      "ᄊ": 70,
      "ᄋ": 71,
      "ᄌ": 72,
      "ᄍ": 73,
      "ᄎ": 74,
      "ᄏ": 75,
      "ᄐ": 76,
      "ᄑ": 77,
      "ᄒ": 78,
      "ᅡ": 79,
      "ᅢ": 80,
      "ᅣ": 81,
      "ᅤ": 82,
      "ᅥ": 83,
      "ᅦ": 84,
      "ᅧ": 85,
      "ᅨ": 86,
      "ᅩ": 87,
      "ᅪ": 88,
      "ᅫ": 89,
      "ᅬ": 90,
      "ᅭ": 91,
      "ᅮ": 92,
      "ᅯ": 93,
      "ᅰ": 94,
      "ᅱ": 95,
      "ᅲ": 96,
      "ᅳ": 97,
      "ᅴ": 98,
      "ᅵ": 99,
      "ᆞ": 100,
      "ᆢ": 101,
      "ᆨ": 102,
      "ᆩ": 103,
      "ᆫ": 104,
      "ᆬ": 105,
      "ᆭ": 106,
      "ᆮ": 107,
      "ᆯ": 108,
      "ᆰ": 109,
      "ᆱ": 110,
      "ᆲ": 111,
      "ᆶ": 112,
      "ᆷ": 113,
      "ᆸ": 114,
      "ᆹ": 115,
      "ᆺ": 116,
      "ᆻ": 117,
      "ᆼ": 118,
      "ᆽ": 119,
      "ᆾ": 120,
      "ᆿ": 121,
      "ᇀ": 122,
      "ᇁ": 123,
      "ᇂ": 124,
      "‘": 125,
      "’": 126,
      "„": 127,
      "‼": 128,
      "⁉": 129,
      "∩": 130,
      "╭": 131,
      "╮": 132,
      "☆": 133,
      "♡": 134,
      "ㄱ": 135,
      "ㄲ": 136,
      "ㄴ": 137,
      "ㄷ": 138,
      "ㄸ": 139,
      "ㄹ": 140,
      "ㅁ": 141,
      "ㅂ": 142,
      "ㅅ": 143,
      "ㅆ": 144,
      "ㅇ": 145,
      "ㅈ": 146,
      "ㅉ": 147,
      "ㅊ": 148,
      "ㅋ": 149,
      "ㅎ": 150,
      "ㅏ": 151,
      "ㅐ": 152,
      "ㅛ": 153,
      "ㅜ": 154,
      "ㅠ": 155,
      "ㅡ": 156,
      "ㅣ": 157,
      "ㆍ": 158,
      "️": 159,
      "##ᅩ": 160,
      "##ᆺ": 161,
      "##ᄒ": 162,
      "##ᅡ": 163,
      "##ᆯ": 164,
      "##ᅬ": 165,
      "##ᆽ": 166,
      "##ᄂ": 167,
      "##ᅳ": 168,
      "##ᆫ": 169,
      "##ᄀ": 170,
      "##ᅥ": 171,
      "##ᅮ": 172,
      "##ᆨ": 173,
      "##ᄋ": 174,
      "##ᄆ": 175,
      "##ᅧ": 176,
      "##ᅦ": 177,
      "##ᅵ": 178,
      "##ᄅ": 179,
      "##ᄃ": 180,
      "##ᇀ": 181,
      "##ᄌ": 182,
      "##ㅜ": 183,
      "##ᆭ": 184,
      "##ᄉ": 185,
      "##ᅱ": 186,
      "##ᆸ": 187,
      "##ᄇ": 188,
      "##ᆷ": 189,
      "##ᄁ": 190,
      "##ᅭ": 191,
      "##ᅴ": 192,
      "##ᆿ": 193,
      "##ㅋ": 194,
      "##ᅢ": 195,
      "##ᄑ": 196,
      "##ᄐ": 197,
      "##ᅲ": 198,
      "##ᄎ": 199,
      "##ᆼ": 200,
      "##ᆻ": 201,
      "##ᄏ": 202,
      "##ᅪ": 203,
      "##ᇂ": 204,
      "##ᄄ": 205,
      "##ᅨ": 206,
      "##ᅣ": 207,
      "##ᄈ": 208,
      "##ᅫ": 209,
      "##ᅯ": 210,
      "##3": 211,
      "##ᄊ": 212,
      "##0": 213,
      "##ㄴ": 214,
      "##ᄍ": 215,
      "##ᆹ": 216,
      "##8": 217,
      "##ㅡ": 218,
      "##ᆰ": 219,
      "##ᇁ": 220,
      "##ㅎ": 221,
      "##ᆮ": 222,
      "##ᆾ": 223,
      "##ᆶ": 224,
      "##.": 225,
      "##ᆢ": 226,
      "##ㅠ": 227,
      "##7": 228,
      "##ㅇ": 229,
      "##t": 230,
      "##w": 231,
      "##1": 232,
      "##?": 233,
      "##ᆩ": 234,
      "##9": 235,
      "##ᆱ": 236,
      "##ʖ": 237,
      "##͡": 238,
      "##ᅤ": 239,
      "##b": 240,
      "##s": 241,
      "##=": 242,
      "##~": 243,
      "##^": 244,
      "##;": 245,
      "##g": 246,
      "##ᅰ": 247,
      "##c": 248,
      "##e": 249,
      "##2": 250,
      "##ㅉ": 251,
      "##ㄹ": 252,
      "##6": 253,
      "##ㅅ": 254,
      "##o": 255,
      "##*": 256,
      "##>": 257,
      "##\"": 258,
      "##a": 259,
      "##y": 260,
      "##5": 261,
      "##4": 262,
      "##m": 263,
      "##i": 264,
      "##r": 265,
      "##l": 266,
      "##-": 267,
      "##/": 268,
      "##v": 269,
      "##ㄷ": 270,
      "##x": 271,
      "##!": 272,
      "##ㄱ": 273,
      "##,": 274,
      "##ㅈ": 275,
      "##n": 276,
      "##ㅣ": 277,
      "##ᆲ": 278,
      "##k": 279,
      "##'": 280,
      "##♡": 281,
      "##ㅛ": 282,
      "##ㅊ": 283,
      "##j": 284,
      "##h": 285,
      "##p": 286,
      "##ㅏ": 287,
      "##z": 288,
      "##ᆬ": 289,
      "##d": 290,
      "##ㅂ": 291,
      "##ㅐ": 292,
      "##)": 293,
      "##╭": 294,
      "##∩": 295,
      "##╮": 296,
      "##f": 297,
      "##:": 298,
      "##ㅆ": 299,
      "##ᆞ": 300,
      "##u": 301,
      "##„": 302,
      "##(": 303,
      "##이": 304,
      "##ᅳᆫ": 305,
      "##ᅡᆫ": 306,
      "##ᅳᆯ": 307,
      "##자": 308,
      "##지": 309,
      "##는": 310,
      "##가": 311,
      "##고": 312,
      "##ᅧᆫ": 313,
      "##다": 314,
      "##들": 315,
      "##하": 316,
      "이": 317,
      "##ᅡᆷ": 318,
      "##ᅡᆯ": 319,
      "##라": 320,
      "여": 321,
      "##ᅥᆫ": 322,
      "##도": 323,
      "##ㅋㅋ": 324,
      "##나": 325,
      "##은": 326,
      "##ᅵᆫ": 327,
      "##서": 328,
      "아": 329,
      "##니": 330,
      "##어": 331,
      "##아": 332,
      "##거": 333,
      "##ᅡᆼ": 334,
      "여자": 335,
      "..": 336,
      "##게": 337,
      "##리": 338,
      "##시": 339,
      "##면": 340,
      "##ᅩᆫ": 341,
      "남": 342,
      "##에": 343,
      "##ᅥᆼ": 344,
      "그": 345,
      "##ᅮᆫ": 346,
      "##해": 347,
      "##기": 348,
      "##한": 349,
      "어": 350,
      "##ᅮᆯ": 351,
      "##데": 352,
      "##네": 353,
      "##로": 354,
      "##만": 355,
      "##으": 356,
      "##인": 357,
      "##러": 358,
      "##여": 359,
      "##ᅢᆼ": 360,
      "##마": 361,
      "##주": 362,
      "남자": 363,
      "##을": 364,
      "한": 365,
      "##구": 366,
      "하": 367,
      "##ᅥᆨ": 368,
      "##보": 369,
      "##냐": 370,
      "조": 371,
      "##야": 372,
      "##요": 373,
      "가": 374,
      "모": 375,
      "...": 376,
      "##려": 377,
      "##대": 378,
      "나": 379,
      "마": 380,
      "지": 381,
      "##ᅩᆼ": 382,
      "사": 383,
      "저": 384,
      "기": 385,
      "안": 386,
      "##ᅩᆨ": 387,
      "##까": 388,
      "##ᅧᆯ": 389,
      "다": 390,
      "##ᅧᆼ": 391,
      "##남": 392,
      "##들이": 393,
      "##ᅥᆯ": 394,
      "##드": 395,
      "##스": 396,
      "##상": 397,
      "##는거": 398,
      "##ㅋㅋㅋㅋ": 399,
      "시": 400,
      "##혼": 401,
      "보": 402,
      "##ᆻ다": 403,
      "##생": 404,
      "##사": 405,
      "자": 406,
      "##ᅩᆯ": 407,
      "잘": 408,
      "바": 409,
      "##ᅳᆷ": 410,
      "대": 411,
      "성": 412,
      "##건": 413,
      "##랑": 414,
      "##수": 415,
      "##의": 416,
      "##하고": 417,
      "##부": 418,
      "##녀": 419,
      "##ᅯᆫ": 420,
      "##성": 421,
      "##신": 422,
      "##하는": 423,
      "##를": 424,
      "##제": 425,
      "##치": 426,
      "##미": 427,
      "##조": 428,
      "##ᅳᆼ": 429,
      "##ᅮᆼ": 430,
      "##정": 431,
      "##국": 432,
      "결": 433,
      "##래": 434,
      "##런": 435,
      "##히": 436,
      "##무": 437,
      "##모": 438,
      "##들은": 439,
      "아니": 440,
      "너": 441,
      "요": 442,
      "##년": 443,
      "##진": 444,
      "왜": 445,
      "진": 446,
      "##는데": 447,
      "좋": 448,
      "있": 449,
      "못": 450,
      "ㅋㅋㅋ": 451,
      "##바": 452,
      "연": 453,
      "결혼": 454,
      "##여자": 455,
      "해": 456,
      "##테": 457,
      "##람": 458,
      "##ᅪᆫ": 459,
      "##겠": 460,
      "##음": 461,
      "##우": 462,
      "##ᆷ마": 463,
      "##되": 464,
      "##짜": 465,
      "##유": 466,
      "##편": 467,
      "거": 468,
      "##겨": 469,
      "##ᆼ이": 470,
      "미": 471,
      "##있": 472,
      "인": 473,
      "생": 474,
      "##적": 475,
      "##세": 476,
      "김": 477,
      "##같": 478,
      "없": 479,
      "살": 480,
      "정": 481,
      "##그": 482,
      "##오": 483,
      "애": 484,
      "##심": 485,
      "그러": 486,
      "노": 487,
      "##임": 488,
      "무": 489,
      "만": 490,
      "부": 491,
      "##할": 492,
      "주": 493,
      "##애": 494,
      "##와": 495,
      "##으로": 496,
      "##노": 497,
      "##소": 498,
      "##예": 499,
      "##안": 500,
      "##으면": 501,
      "##내": 502,
      "한남": 503,
      "같": 504,
      "전": 505,
      "ㅋㅋ": 506,
      "##르": 507,
      "뭐": 508,
      "오": 509,
      "##매": 510,
      "##말": 511,
      "##집": 512,
      "##듯": 513,
      "내": 514,
      "##현": 515,
      "아주": 516,
      "진짜": 517,
      "##처": 518,
      "얼": 519,
      "##간": 520,
      "##긴": 521,
      "##ᆨ시": 522,
      "##없": 523,
      "##력": 524,
      "많": 525,
      "니": 526,
      "##화": 527,
      "##글": 528,
      "##ᅥᆷ": 529,
      "##먹": 530,
      "##하면": 531,
      "일": 532,
      "##에서": 533,
      "##연": 534,
      "##하지": 535,
      "화": 536,
      "##던": 537,
      "##라고": 538,
      "##니까": 539,
      "##때": 540,
      "##비": 541,
      "##ᅢᆨ": 542,
      "##각": 543,
      "##한테": 544,
      "수": 545,
      "##냥": 546,
      "비": 547,
      "예": 548,
      "##봐": 549,
      "##0대": 550,
      "##일": 551,
      "##것": 552,
      "되": 553,
      "돈": 554,
      "피": 555,
      "##분": 556,
      "여자는": 557,
      "##했": 558,
      "??": 559,
      "우": 560,
      "이ᄈ": 561,
      "여자들": 562,
      "~~": 563,
      "개": 564,
      "##..": 565,
      "##장": 566,
      "고": 567,
      "##지만": 568,
      "임": 569,
      "남편": 570,
      "더": 571,
      "말": 572,
      "유": 573,
      "##ᆺ글": 574,
      "##과": 575,
      "구": 576,
      "##원": 577,
      "##민": 578,
      "##전": 579,
      "##살": 580,
      "##배": 581,
      "##차": 582,
      "##니다": 583,
      "나이": 584,
      "##린": 585,
      "##더": 586,
      "##리고": 587,
      "그냥": 588,
      "사람": 589,
      "욕": 590,
      "느": 591,
      "세": 592,
      "##인데": 593,
      "너무": 594,
      "드": 595,
      "불": 596,
      "##든": 597,
      "##저": 598,
      "##ᆸ니다": 599,
      "##타": 600,
      "좀": 601,
      "##굴": 602,
      "##투": 603,
      "여자가": 604,
      "##한다": 605,
      "댓글": 606,
      "##질": 607,
      "##좀": 608,
      "##ᇂ게": 609,
      "관": 610,
      "할": 611,
      "##워": 612,
      "##운": 613,
      "##디": 614,
      "##직": 615,
      "##럽": 616,
      "##영": 617,
      "생각": 618,
      "##세요": 619,
      "아줌마": 620,
      "##명": 621,
      "##ᅵᆷ": 622,
      "##단": 623,
      "##콰": 624,
      "##었": 625,
      "##못": 626,
      "##예인": 627,
      "난": 628,
      "또": 629,
      "상": 630,
      "야": 631,
      "##하다": 632,
      "##중": 633,
      "##ᅮᆼ콰": 634,
      "좋아": 635,
      "누": 636,
      "문": 637,
      "제": 638,
      "현": 639,
      "##닌": 640,
      "##트": 641,
      "##식": 642,
      "##난": 643,
      "##ᅦ미": 644,
      "##재": 645,
      "##플": 646,
      "##들아": 647,
      "##함": 648,
      "##동": 649,
      "남자가": 650,
      "한국": 651,
      "##남자": 652,
      "##같은": 653,
      "얼굴": 654,
      "알": 655,
      "ㅋㅋㅋㅋㅋ": 656,
      "##금": 657,
      "##ᆨ이": 658,
      "##준": 659,
      "##번": 660,
      "##ᆷ이": 661,
      "##터": 662,
      "여성": 663,
      "역시": 664,
      "##걸": 665,
      "##실": 666,
      "임신": 667,
      "꼬": 668,
      "머": 669,
      "##계": 670,
      "##문": 671,
      "##선": 672,
      "##친": 673,
      "##럼": 674,
      "싫": 675,
      "##ᆻ다고": 676,
      "박": 677,
      "솔": 678,
      "재": 679,
      "##종": 680,
      "##ᅢᆫ": 681,
      "##폭": 682,
      "##다고": 683,
      "##하네": 684,
      "않": 685,
      "##면서": 686,
      "만나": 687,
      "쿵콰": 688,
      "##희": 689,
      "##져": 690,
      "##즘": 691,
      "##는건": 692,
      "이런": 693,
      "##라마": 694,
      "김치": 695,
      "당": 696,
      "방": 697,
      "와": 698,
      "##혜": 699,
      "##형": 700,
      "##울": 701,
      "##물": 702,
      "##는게": 703,
      "이혼": 704,
      "악": 705,
      "##해서": 706,
      "봐": 707,
      "##ᅫ지": 708,
      "##갈": 709,
      "아닌": 710,
      "저런": 711,
      "##까지": 712,
      "연예인": 713,
      "근": 714,
      "빠": 715,
      "페미": 716,
      "##개": 717,
      "##피": 718,
      "##쳐": 719,
      "##ᆻ을": 720,
      "##씨": 721,
      "##이라": 722,
      "##이나": 723,
      "##작": 724,
      "##하게": 725,
      "##한거": 726,
      "몸": 727,
      "맞": 728,
      "요즘": 729,
      "먹": 730,
      "본": 731,
      "최": 732,
      "##혀": 733,
      "##줄": 734,
      "##버": 735,
      "##!!": 736,
      "그런": 737,
      "남자는": 738,
      "##구나": 739,
      "##보다": 740,
      "##용": 741,
      "....": 742,
      "##받": 743,
      "##처럼": 744,
      "문제": 745,
      "도": 746,
      "신": 747,
      "에": 748,
      "찌": 749,
      "##이다": 750,
      "##당": 751,
      "##ㅋㅋㅋ": 752,
      "솔직": 753,
      "악플": 754,
      "30대": 755,
      "따": 756,
      "언": 757,
      "참": 758,
      "##관": 759,
      "##본": 760,
      "##체": 761,
      "##ᆻ으면": 762,
      "##ᇂ고": 763,
      "##하는거": 764,
      "입": 765,
      "이제": 766,
      "여자들이": 767,
      "##많": 768,
      "##야지": 769,
      "##녀들": 770,
      "ㅋㅋㅋㅋ": 771,
      "계": 772,
      "강": 773,
      "뭔": 774,
      "배": 775,
      "반": 776,
      "장": 777,
      "쳐": 778,
      "힘": 779,
      "##능": 780,
      "##른": 781,
      "##끼": 782,
      "##프": 783,
      "##키": 784,
      "##짓": 785,
      "##님": 786,
      "집": 787,
      "##좋": 788,
      "넘": 789,
      "##년들": 790,
      "예ᄈ": 791,
      "드라마": 792,
      "건": 793,
      "걸": 794,
      "버": 795,
      "설": 796,
      "차": 797,
      "처": 798,
      "##날": 799,
      "##위": 800,
      "##줘": 801,
      "##감": 802,
      "열": 803,
      "아무": 804,
      "##겠다": 805,
      "##해라": 806,
      "##길": 807,
      "잘생": 808,
      "##부터": 809,
      "##겠지": 810,
      "##와서": 811,
      "##것도": 812,
      "솔직히": 813,
      "감": 814,
      "들": 815,
      "ㅉㅉ": 816,
      "##태": 817,
      "##ᆻ는데": 818,
      "##크": 819,
      "##빠": 820,
      "여자들은": 821,
      "##싶": 822,
      "##마나": 823,
      "남자들": 824,
      "몰": 825,
      ".....": 826,
      "기사": 827,
      "잘못": 828,
      "##박": 829,
      "인생": 830,
      "늙": 831,
      "쿵쾅이": 832,
      "공": 833,
      "눈": 834,
      "##느": 835,
      "##루": 836,
      "##새": 837,
      "##순": 838,
      "##이지": 839,
      "##이네": 840,
      "##하나": 841,
      "나오": 842,
      "싶": 843,
      "보고": 844,
      "자기": 845,
      "같은": 846,
      "피해": 847,
      "##더라": 848,
      "^^": 849,
      "꼭": 850,
      "동": 851,
      "때": 852,
      "메": 853,
      "스": 854,
      "서": 855,
      "얘": 856,
      "ㅎㅎ": 857,
      "##누": 858,
      "##며": 859,
      "##송": 860,
      "##발": 861,
      "##티": 862,
      "##충": 863,
      "##ㅠㅠ": 864,
      "##이랑": 865,
      "##지마": 866,
      "아이": 867,
      "##어서": 868,
      "##아니": 869,
      "그리고": 870,
      "##렇게": 871,
      "질": 872,
      "지금": 873,
      "##정도": 874,
      "못생": 875,
      "##율": 876,
      "##격": 877,
      "한남들": 878,
      "##말고": 879,
      "얼마나": 880,
      "웃": 881,
      "이쁘": 882,
      "근데": 883,
      "소": 884,
      "송": 885,
      "외": 886,
      "의": 887,
      "추": 888,
      "##ᆫ데": 889,
      "##레": 890,
      "##죄": 891,
      "##즈": 892,
      "##슨": 893,
      "##ᆸ다": 894,
      "##반": 895,
      "##ᆻ네": 896,
      "##가지": 897,
      "##가는": 898,
      "##달": 899,
      "이상": 900,
      "그래": 901,
      "##행": 902,
      "##해도": 903,
      "어디": 904,
      "##주고": 905,
      "받": 906,
      "것": 907,
      "##적인": 908,
      "무슨": 909,
      "계집": 910,
      "군": 911,
      "매": 912,
      "빨": 913,
      "손": 914,
      "술": 915,
      "올": 916,
      "원": 917,
      "##넘": 918,
      "##경": 919,
      "##란": 920,
      "##별": 921,
      "##입": 922,
      "##이면": 923,
      "##들도": 924,
      "##돌": 925,
      "그만": 926,
      "##구만": 927,
      "##보고": 928,
      "젊": 929,
      "잡": 930,
      "##수도": 931,
      "##텐데": 932,
      "미투": 933,
      "죽": 934,
      "???": 935,
      "누가": 936,
      "방송": 937,
      ",,": 938,
      "40대": 939,
      "능": 940,
      "망": 941,
      "싸": 942,
      "##휴": 943,
      "##ᅳᆺ": 944,
      "##ᅦ이": 945,
      "##산": 946,
      "##벌": 947,
      "##ᆾ배": 948,
      "##이고": 949,
      "##가서": 950,
      "##다가": 951,
      "여기": 952,
      "##아서": 953,
      "##리는": 954,
      "##으니": 955,
      "##인가": 956,
      "하는": 957,
      "하고": 958,
      "##복": 959,
      "사랑": 960,
      "##는것": 961,
      "##사람": 962,
      "##놈": 963,
      "많은": 964,
      "##하면서": 965,
      "##민국": 966,
      "싫어": 967,
      "군대": 968,
      "능력": 969,
      "경": 970,
      "까": 971,
      "딸": 972,
      "쉬": 973,
      "존": 974,
      "트": 975,
      "평": 976,
      "호": 977,
      "##결": 978,
      "##머": 979,
      "##돼": 980,
      "##ᆭ아": 981,
      "##셔": 982,
      "##범": 983,
      "##꺼": 984,
      "##찌": 985,
      "##라도": 986,
      "##어도": 987,
      "##김": 988,
      "##보니": 989,
      "모르": 990,
      "안되": 991,
      "실": 992,
      "아니고": 993,
      "##있는": 994,
      "정신": 995,
      "##없는": 996,
      "##던데": 997,
      "아줌마들": 998,
      "양": 999,
      "몸매": 1000,
      "30": 1001,
      "돼지": 1002,
      "발": 1003,
      "쓰": 1004,
      "죄": 1005,
      "적": 1006,
      "천": 1007,
      "##호": 1008,
      "##ᅮᆷ": 1009,
      "##알": 1010,
      "##언": 1011,
      "##망": 1012,
      "##두": 1013,
      "##속": 1014,
      "##방": 1015,
      "##청": 1016,
      "##출": 1017,
      "##ᅣᆼ": 1018,
      "##하니": 1019,
      "##하냐": 1020,
      "##에게": 1021,
      "어ᄄ": 1022,
      "어린": 1023,
      "가스": 1024,
      "##려고": 1025,
      "다른": 1026,
      "작": 1027,
      "##조건": 1028,
      "##여자들": 1029,
      "무조건": 1030,
      "많이": 1031,
      "우리": 1032,
      "이쁜": 1033,
      "남편이": 1034,
      "세상": 1035,
      "관심": 1036,
      "꽃배": 1037,
      "질투": 1038,
      "!!!": 1039,
      "과": 1040,
      "끄": 1041,
      "달": 1042,
      "물": 1043,
      "후": 1044,
      "ㅈㄴ": 1045,
      "ㅠㅠ": 1046,
      "##회": 1047,
      "##ᅳ라": 1048,
      "##귀": 1049,
      "##온": 1050,
      "##목": 1051,
      "##랄": 1052,
      "##론": 1053,
      "##절": 1054,
      "##깐": 1055,
      "##ᅭᆫ": 1056,
      "##패": 1057,
      "##통": 1058,
      "##ㅎㅎ": 1059,
      "##이야": 1060,
      "##징": 1061,
      "##다니": 1062,
      "이게": 1063,
      "아내": 1064,
      "##업": 1065,
      "##릴": 1066,
      "##네요": 1067,
      "하나": 1068,
      "##보면": 1069,
      "##대로": 1070,
      "##는거지": 1071,
      "진심": 1072,
      "연애": 1073,
      "없어": 1074,
      "그럼": 1075,
      "그렇게": 1076,
      "부럽": 1077,
      "##현무": 1078,
      "##먹고": 1079,
      "~~~": 1080,
      "##배우": 1081,
      "난리": 1082,
      "ㅋㅋㅋㅋㅋㅋㅋㅋㅋ": 1083,
      "멋": 1084,
      "예쁘": 1085,
      "##순이": 1086,
      "메갈": 1087,
      "게": 1088,
      "뒤": 1089,
      "둘": 1090,
      "별": 1091,
      "속": 1092,
      "음": 1093,
      "응": 1094,
      "행": 1095,
      "##군": 1096,
      "##ᆨ한": 1097,
      "##류": 1098,
      "##름": 1099,
      "##증": 1100,
      "##쉬": 1101,
      "##파": 1102,
      "##창": 1103,
      "##척": 1104,
      "##켜": 1105,
      "##쁜": 1106,
      "##쌍": 1107,
      "##oo": 1108,
      "##잘": 1109,
      "##들어": 1110,
      "##들만": 1111,
      "##하라": 1112,
      "있다": 1113,
      "##나이": 1114,
      "##어나": 1115,
      "##거리": 1116,
      "한번": 1117,
      "조심": 1118,
      "##습니다": 1119,
      "대한": 1120,
      "성격": 1121,
      "좋은": 1122,
      "##겠네": 1123,
      "##같이": 1124,
      "##급": 1125,
      "##소리": 1126,
      "전현무": 1127,
      "내가": 1128,
      "니들": 1129,
      "니네": 1130,
      "##중에": 1131,
      "##문에": 1132,
      "빠순이": 1133,
      "언제": 1134,
      "##좋아": 1135,
      "젊은": 1136,
      ".\"": 1137,
      ";;": 1138,
      "꼴": 1139,
      "단": 1140,
      "맘": 1141,
      "벌": 1142,
      "코": 1143,
      "키": 1144,
      "##너": 1145,
      "##올": 1146,
      "##죠": 1147,
      "##ᆸ은": 1148,
      "##폐": 1149,
      "##ᆻ어": 1150,
      "##이라고": 1151,
      "##잖아": 1152,
      "##지말고": 1153,
      "##는지": 1154,
      "##공": 1155,
      "##다는": 1156,
      "##합니다": 1157,
      "역": 1158,
      "영": 1159,
      "##나오": 1160,
      "아까": 1161,
      "##아라": 1162,
      "엄": 1163,
      "엄마": 1164,
      "##인이": 1165,
      "사진": 1166,
      "저러": 1167,
      "##등": 1168,
      "바람": 1169,
      "대단": 1170,
      "성폭": 1171,
      "했": 1172,
      "##된": 1173,
      "##적으로": 1174,
      "오지": 1175,
      "수준": 1176,
      "##재현": 1177,
      "당연": 1178,
      "##많은": 1179,
      "힘들": 1180,
      "설리": 1181,
      "못생긴": 1182,
      "매력": 1183,
      ",,,": 1184,
      "특": 1185,
      "꽃뱀": 1186,
      "끝": 1187,
      "대한민국": 1188,
      "괘": 1189,
      "글": 1190,
      "돼": 1191,
      "먼": 1192,
      "백": 1193,
      "중": 1194,
      "크": 1195,
      "커": 1196,
      "함": 1197,
      "혼": 1198,
      "ㄷㄷ": 1199,
      "##교": 1200,
      "##메": 1201,
      "##빈": 1202,
      "##추": 1203,
      "##빼": 1204,
      "##>>": 1205,
      "##이가": 1206,
      "##강": 1207,
      "##답": 1208,
      "이해": 1209,
      "이유": 1210,
      "##나요": 1211,
      "앞": 1212,
      "##악": 1213,
      "##않": 1214,
      "##아주": 1215,
      "여자도": 1216,
      "##림": 1217,
      "##해야": 1218,
      "##기고": 1219,
      "억": 1220,
      "##ᅢᆼ이": 1221,
      "##욕": 1222,
      "모든": 1223,
      "마음": 1224,
      "절": 1225,
      "기자": 1226,
      "##스타": 1227,
      "##는걸": 1228,
      "##ㅋㅋㅋㅋㅋ": 1229,
      "심": 1230,
      "시집": 1231,
      "아니라": 1232,
      "아니면": 1233,
      "살아": 1234,
      "정말": 1235,
      "같이": 1236,
      "##매매": 1237,
      "##ᆨ실": 1238,
      "##봐라": 1239,
      "##분들": 1240,
      "##같은데": 1241,
      "머리": 1242,
      "##프로": 1243,
      "들어": 1244,
      "늙은": 1245,
      "피해자": 1246,
      "##누라": 1247,
      "응원": 1248,
      "괜": 1249,
      "10": 1250,
      "20": 1251,
      "날": 1252,
      "두": 1253,
      "떠": 1254,
      "맨": 1255,
      "빼": 1256,
      "치": 1257,
      "큰": 1258,
      "패": 1259,
      "팬": 1260,
      "허": 1261,
      "헤": 1262,
      "홍": 1263,
      "##ᆺ지": 1264,
      "##뇬": 1265,
      "##권": 1266,
      "##술": 1267,
      "##꾸": 1268,
      "##찬": 1269,
      "##코": 1270,
      "##따": 1271,
      "##뿐": 1272,
      "##잡": 1273,
      "##지는": 1274,
      "##담": 1275,
      "이건": 1276,
      "이미": 1277,
      "이래": 1278,
      "이렇게": 1279,
      "##낳": 1280,
      "##나가": 1281,
      "##엄마": 1282,
      "##에는": 1283,
      "##해주": 1284,
      "##했다": 1285,
      "##기는": 1286,
      "어려": 1287,
      "##러운": 1288,
      "##영이": 1289,
      "한녀": 1290,
      "한혜": 1291,
      "한녀들": 1292,
      "낳": 1293,
      "직": 1294,
      "징": 1295,
      "젖": 1296,
      "보니": 1297,
      "보면": 1298,
      "##부분": 1299,
      "##치고": 1300,
      "##정이": 1301,
      "결국": 1302,
      "아님": 1303,
      "아니다": 1304,
      "##그래": 1305,
      "##놓고": 1306,
      "냄": 1307,
      "##활": 1308,
      "일본": 1309,
      "비율": 1310,
      "될": 1311,
      "나이가": 1312,
      "한국여자": 1313,
      "알아": 1314,
      "##희로": 1315,
      "##혐": 1316,
      "딱": 1317,
      "열폭": 1318,
      "외모": 1319,
      "##레기": 1320,
      "가슴": 1321,
      "엄청": 1322,
      "한혜진": 1323,
      "걍": 1324,
      "똑": 1325,
      "로": 1326,
      "며": 1327,
      "산": 1328,
      "선": 1329,
      "승": 1330,
      "으": 1331,
      "잠": 1332,
      "친": 1333,
      "판": 1334,
      "편": 1335,
      "항": 1336,
      "##ᆺ이": 1337,
      "##ᆨ을": 1338,
      "##뭐": 1339,
      "##련": 1340,
      "##슬": 1341,
      "##ᆸ이": 1342,
      "##병": 1343,
      "##브라": 1344,
      "##표": 1345,
      "##품": 1346,
      "##퇘지": 1347,
      "##채": 1348,
      "##뜨": 1349,
      "##ᆮ고": 1350,
      "##ㄷㄷ": 1351,
      "##이냐": 1352,
      "##지고": 1353,
      "##지도": 1354,
      "##들을": 1355,
      "##들한테": 1356,
      "##하시": 1357,
      "이기": 1358,
      "##락": 1359,
      "여러": 1360,
      "##나라": 1361,
      "아직": 1362,
      "##아가": 1363,
      "여자로": 1364,
      "##싫": 1365,
      "업": 1366,
      "어ᄍ": 1367,
      "어리고": 1368,
      "##인생": 1369,
      "##맞": 1370,
      "##주는": 1371,
      "남자들은": 1372,
      "한다": 1373,
      "합": 1374,
      "하지": 1375,
      "하여": 1376,
      "종": 1377,
      "사과": 1378,
      "사실": 1379,
      "사귀": 1380,
      "##ᅥᆯ어": 1381,
      "자식": 1382,
      "성별": 1383,
      "성매매": 1384,
      "성희로": 1385,
      "##하는게": 1386,
      "##하는데": 1387,
      "있는": 1388,
      "연하": 1389,
      "연기": 1390,
      "##여자가": 1391,
      "해라": 1392,
      "##겠냐": 1393,
      "생겨": 1394,
      "없는": 1395,
      "없다": 1396,
      "노처": 1397,
      "같아": 1398,
      "##연예인": 1399,
      "화사": 1400,
      "확실": 1401,
      "예능": 1402,
      "##했으면": 1403,
      "불편": 1404,
      "불쌍": 1405,
      "상처": 1406,
      "현실": 1407,
      "##종국": 1408,
      "쿵쾅": 1409,
      "최고": 1410,
      "##체가": 1411,
      "아무리": 1412,
      "싶다": 1413,
      "이쁘고": 1414,
      "##결혼": 1415,
      "성폭행": 1416,
      "항상": 1417,
      "!!": 1418,
      "25": 1419,
      "걱": 1420,
      "네": 1421,
      "데": 1422,
      "돌": 1423,
      "등": 1424,
      "똥": 1425,
      "면": 1426,
      "분": 1427,
      "새": 1428,
      "순": 1429,
      "씨": 1430,
      "짜": 1431,
      "출": 1432,
      "타": 1433,
      "태": 1434,
      "##늘": 1435,
      "##ᅮᆨ": 1436,
      "##덜": 1437,
      "##족": 1438,
      "##ᆸ네": 1439,
      "##벼": 1440,
      "##토": 1441,
      "##초": 1442,
      "##참": 1443,
      "##ᆻ지": 1444,
      "##ᆻ고": 1445,
      "##커": 1446,
      "##딸": 1447,
      "##쪽": 1448,
      "##ㅡㅡ": 1449,
      "##지ᄒ": 1450,
      "##가리": 1451,
      "##라면": 1452,
      "##나보": 1453,
      "##나래": 1454,
      "##은거": 1455,
      "##석": 1456,
      "##었다": 1457,
      "##아이": 1458,
      "여자를": 1459,
      "##립": 1460,
      "##리가": 1461,
      "##리네": 1462,
      "##시켜": 1463,
      "##에선": 1464,
      "극": 1465,
      "그게": 1466,
      "##만나": 1467,
      "##러워": 1468,
      "##여성": 1469,
      "##였으면": 1470,
      "##을듯": 1471,
      "하면": 1472,
      "하네": 1473,
      "하는거": 1474,
      "##보여": 1475,
      "조용": 1476,
      "##야되": 1477,
      "나도": 1478,
      "나와": 1479,
      "나쁜": 1480,
      "맛": 1481,
      "막": 1482,
      "마누라": 1483,
      "저렇게": 1484,
      "다니": 1485,
      "다시": 1486,
      "##스럽": 1487,
      "볼": 1488,
      "보여": 1489,
      "성형": 1490,
      "##모르": 1491,
      "##년이": 1492,
      "있는데": 1493,
      "##겠지만": 1494,
      "##웃": 1495,
      "인스타": 1496,
      "##적이": 1497,
      "김태": 1498,
      "정도": 1499,
      "##그루": 1500,
      "애들": 1501,
      "높": 1502,
      "##액": 1503,
      "전부": 1504,
      "많아": 1505,
      "##때문에": 1506,
      "##봐도": 1507,
      "필": 1508,
      "구하라": 1509,
      "##더니": 1510,
      "사람들": 1511,
      "관리": 1512,
      "누구": 1513,
      "재미": 1514,
      "아닌데": 1515,
      "##관계": 1516,
      "뭔가": 1517,
      "배우": 1518,
      "예쁜": 1519,
      "잘생겨": 1520,
      "몰려": 1521,
      "##팅": 1522,
      "존나": 1523,
      "평생": 1524,
      "##머니": 1525,
      "부럽다": 1526,
      "행복": 1527,
      "맨날": 1528,
      "이래서": 1529,
      "업소": 1530,
      "ooo": 1531,
      "간": 1532,
      "깨": 1533,
      "논": 1534,
      "널": 1535,
      "놀": 1536,
      "라": 1537,
      "베": 1538,
      "밤": 1539,
      "색": 1540,
      "워": 1541,
      "완": 1542,
      "좌": 1543,
      "줄": 1544,
      "쯧": 1545,
      "초": 1546,
      "청": 1547,
      "충": 1548,
      "책": 1549,
      "토": 1550,
      "프": 1551,
      "표": 1552,
      "팔": 1553,
      "팩": 1554,
      "혀": 1555,
      "혜": 1556,
      "형": 1557,
      "##헌": 1558,
      "##ᆯ드": 1559,
      "##ᆫ다": 1560,
      "##ᆫ스": 1561,
      "##ᆨ에": 1562,
      "##둥": 1563,
      "##ᆸ고": 1564,
      "##베": 1565,
      "##변": 1566,
      "##불": 1567,
      "##께": 1568,
      "##낌": 1569,
      "##포": 1570,
      "##페미": 1571,
      "##튼": 1572,
      "##취": 1573,
      "##춰": 1574,
      "##ᆻ음": 1575,
      "##카": 1576,
      "##빨": 1577,
      "##싸": 1578,
      "##ᆩ에": 1579,
      "##ㅉㅉ": 1580,
      "##자나": 1581,
      "##지가": 1582,
      "##는다": 1583,
      "이러": 1584,
      "##라서": 1585,
      "여배우": 1586,
      "##나서": 1587,
      "아들": 1588,
      "아나": 1589,
      "아쉬": 1590,
      "##억": 1591,
      "##거지": 1592,
      "##거나": 1593,
      "여자랑": 1594,
      "##리도": 1595,
      "##시다": 1596,
      "남녀": 1597,
      "급": 1598,
      "그것도": 1599,
      "##해보": 1600,
      "##했다고": 1601,
      "##기도": 1602,
      "##기로": 1603,
      "##한데": 1604,
      "##인듯": 1605,
      "##인줄": 1606,
      "남자를": 1607,
      "##을까": 1608,
      "하는건": 1609,
      "##냐들": 1610,
      "##양": 1611,
      "가장": 1612,
      "가능": 1613,
      "나와서": 1614,
      "마야": 1615,
      "지들": 1616,
      "안타": 1617,
      "닮": 1618,
      "##남편": 1619,
      "##들이나": 1620,
      "##들이랑": 1621,
      "##스트": 1622,
      "##ㅋㅋㅋㅋㅋㅋㅋㅋ": 1623,
      "보기": 1624,
      "자랑": 1625,
      "바ᄁ": 1626,
      "용": 1627,
      "##년은": 1628,
      "못하는": 1629,
      "결혼하": 1630,
      "결혼할": 1631,
      "##여자랑": 1632,
      "##움": 1633,
      "인정": 1634,
      "##극": 1635,
      "그럴": 1636,
      "그렇고": 1637,
      "노래": 1638,
      "부들": 1639,
      "줌마": 1640,
      "##애들": 1641,
      "##놈이": 1642,
      "한남충": 1643,
      "뭐가": 1644,
      "##없음": 1645,
      "니가": 1646,
      "니들은": 1647,
      "화장": 1648,
      "##비율": 1649,
      "돈많은": 1650,
      "이뻐": 1651,
      "국": 1652,
      "구혜": 1653,
      "##접": 1654,
      "누군": 1655,
      "제발": 1656,
      "현아": 1657,
      "박나래": 1658,
      "김치녀": 1659,
      "봐라": 1660,
      "아닌가": 1661,
      "##이라도": 1662,
      "찍": 1663,
      "이제와서": 1664,
      "##줘야": 1665,
      "잘생긴": 1666,
      "같은데": 1667,
      "송종국": 1668,
      "##가지고": 1669,
      "그래도": 1670,
      "##찍": 1671,
      "쓰레기": 1672,
      "어떠": 1673,
      "당연히": 1674,
      "괜차": 1675,
      "성희롱": 1676,
      "걱정": 1677,
      "면상": 1678,
      "##그룹": 1679,
      "안타까": 1680,
      "구혜선": 1681,
      "20대": 1682,
      "40": 1683,
      "골": 1684,
      "권": 1685,
      "끼": 1686,
      "년": 1687,
      "레": 1688,
      "리": 1689,
      "쓸": 1690,
      "위": 1691,
      "암": 1692,
      "엉": 1693,
      "챙": 1694,
      "철": 1695,
      "카": 1696,
      "티": 1697,
      "탈": 1698,
      "포": 1699,
      "풀": 1700,
      "폭": 1701,
      "ㅜㅜ": 1702,
      "ㅡㅡ": 1703,
      "##ᆺ고": 1704,
      "##후": 1705,
      "##험": 1706,
      "##ᆨ하": 1707,
      "##왜": 1708,
      "##점": 1709,
      "##쟁이": 1710,
      "##손": 1711,
      "##색": 1712,
      "##ᆸ게": 1713,
      "##백": 1714,
      "##깔": 1715,
      "##퍼": 1716,
      "##폰": 1717,
      "##팬": 1718,
      "##ᆻ냐": 1719,
      "##ᆻ던": 1720,
      "##ᆻ구나": 1721,
      "##케": 1722,
      "##큼": 1723,
      "##쿵콰": 1724,
      "##빵": 1725,
      "##쓰": 1726,
      "##써": 1727,
      "##쯧": 1728,
      "##이상": 1729,
      "##지다": 1730,
      "##가보": 1731,
      "##하자": 1732,
      "이성": 1733,
      "##라는": 1734,
      "여주": 1735,
      "여우": 1736,
      "##돈": 1737,
      "##나는": 1738,
      "아래": 1739,
      "##얼": 1740,
      "##어가": 1741,
      "##거다": 1742,
      "여자만": 1743,
      "여자의": 1744,
      "##리면": 1745,
      "##시고": 1746,
      "##엔": 1747,
      "##에도": 1748,
      "그리": 1749,
      "##기가": 1750,
      "##델": 1751,
      "##록": 1752,
      "##으니까": 1753,
      "##인지": 1754,
      "##열": 1755,
      "##역": 1756,
      "##맛": 1757,
      "##죽": 1758,
      "남자로": 1759,
      "남자만": 1760,
      "남자들이": 1761,
      "##을텐데": 1762,
      "##궁": 1763,
      "하지마": 1764,
      "##볼": 1765,
      "조재현": 1766,
      "##야하는": 1767,
      "갑": 1768,
      "가만": 1769,
      "가져": 1770,
      "##려라": 1771,
      "##려면": 1772,
      "지랄": 1773,
      "기안": 1774,
      "안돼": 1775,
      "안재현": 1776,
      "##드라마": 1777,
      "##는거야": 1778,
      "보이": 1779,
      "잘하고": 1780,
      "밥": 1781,
      "밝": 1782,
      "대체": 1783,
      "성상": 1784,
      "##부들": 1785,
      "##녀가": 1786,
      "##성이": 1787,
      "##신이": 1788,
      "아니냐": 1789,
      "##진다": 1790,
      "##진짜": 1791,
      "좋다고": 1792,
      "좋겠다": 1793,
      "못하고": 1794,
      "연상": 1795,
      "##여자는": 1796,
      "##윤": 1797,
      "미친": 1798,
      "##있음": 1799,
      "인간": 1800,
      "생긴": 1801,
      "##같다": 1802,
      "살인": 1803,
      "살빼": 1804,
      "정상": 1805,
      "##그러": 1806,
      "노출": 1807,
      "노브라": 1808,
      "무서": 1809,
      "만들어": 1810,
      "부부": 1811,
      "##할때": 1812,
      "뭘": 1813,
      "##듯이": 1814,
      "##없다": 1815,
      "확": 1816,
      "더럽": 1817,
      "##전에": 1818,
      "사람이": 1819,
      "사람들이": 1820,
      "느끼": 1821,
      "섹": 1822,
      "섹시": 1823,
      "불류": 1824,
      "##저씨": 1825,
      "##운서": 1826,
      "##었네": 1827,
      "상폐": 1828,
      "약": 1829,
      "제목": 1830,
      "##난다": 1831,
      "한국남자": 1832,
      "ㅋㅋㅋㅋㅋㅋ": 1833,
      "##친구": 1834,
      "본다": 1835,
      "본인": 1836,
      "그런거": 1837,
      "에휴": 1838,
      "따라": 1839,
      "언냐들": 1840,
      "##하는것": 1841,
      "##끼리": 1842,
      "집에서": 1843,
      "##싶다": 1844,
      "쿵쾅이들": 1845,
      "쿵쾅이들이": 1846,
      "아이돌": 1847,
      "##죄자": 1848,
      "빨아": 1849,
      "손절": 1850,
      "술집": 1851,
      "잡아": 1852,
      "##는것도": 1853,
      "쉴드": 1854,
      "어떤": 1855,
      "진심으로": 1856,
      "둘다": 1857,
      "별로": 1858,
      "빠순이들": 1859,
      ";;;": 1860,
      "역겨": 1861,
      "영화": 1862,
      "먼저": 1863,
      "혼자": 1864,
      "억울": 1865,
      "절대": 1866,
      "냄새": 1867,
      "몇": 1868,
      "산이": 1869,
      "책임": 1870,
      "팩트": 1871,
      "아나운서": 1872,
      "부들부들": 1873,
      "어떻게": 1874,
      "##쿵쾅": 1875,
      "불륜": 1876,
      "1도": 1877,
      "괴": 1878,
      "궁": 1879,
      "꾸": 1880,
      "꿀": 1881,
      "늘": 1882,
      "뚱": 1883,
      "떨어": 1884,
      "러": 1885,
      "민": 1886,
      "변": 1887,
      "범": 1888,
      "브라": 1889,
      "뻔": 1890,
      "슬": 1891,
      "온": 1892,
      "운": 1893,
      "증": 1894,
      "취": 1895,
      "채": 1896,
      "창": 1897,
      "칼": 1898,
      "투": 1899,
      "통": 1900,
      "폐": 1901,
      "히": 1902,
      "효": 1903,
      "휴": 1904,
      "훠": 1905,
      "홀": 1906,
      "##ᆺ다": 1907,
      "##효": 1908,
      "##ᆽ고": 1909,
      "##놔": 1910,
      "##ᆨ아": 1911,
      "##먼": 1912,
      "##료": 1913,
      "##둘": 1914,
      "##덕": 1915,
      "##돼지": 1916,
      "##잔": 1917,
      "##ᆸ나": 1918,
      "##끄": 1919,
      "##껴": 1920,
      "##꼴": 1921,
      "##판": 1922,
      "##팔": 1923,
      "##평": 1924,
      "##탄": 1925,
      "##ᅲ스": 1926,
      "##ᆻ나": 1927,
      "##ᆻ겠지": 1928,
      "##딴": 1929,
      "##똑": 1930,
      "##뽀": 1931,
      "##쁘": 1932,
      "##째": 1933,
      "##ᆮ이": 1934,
      "##ᆮ보": 1935,
      "##이해": 1936,
      "##이팅": 1937,
      "##자리": 1938,
      "##자기": 1939,
      "##갑": 1940,
      "##가나": 1941,
      "##학": 1942,
      "##합": 1943,
      "##하세요": 1944,
      "##하며": 1945,
      "이야": 1946,
      "이국": 1947,
      "이모": 1948,
      "여시": 1949,
      "여편": 1950,
      "##나네": 1951,
      "##은데": 1952,
      "##석이": 1953,
      "##니깐": 1954,
      "##어진": 1955,
      "##어린": 1956,
      "##어울": 1957,
      "##앙": 1958,
      "##았다": 1959,
      "##아닌": 1960,
      "##거든": 1961,
      "여자연예인": 1962,
      "##싱": 1963,
      "##시네": 1964,
      "남친": 1965,
      "##해자": 1966,
      "##해줘": 1967,
      "##기에": 1968,
      "##기만": 1969,
      "##기사": 1970,
      "##한건": 1971,
      "어차": 1972,
      "어휴": 1973,
      "##만한": 1974,
      "##만큼": 1975,
      "##인다": 1976,
      "##인거": 1977,
      "##역이": 1978,
      "##마다": 1979,
      "남자집": 1980,
      "한채": 1981,
      "하는데": 1982,
      "##보는": 1983,
      "##보내": 1984,
      "졸": 1985,
      "조사": 1986,
      "##야함": 1987,
      "가정": 1988,
      "가지고": 1989,
      "목": 1990,
      "모델": 1991,
      "##려서": 1992,
      "##대는": 1993,
      "##댓글": 1994,
      "짓": 1995,
      "사건": 1996,
      "사내": 1997,
      "사회": 1998,
      "점": 1999,
      "저게": 2000,
      "답": 2001,
      "다르": 2002,
      "##남들": 2003,
      "##습": 2004,
      "##승": 2005,
      "##상이": 2006,
      "##ㅋㅋㅋㅋㅋㅋㅋ": 2007,
      "##혼자": 2008,
      "보는": 2009,
      "보니까": 2010,
      "##생각": 2011,
      "##사이": 2012,
      "자체가": 2013,
      "잘만": 2014,
      "성적": 2015,
      "성범": 2016,
      "##건가": 2017,
      "##건데": 2018,
      "##신은": 2019,
      "##년전": 2020,
      "왜케": 2021,
      "있지": 2022,
      "있고": 2023,
      "있어": 2024,
      "못할": 2025,
      "##밖에": 2026,
      "연예": 2027,
      "##텔": 2028,
      "##겠어": 2029,
      "##짝": 2030,
      "미쳐": 2031,
      "##있지": 2032,
      "##있고": 2033,
      "##있어": 2034,
      "인기": 2035,
      "인성": 2036,
      "살이": 2037,
      "정준": 2038,
      "애를": 2039,
      "묻": 2040,
      "부모": 2041,
      "##할수": 2042,
      "##할듯": 2043,
      "##왕": 2044,
      "##놓": 2045,
      "한남들이": 2046,
      "한남들아": 2047,
      "##르세": 2048,
      "뭐냐": 2049,
      "##맨스": 2050,
      "##없이": 2051,
      "많네": 2052,
      "##먹은": 2053,
      "##먹을": 2054,
      "일반": 2055,
      "##연기": 2056,
      "##하지만": 2057,
      "##던가": 2058,
      "##땐": 2059,
      "숨": 2060,
      "수영": 2061,
      "비난": 2062,
      "되는": 2063,
      "돈이": 2064,
      "핑": 2065,
      "##했나": 2066,
      "##했는데": 2067,
      "##....": 2068,
      "고생": 2069,
      "고소": 2070,
      "윤": 2071,
      "유명": 2072,
      "##광": 2073,
      "##더만": 2074,
      "세계": 2075,
      "##한다고": 2076,
      "관종": 2077,
      "현빈": 2078,
      "##동안": 2079,
      "한국여자들": 2080,
      "알아서": 2081,
      "##문제": 2082,
      "싫다": 2083,
      "##하네요": 2084,
      "않은": 2085,
      "##물이": 2086,
      "봐도": 2087,
      "##ᆻ을까": 2088,
      "##이라는": 2089,
      "##한거지": 2090,
      "맞춰": 2091,
      "신고": 2092,
      "##당히": 2093,
      "입장": 2094,
      "강간": 2095,
      "힘내": 2096,
      "힘든": 2097,
      "##키로": 2098,
      "집에": 2099,
      "벗": 2100,
      "잘생기고": 2101,
      "ㅉㅉㅉ": 2102,
      "##크고": 2103,
      "##싶고": 2104,
      "......": 2105,
      "공개": 2106,
      "##느라": 2107,
      "##새끼": 2108,
      "자기가": 2109,
      "동영": 2110,
      "때문에": 2111,
      "서울": 2112,
      "##정도로": 2113,
      "그래서": 2114,
      "받아": 2115,
      "올려": 2116,
      "원래": 2117,
      "여기서": 2118,
      "모르고": 2119,
      "우리나라": 2120,
      "세상에": 2121,
      "~~~~": 2122,
      "예쁘다": 2123,
      "음주": 2124,
      "조심해라": 2125,
      "맘충": 2126,
      "특히": 2127,
      "이유가": 2128,
      "##아줌마": 2129,
      "100": 2130,
      "두번": 2131,
      "이미지": 2132,
      "징징": 2133,
      "친구": 2134,
      "##병헌": 2135,
      "##품화": 2136,
      "합의": 2137,
      "하여간": 2138,
      "연하남": 2139,
      "확실히": 2140,
      "김태희": 2141,
      "쯧쯧": 2142,
      "프로": 2143,
      "바꿔": 2144,
      "송종국이": 2145,
      "괜찮": 2146,
      "레즈": 2147,
      "성상품화": 2148,
      "훨": 2149,
      "이국주": 2150,
      "어차피": 2151,
      "18": 2152,
      "80": 2153,
      "82": 2154,
      "?!": 2155,
      "겨": 2156,
      "꺼": 2157,
      "녀": 2158,
      "뇬": 2159,
      "담": 2160,
      "데이": 2161,
      "뜨": 2162,
      "떡": 2163,
      "명": 2164,
      "벼": 2165,
      "복": 2166,
      "삐": 2167,
      "슈": 2168,
      "삼": 2169,
      "슴": 2170,
      "써": 2171,
      "웨": 2172,
      "즐": 2173,
      "쪽": 2174,
      "클": 2175,
      "퇴": 2176,
      "파": 2177,
      "희": 2178,
      "혹": 2179,
      "혈": 2180,
      "ㅇㅈ": 2181,
      "##ᆺ도": 2182,
      "##ᆺ으면": 2183,
      "##허": 2184,
      "##햐": 2185,
      "##훈": 2186,
      "##흥": 2187,
      "##ᆯ영": 2188,
      "##ᆽ지": 2189,
      "##근": 2190,
      "##ᅮᆺ": 2191,
      "##외": 2192,
      "##얘": 2193,
      "##례": 2194,
      "##덩": 2195,
      "##솔": 2196,
      "##ᆷ씨": 2197,
      "##꼬": 2198,
      "##끈": 2199,
      "##꼭": 2200,
      "##탈": 2201,
      "##택": 2202,
      "##최": 2203,
      "##츠": 2204,
      "##천": 2205,
      "##총": 2206,
      "##책": 2207,
      "##ᆻ지만": 2208,
      "##ᆻ으니": 2209,
      "##ᆻ는지": 2210,
      "##ᅪᆯ영": 2211,
      "##떠": 2212,
      "##땅": 2213,
      "##쩌": 2214,
      "##ᆮ어": 2215,
      "##ᆮ기": 2216,
      "##ᆮ을": 2217,
      "##7살": 2218,
      "##이유": 2219,
      "##이지만": 2220,
      "##이란": 2221,
      "##지서": 2222,
      "##지게": 2223,
      "##지면": 2224,
      "##갖": 2225,
      "##가라": 2226,
      "##가면": 2227,
      "##가없": 2228,
      "##곳": 2229,
      "##골": 2230,
      "##고생": 2231,
      "##닥": 2232,
      "##들의": 2233,
      "##하긴": 2234,
      "이시": 2235,
      "이여자": 2236,
      "이던": 2237,
      "있다고": 2238,
      "이종": 2239,
      "이딴": 2240,
      "이병헌": 2241,
      "##라이": 2242,
      "##라지": 2243,
      "##라리": 2244,
      "##라는거": 2245,
      "##ᅥᆫ다": 2246,
      "##독": 2247,
      "##도가": 2248,
      "아는": 2249,
      "아예": 2250,
      "아저씨": 2251,
      "##어지": 2252,
      "##어리": 2253,
      "##었다고": 2254,
      "##아치": 2255,
      "##거임": 2256,
      "여자나이": 2257,
      "..\"": 2258,
      "##리지": 2259,
      "남이": 2260,
      "남의": 2261,
      "남성": 2262,
      "남태": 2263,
      "금": 2264,
      "그걸": 2265,
      "##행이": 2266,
      "##해야지": 2267,
      "##한것도": 2268,
      "어울": 2269,
      "어느": 2270,
      "##뎅이": 2271,
      "##넷": 2272,
      "##인은": 2273,
      "##러우": 2274,
      "##였다": 2275,
      "##주면": 2276,
      "##줌마": 2277,
      "남자랑": 2278,
      "남자한테": 2279,
      "##을때": 2280,
      "한심": 2281,
      "한명": 2282,
      "학": 2283,
      "하냐": 2284,
      "하겠": 2285,
      "하면서": 2286,
      "하늘": 2287,
      "##보이": 2288,
      "##보기": 2289,
      "##보세요": 2290,
      "조신": 2291,
      "조민": 2292,
      "조금": 2293,
      "##용이": 2294,
      "갓": 2295,
      "가즈": 2296,
      "모유": 2297,
      "##령": 2298,
      "##대도": 2299,
      "낮": 2300,
      "나라": 2301,
      "나온": 2302,
      "나중에": 2303,
      "나쁘": 2304,
      "마찬": 2305,
      "사고": 2306,
      "사겨": 2307,
      "사세요": 2308,
      "접": 2309,
      "저리": 2310,
      "저질": 2311,
      "기분": 2312,
      "안해": 2313,
      "안보": 2314,
      "안하고": 2315,
      "안하면": 2316,
      "안그래": 2317,
      "안쓰": 2318,
      "##남이": 2319,
      "##득": 2320,
      "##드만": 2321,
      "##드립": 2322,
      "##슷": 2323,
      "시대": 2324,
      "시작": 2325,
      "보임": 2326,
      "보소": 2327,
      "보내": 2328,
      "##생활": 2329,
      "##사는": 2330,
      "자신": 2331,
      "자꾸": 2332,
      "잘나": 2333,
      "잘살": 2334,
      "바로": 2335,
      "대부분": 2336,
      "성비": 2337,
      "성공": 2338,
      "##수준": 2339,
      "##념": 2340,
      "##성애": 2341,
      "##하는사람": 2342,
      "##제도": 2343,
      "##치심": 2344,
      "##미도": 2345,
      "##년들은": 2346,
      "##진이": 2347,
      "진지": 2348,
      "좋다": 2349,
      "있나": 2350,
      "있네": 2351,
      "있었": 2352,
      "못하": 2353,
      "못봐": 2354,
      "결혼을": 2355,
      "결혼하면": 2356,
      "해도": 2357,
      "해야": 2358,
      "했다": 2359,
      "해야지": 2360,
      "##우는": 2361,
      "##될": 2362,
      "##됨": 2363,
      "##되는": 2364,
      "겁나": 2365,
      "미국": 2366,
      "미개": 2367,
      "믿고": 2368,
      "##있게": 2369,
      "생기": 2370,
      "생활": 2371,
      "살고": 2372,
      "##그런": 2373,
      "##그냥": 2374,
      "##옷": 2375,
      "애기": 2376,
      "애들이": 2377,
      "노답": 2378,
      "붙": 2379,
      "##애비": 2380,
      "##예요": 2381,
      "##안하고": 2382,
      "##으면서": 2383,
      "##냄": 2384,
      "같다": 2385,
      "전형": 2386,
      "뭐라고": 2387,
      "오늘": 2388,
      "##간이": 2389,
      "##간에": 2390,
      "일부": 2391,
      "일단": 2392,
      "##하지마": 2393,
      "##하지말고": 2394,
      "황": 2395,
      "화나": 2396,
      "화이팅": 2397,
      "##비누": 2398,
      "빌": 2399,
      "##것들": 2400,
      "됨": 2401,
      "돈도": 2402,
      "돈많": 2403,
      "돈주고": 2404,
      "돈벌": 2405,
      "피부": 2406,
      "##했어": 2407,
      "##했네": 2408,
      "##했던": 2409,
      "이쁨": 2410,
      "고만": 2411,
      "더러운": 2412,
      "말고": 2413,
      "유부": 2414,
      "굳이": 2415,
      "##원은": 2416,
      "##살아": 2417,
      "나이많은": 2418,
      "느낌": 2419,
      "듯": 2420,
      "댓글에": 2421,
      "관계": 2422,
      "할때": 2423,
      "할일": 2424,
      "##운전": 2425,
      "##었는데": 2426,
      "##었음": 2427,
      "상대": 2428,
      "야동": 2429,
      "좋아하는": 2430,
      "제일": 2431,
      "현명": 2432,
      "##특": 2433,
      "##잼": 2434,
      "##남자가": 2435,
      "얼굴이": 2436,
      "여성들": 2437,
      "임신이": 2438,
      "임신도": 2439,
      "솔까": 2440,
      "재력": 2441,
      "##종범": 2442,
      "##폭력": 2443,
      "않아": 2444,
      "만나라": 2445,
      "만나서": 2446,
      "김치녀들": 2447,
      "김치년들": 2448,
      "왕": 2449,
      "이혼이": 2450,
      "아닌듯": 2451,
      "페미는": 2452,
      "##하겠다": 2453,
      "맞는": 2454,
      "요즘은": 2455,
      "최소": 2456,
      "##법": 2457,
      "##받아": 2458,
      "문제가": 2459,
      "문제야": 2460,
      "찌질": 2461,
      "##당한": 2462,
      "##관리": 2463,
      "강지ᄒ": 2464,
      "반성": 2465,
      "반대로": 2466,
      "##낄": 2467,
      "##짓을": 2468,
      "##좋은": 2469,
      "넘으면": 2470,
      "건들": 2471,
      "건모": 2472,
      "걸크": 2473,
      "걸그룹": 2474,
      "설현": 2475,
      "첫": 2476,
      "처럼": 2477,
      "열등": 2478,
      "감정이": 2479,
      "쿵쾅이들아": 2480,
      "꼭지": 2481,
      "스타": 2482,
      "서현": 2483,
      "얘는": 2484,
      "얘도": 2485,
      "##ㅠㅠㅠㅠ": 2486,
      "##지마라": 2487,
      "아이즈": 2488,
      "##아니고": 2489,
      "##정도면": 2490,
      "못생겨": 2491,
      "웃긴": 2492,
      "소지서": 2493,
      "송중": 2494,
      "축하": 2495,
      "##달라고": 2496,
      "어딜": 2497,
      "계집들은": 2498,
      "빨아주": 2499,
      "올라": 2500,
      "원나이": 2501,
      "미투는": 2502,
      "싸우": 2503,
      "##놈들이": 2504,
      "많은데": 2505,
      "평소": 2506,
      "##셔요": 2507,
      "모르는": 2508,
      "정신차": 2509,
      "양아치": 2510,
      "##언니": 2511,
      "##출연": 2512,
      "##랄까": 2513,
      "없어요": 2514,
      "난리치": 2515,
      "ㅋㅋㅋㅋㅋㅋㅋㅋㅋㅋㅋ": 2516,
      "둘이": 2517,
      "음악": 2518,
      "성격도": 2519,
      "언젠": 2520,
      "꼴페미": 2521,
      "아깝다": 2522,
      "대단하다": 2523,
      "오지네": 2524,
      "중요": 2525,
      "혼전": 2526,
      "응원합니다": 2527,
      "20살": 2528,
      "패라": 2529,
      "똑똑": 2530,
      "로맨스": 2531,
      "여럿": 2532,
      "아직도": 2533,
      "어쩌": 2534,
      "노처녀": 2535,
      "노처녀들": 2536,
      "예능에서": 2537,
      "불편해": 2538,
      "불쌍하다": 2539,
      "쿵쾅쿵쾅": 2540,
      "데려": 2541,
      "순수": 2542,
      "##벽": 2543,
      "##초에": 2544,
      "##아이돌": 2545,
      "조용히": 2546,
      "##야됨": 2547,
      "인스타에": 2548,
      "필요": 2549,
      "몰려와서": 2550,
      "완전": 2551,
      "충분": 2552,
      "##둥이": 2553,
      "닮아": 2554,
      "누군지": 2555,
      "갑자기": 2556,
      "섹스": 2557,
      "괴로": 2558,
      "일반인": 2559,
      "음주운전": 2560,
      "##향이": 2561,
      "##총각": 2562,
      "남태현": 2563,
      "가즈아": 2564,
      "전형적인": 2565,
      "강지환": 2566,
      "감정이입": 2567,
      "원나잇": 2568,
      "!\"": 2569,
      ",\"": 2570,
      "17살": 2571,
      "2차": 2572,
      "70": 2573,
      ">>>": 2574,
      "se": 2575,
      "귀": 2576,
      "끌": 2577,
      "깔": 2578,
      "깡": 2579,
      "뇌": 2580,
      "는": 2581,
      "넌": 2582,
      "뉴스": 2583,
      "뛰": 2584,
      "띄": 2585,
      "뜰": 2586,
      "떨": 2587,
      "병": 2588,
      "뼈": 2589,
      "빵": 2590,
      "쇼": 2591,
      "울": 2592,
      "쟤": 2593,
      "준": 2594,
      "쪼": 2595,
      "짱": 2596,
      "쫑": 2597,
      "쩐다": 2598,
      "캐": 2599,
      "쿨": 2600,
      "틀": 2601,
      "페": 2602,
      "회": 2603,
      "흐": 2604,
      "헐": 2605,
      "환": 2606,
      "ㅂㅅ": 2607,
      "ㅇㅇ": 2608,
      "ㅎㄷㄷ": 2609,
      "##ᆺ가": 2610,
      "##ᆺ어": 2611,
      "##ᆺ냐": 2612,
      "##ᆺ다고": 2613,
      "##ᆺ속": 2614,
      "##흘": 2615,
      "##힌": 2616,
      "##환": 2617,
      "##향": 2618,
      "##ᆯ거": 2619,
      "##ᆯ트": 2620,
      "##논": 2621,
      "##눈": 2622,
      "##놀": 2623,
      "##ᆫ드": 2624,
      "##규": 2625,
      "##ᆨ은": 2626,
      "##맹": 2627,
      "##메이": 2628,
      "##션": 2629,
      "##ᆸ박": 2630,
      "##ᆸ시다": 2631,
      "##뷔": 2632,
      "##밤": 2633,
      "##깨": 2634,
      "##꿀": 2635,
      "##끔": 2636,
      "##ᅭ나": 2637,
      "##픈": 2638,
      "##퇴": 2639,
      "##탕": 2640,
      "##톡": 2641,
      "##찰": 2642,
      "##ᆻ어도": 2643,
      "##킨": 2644,
      "##콩": 2645,
      "##뚱": 2646,
      "##뻐": 2647,
      "##뻔": 2648,
      "##3년": 2649,
      "##쎄": 2650,
      "##씬": 2651,
      "##찐": 2652,
      "##ᆢᆢ": 2653,
      "##ww": 2654,
      "##ᆩ아": 2655,
      "##bs": 2656,
      "##^^": 2657,
      "##er": 2658,
      "##40": 2659,
      "##ns": 2660,
      "##ng": 2661,
      "##♡♡": 2662,
      "##이어": 2663,
      "##이스": 2664,
      "##이되": 2665,
      "##이있": 2666,
      "##잖": 2667,
      "##자는": 2668,
      "##자들": 2669,
      "##자체가": 2670,
      "##짐": 2671,
      "##지처": 2672,
      "##지간": 2673,
      "##지않": 2674,
      "##가고": 2675,
      "##가진": 2676,
      "##가되": 2677,
      "##가봐": 2678,
      "##곤": 2679,
      "##고가": 2680,
      "##고만": 2681,
      "##고사": 2682,
      "##다면": 2683,
      "##다는게": 2684,
      "##하도": 2685,
      "##하노": 2686,
      "##하라고": 2687,
      "##하든": 2688,
      "##하더라": 2689,
      "이년": 2690,
      "이와": 2691,
      "이소": 2692,
      "이민": 2693,
      "이중": 2694,
      "이번": 2695,
      "##라니": 2696,
      "##라시": 2697,
      "여혐": 2698,
      "##도하고": 2699,
      "##나면": 2700,
      "##나마": 2701,
      "##났다": 2702,
      "##나봐": 2703,
      "##나보다": 2704,
      "##낳고": 2705,
      "##나온": 2706,
      "##나올": 2707,
      "##은이": 2708,
      "##은게": 2709,
      "##서도": 2710,
      "앉": 2711,
      "아프": 2712,
      "아가리": 2713,
      "##닝": 2714,
      "##님이": 2715,
      "##어라": 2716,
      "##어로": 2717,
      "##어드": 2718,
      "##어져": 2719,
      "##어뜨": 2720,
      "##아까": 2721,
      "##아를": 2722,
      "##아다니": 2723,
      "##아파": 2724,
      "##검": 2725,
      "##거야": 2726,
      "##거같다": 2727,
      "여자애": 2728,
      "여자한테": 2729,
      "여자분들": 2730,
      "여자라면": 2731,
      "##게되": 2732,
      "##리냐": 2733,
      "##리를": 2734,
      "##립니다": 2735,
      "##리면서": 2736,
      "##시키": 2737,
      "##시길": 2738,
      "##면이": 2739,
      "남주는": 2740,
      "남잔": 2741,
      "##에요": 2742,
      "그거": 2743,
      "그성": 2744,
      "그동안": 2745,
      "##기짓": 2746,
      "어지간": 2747,
      "##네는": 2748,
      "##네가": 2749,
      "##네ㅋㅋ": 2750,
      "##로지": 2751,
      "##로운": 2752,
      "##만명": 2753,
      "##으려고": 2754,
      "##인들": 2755,
      "##인에": 2756,
      "##인권": 2757,
      "##러쉬": 2758,
      "##염": 2759,
      "##여서": 2760,
      "##였을": 2761,
      "##여행": 2762,
      "##막": 2763,
      "##마드": 2764,
      "##마누라": 2765,
      "##중이": 2766,
      "남자에게": 2767,
      "남자답": 2768,
      "한걸": 2769,
      "한쪽": 2770,
      "##구요": 2771,
      "하자": 2772,
      "하긴": 2773,
      "하지만": 2774,
      "하세요": 2775,
      "하는게": 2776,
      "하는것도": 2777,
      "##보냐": 2778,
      "##보소": 2779,
      "##보단": 2780,
      "##복이": 2781,
      "##보인다": 2782,
      "조개": 2783,
      "조강": 2784,
      "##약": 2785,
      "갖": 2786,
      "가지": 2787,
      "가수": 2788,
      "가해자": 2789,
      "##려요": 2790,
      "##댓": 2791,
      "낳고": 2792,
      "나경": 2793,
      "마른": 2794,
      "마지마": 2795,
      "지나": 2796,
      "지들이": 2797,
      "지키": 2798,
      "사기": 2799,
      "사형": 2800,
      "사는게": 2801,
      "사업": 2802,
      "저거": 2803,
      "저래": 2804,
      "저걸": 2805,
      "기다": 2806,
      "기어": 2807,
      "기러": 2808,
      "기본": 2809,
      "안들": 2810,
      "안하는": 2811,
      "안어울": 2812,
      "##까요": 2813,
      "다가": 2814,
      "다들": 2815,
      "다리": 2816,
      "다음": 2817,
      "##남성": 2818,
      "##들이지": 2819,
      "##ᅥᆯ고": 2820,
      "##스러워": 2821,
      "##상에": 2822,
      "##는거냐": 2823,
      "##는거임": 2824,
      "시기": 2825,
      "보네": 2826,
      "보는거": 2827,
      "보면서": 2828,
      "보통": 2829,
      "##ᆻ다가": 2830,
      "##생민": 2831,
      "##생김": 2832,
      "##사나": 2833,
      "##사진": 2834,
      "##사님": 2835,
      "자유": 2836,
      "자연": 2837,
      "자살": 2838,
      "잘버": 2839,
      "잘나가": 2840,
      "밭": 2841,
      "바라": 2842,
      "대가리": 2843,
      "##숙": 2844,
      "##수가": 2845,
      "##수없": 2846,
      "##수없는": 2847,
      "##수록": 2848,
      "##의식": 2849,
      "##부가": 2850,
      "##를까": 2851,
      "##제가": 2852,
      "##칠": 2853,
      "##침": 2854,
      "##미가": 2855,
      "##조가": 2856,
      "##정연": 2857,
      "##국민": 2858,
      "##히는": 2859,
      "##히고": 2860,
      "너도": 2861,
      "너희": 2862,
      "요구": 2863,
      "##년들아": 2864,
      "왠": 2865,
      "왜이": 2866,
      "좋네": 2867,
      "있을": 2868,
      "있는거": 2869,
      "있음": 2870,
      "있어서": 2871,
      "있습니다": 2872,
      "못한": 2873,
      "##밥": 2874,
      "##바지": 2875,
      "##바람": 2876,
      "연락": 2877,
      "결혼은": 2878,
      "결혼한": 2879,
      "결혼하고": 2880,
      "결혼식": 2881,
      "결혼해서": 2882,
      "결혼하는게": 2883,
      "##여자도": 2884,
      "해서": 2885,
      "했으면": 2886,
      "했는데": 2887,
      "##겠습니다": 2888,
      "##육": 2889,
      "겉": 2890,
      "거다": 2891,
      "거의": 2892,
      "거짓": 2893,
      "##겨운": 2894,
      "##ᆼ이지": 2895,
      "미나": 2896,
      "미모": 2897,
      "미워": 2898,
      "##있냐": 2899,
      "##있는데": 2900,
      "인터": 2901,
      "인물": 2902,
      "김원": 2903,
      "##같고": 2904,
      "##같음": 2905,
      "없고": 2906,
      "없인": 2907,
      "살다": 2908,
      "살면": 2909,
      "살려": 2910,
      "정화": 2911,
      "정액": 2912,
      "정겨운": 2913,
      "##오는": 2914,
      "애도": 2915,
      "애미": 2916,
      "애낳": 2917,
      "애초에": 2918,
      "##심히": 2919,
      "그러네": 2920,
      "놈": 2921,
      "놈이": 2922,
      "노산": 2923,
      "노이해": 2924,
      "노총각": 2925,
      "무시": 2926,
      "무죄": 2927,
      "만지고": 2928,
      "만족": 2929,
      "부자": 2930,
      "부담": 2931,
      "부러워": 2932,
      "부러우": 2933,
      "##할만": 2934,
      "줌": 2935,
      "주먹": 2936,
      "죽이": 2937,
      "주작": 2938,
      "##애액": 2939,
      "##소나": 2940,
      "##소원": 2941,
      "##예원": 2942,
      "##안되": 2943,
      "한남들은": 2944,
      "같네": 2945,
      "같음": 2946,
      "전에": 2947,
      "전처": 2948,
      "##릇": 2949,
      "##르면": 2950,
      "##르르": 2951,
      "뭐야": 2952,
      "뭐랄까": 2953,
      "오래": 2954,
      "오크": 2955,
      "옷이": 2956,
      "오로지": 2957,
      "오정연": 2958,
      "##매력": 2959,
      "##현주": 2960,
      "##없어": 2961,
      "##력을": 2962,
      "##먹네": 2963,
      "일하는": 2964,
      "일인가": 2965,
      "일어나": 2966,
      "##하지말": 2967,
      "##한테만": 2968,
      "빚": 2969,
      "비호": 2970,
      "##일수도": 2971,
      "##것같은데": 2972,
      "된": 2973,
      "피임": 2974,
      "여자들만": 2975,
      "개빠": 2976,
      "개소리": 2977,
      "##장에": 2978,
      "##장님": 2979,
      "곧": 2980,
      "고마": 2981,
      "임산": 2982,
      "임현주": 2983,
      "말도": 2984,
      "유치": 2985,
      "유독": 2986,
      "##원래": 2987,
      "##착": 2988,
      "나이차": 2989,
      "##린다": 2990,
      "사람들도": 2991,
      "욕함": 2992,
      "느그": 2993,
      "듣고": 2994,
      "##저기": 2995,
      "##타지": 2996,
      "##타령": 2997,
      "##한다는": 2998,
      "댓글이": 2999,
      "할머니": 3000,
      "##월": 3001,
      "##운동": 3002,
      "##딩": 3003,
      "아줌마들아": 3004,
      "##명이": 3005,
      "##단다": 3006,
      "##었지": 3007,
      "상관": 3008,
      "좋아할": 3009,
      "좋아한다": 3010,
      "##트폭력": 3011,
      "##남자는": 3012,
      "##남자랑": 3013,
      "##남자를": 3014,
      "알고": 3015,
      "ㅋㅋㅋㅋㅋㅋㅋ": 3016,
      "ㅋㅋㅋㅋㅋㅋㅋㅋ": 3017,
      "##번째": 3018,
      "##ᆷ이네": 3019,
      "여성분들": 3020,
      "여성비율": 3021,
      "여성인권": 3022,
      "##걸고": 3023,
      "꼬라지": 3024,
      "##친거": 3025,
      "박해": 3026,
      "박보": 3027,
      "재결": 3028,
      "않고": 3029,
      "않나": 3030,
      "##져라": 3031,
      "##져서": 3032,
      "방탄": 3033,
      "와이": 3034,
      "##혜교": 3035,
      "봐야": 3036,
      "연예인이": 3037,
      "연예인은": 3038,
      "빻": 3039,
      "빠는": 3040,
      "페미니": 3041,
      "페미들이": 3042,
      "##쳐서": 3043,
      "##쳐먹고": 3044,
      "##이라니": 3045,
      "##한거고": 3046,
      "##한거임": 3047,
      "먹는": 3048,
      "먹고": 3049,
      "먹어": 3050,
      "최종범": 3051,
      "##줄알": 3052,
      "##!!!": 3053,
      "그런가": 3054,
      "그런데": 3055,
      "그런건": 3056,
      "##받지": 3057,
      "##받고": 3058,
      "##받을": 3059,
      "도박": 3060,
      "엥": 3061,
      "찔": 3062,
      "찌찌": 3063,
      "입고": 3064,
      "이젠": 3065,
      "계속": 3066,
      "강요": 3067,
      "장난": 3068,
      "장동": 3069,
      "쳐보": 3070,
      "쳐먹": 3071,
      "##키우": 3072,
      "##년들의": 3073,
      "드라마가": 3074,
      "드라마만": 3075,
      "건강": 3076,
      "버리고": 3077,
      "착": 3078,
      "차라리": 3079,
      "처음": 3080,
      "##줘라": 3081,
      "##감은": 3082,
      "열심히": 3083,
      "감정": 3084,
      "감히": 3085,
      "몰라": 3086,
      "몰카": 3087,
      ".........": 3088,
      "잘못이": 3089,
      "공부": 3090,
      "공효": 3091,
      "눈물이": 3092,
      "##느리": 3093,
      "나오는": 3094,
      "나오면": 3095,
      "싶음": 3096,
      "자기보다": 3097,
      "피해주": 3098,
      "동성애": 3099,
      "스토": 3100,
      "서로": 3101,
      "얘기": 3102,
      "ㅎㅎㅎㅎ": 3103,
      "아이유": 3104,
      "##아니냐": 3105,
      "##정도는": 3106,
      "이쁘니까": 3107,
      "소유": 3108,
      "소름": 3109,
      "송혜교": 3110,
      "춤": 3111,
      "이상한": 3112,
      "이상화": 3113,
      "받는": 3114,
      "받고": 3115,
      "것들이": 3116,
      "계집들": 3117,
      "매일": 3118,
      "빨고": 3119,
      "술마": 3120,
      "##넘은": 3121,
      "젊을때": 3122,
      "잡고": 3123,
      "누가봐도": 3124,
      "방송출연": 3125,
      "여기저기": 3126,
      "##인가요": 3127,
      "##사람은": 3128,
      "싫어하는": 3129,
      "싫어할": 3130,
      "능력이": 3131,
      "능력있고": 3132,
      "경제": 3133,
      "경찰": 3134,
      "까지": 3135,
      "쉽게": 3136,
      "호감": 3137,
      "##꺼같": 3138,
      "실망": 3139,
      "정신병": 3140,
      "양예원": 3141,
      "몸매는": 3142,
      "30넘은": 3143,
      "발언": 3144,
      "죄다": 3145,
      "적은": 3146,
      "적당히": 3147,
      "##속은": 3148,
      "작작": 3149,
      "작품": 3150,
      "이쁜데": 3151,
      "세상이": 3152,
      "광": 3153,
      "과거": 3154,
      "물론": 3155,
      "ㅋㅋㅋㅋㅋㅋㅋㅋㅋㅋㅋㅋㅋㅋㅋㅋㅋ": 3156,
      "멋진": 3157,
      "예쁘고": 3158,
      "뒷": 3159,
      "##률": 3160,
      "전현무는": 3161,
      "언제부터": 3162,
      "키작": 3163,
      "키크고": 3164,
      "##올려": 3165,
      "##ᆻ어요": 3166,
      "오지게": 3167,
      "힘들게": 3168,
      "설리가": 3169,
      "매력이": 3170,
      ",,,,": 3171,
      "특징": 3172,
      "끝나": 3173,
      "됐을": 3174,
      "크게": 3175,
      "커리": 3176,
      "커플": 3177,
      "함소원": 3178,
      "앞으로": 3179,
      "모든게": 3180,
      "##는걸까": 3181,
      "응원한다": 3182,
      "괜히": 3183,
      "헤어지": 3184,
      "홍진": 3185,
      "##엄마가": 3186,
      "##해주세요": 3187,
      "한녀들이": 3188,
      "낳으": 3189,
      "낳아서": 3190,
      "직업": 3191,
      "젖꼭": 3192,
      "냄비": 3193,
      "비율이": 3194,
      "외모가": 3195,
      "며느리": 3196,
      "으휴": 3197,
      "잠자리": 3198,
      "판단": 3199,
      "판타지": 3200,
      "이기적인": 3201,
      "여자로서": 3202,
      "##싫어": 3203,
      "어쩔": 3204,
      "하여튼": 3205,
      "종국": 3206,
      "자식들": 3207,
      "생겨서": 3208,
      "현실성": 3209,
      "최고지": 3210,
      "짜증": 3211,
      "탑": 3212,
      "태어나": 3213,
      "##컷": 3214,
      "##나보네": 3215,
      "극혐": 3216,
      "##보여서": 3217,
      "조용하네": 3218,
      "##스럽게": 3219,
      "몰려오": 3220,
      "행복한": 3221,
      "행복하게": 3222,
      "논리": 3223,
      "라는": 3224,
      "베댓": 3225,
      "워너": 3226,
      "완벽": 3227,
      "표정": 3228,
      "팔자": 3229,
      "협박": 3230,
      "혜교": 3231,
      "##불쌍": 3232,
      "##취급": 3233,
      "이러고": 3234,
      "##양녀": 3235,
      "마약": 3236,
      "용서": 3237,
      "그럴수도": 3238,
      "줌마들": 3239,
      "안타까워": 3240,
      "골빈": 3241,
      "엉뎅이": 3242,
      "카메": 3243,
      "티비": 3244,
      "탈코": 3245,
      "폭력": 3246,
      "##쟁이들": 3247,
      "##가보네": 3248,
      "##얼굴": 3249,
      "밝히": 3250,
      "밝혀": 3251,
      "확정": 3252,
      "한국남자들": 3253,
      "꾸미": 3254,
      "뚱뚱": 3255,
      "러브라": 3256,
      "범죄자": 3257,
      "운동": 3258,
      "취집": 3259,
      "창피": 3260,
      "투표": 3261,
      "##놔라": 3262,
      "##뽑": 3263,
      "##아닌가": 3264,
      "한채아가": 3265,
      "목소리": 3266,
      "성범죄자": 3267,
      "정준영이": 3268,
      "##르셋": 3269,
      "수영복이": 3270,
      "핑계": 3271,
      "힘내세요": 3272,
      "동영상": 3273,
      "서울대": 3274,
      "맘충들": 3275,
      "친구가": 3276,
      "바꿔서": 3277,
      "훨씬": 3278,
      "데이트폭력": 3279,
      "벼슬": 3280,
      "클라": 3281,
      "퇴물": 3282,
      "혹시": 3283,
      "ㅇㅈㄹ": 3284,
      "##쩌네": 3285,
      "이던이": 3286,
      "조민기": 3287,
      "갓양녀": 3288,
      "안쓰럽": 3289,
      "잘나가는": 3290,
      "붙이지": 3291,
      "##하지마라": 3292,
      "돈많고": 3293,
      "현명한": 3294,
      "걸크러쉬": 3295,
      "스타일": 3296,
      "송중기": 3297,
      "평소에": 3298,
      "데려가": 3299,
      "충분히": 3300,
      "누군지모르": 3301,
      "괴롭": 3302,
      "깡패": 3303,
      "##ᆫ드폰": 3304,
      "조강지처": 3305,
      "김원희": 3306,
      "정액비누": 3307,
      "부러우면": 3308,
      "개빻": 3309,
      "재결합": 3310,
      "!?": 3311,
      ".!": 3312,
      ".,": 3313,
      "11": 3314,
      "2세": 3315,
      "38": 3316,
      "36": 3317,
      "3년": 3318,
      "50": 3319,
      "8명": 3320,
      "99": 3321,
      "?\"": 3322,
      "^~": 3323,
      "do": 3324,
      "dm": 3325,
      "kbs": 3326,
      "oe": 3327,
      "sns": 3328,
      "ver": 3329,
      "~?": 3330,
      "~!": 3331,
      "교": 3332,
      "갈": 3333,
      "게이": 3334,
      "깜": 3335,
      "깽": 3336,
      "디": 3337,
      "덩": 3338,
      "덕": 3339,
      "독": 3340,
      "띠": 3341,
      "딴": 3342,
      "땡": 3343,
      "랄": 3344,
      "런": 3345,
      "룸": 3346,
      "멍": 3347,
      "맹": 3348,
      "멀": 3349,
      "번": 3350,
      "빤": 3351,
      "뿐": 3352,
      "쎄": 3353,
      "쌍": 3354,
      "져": 3355,
      "쥐": 3356,
      "줘": 3357,
      "쩌": 3358,
      "찐": 3359,
      "찬": 3360,
      "춘": 3361,
      "침": 3362,
      "촬영": 3363,
      "쿵": 3364,
      "컴": 3365,
      "케이": 3366,
      "테": 3367,
      "툭": 3368,
      "품": 3369,
      "풋": 3370,
      "훈": 3371,
      "흥": 3372,
      "향": 3373,
      "ㅁㅊ": 3374,
      "ㅂㄷ": 3375,
      "ㅅㅅ": 3376,
      "ㅈㄹ": 3377,
      "ㅠㅜ": 3378,
      "ㅠㅠㅠㅠㅠ": 3379,
      "##ᆺ아": 3380,
      "##ᆺ게": 3381,
      "##ᆺ네": 3382,
      "##ᆺ을": 3383,
      "##ᆺ는데": 3384,
      "##ᆺ에서": 3385,
      "##ᆺ날": 3386,
      "##ᆺ구만": 3387,
      "##헤": 3388,
      "##혹": 3389,
      "##ᆯ로": 3390,
      "##ᆽ아": 3391,
      "##눌": 3392,
      "##녕": 3393,
      "##널": 3394,
      "##뇨나": 3395,
      "##ᆫ이": 3396,
      "##ᆫ지": 3397,
      "##ᆫ더": 3398,
      "##견": 3399,
      "##ᆨ하고": 3400,
      "##ᆨ소": 3401,
      "##ᆨ들아": 3402,
      "##ᆨ선": 3403,
      "##ᆨ쳐": 3404,
      "##ᆨ님": 3405,
      "##ᆨ지다": 3406,
      "##웨": 3407,
      "##웅": 3408,
      "##뮤": 3409,
      "##멍": 3410,
      "##몰": 3411,
      "##렁": 3412,
      "##뒤": 3413,
      "##즐": 3414,
      "##존": 3415,
      "##쟁": 3416,
      "##삼": 3417,
      "##샌": 3418,
      "##ᅱ어나": 3419,
      "##ᆸ적": 3420,
      "##ᆸ으로": 3421,
      "##ᆸ네요": 3422,
      "##ᆸ외": 3423,
      "##브": 3424,
      "##ᆷ들": 3425,
      "##ᆷ오": 3426,
      "##ᆷ매": 3427,
      "##ᆷ든": 3428,
      "##ᆷ버": 3429,
      "##뀌": 3430,
      "##끗": 3431,
      "##ᆿㅋㅋㅋㅋㅋㅋㅋㅋ": 3432,
      "##ᆿㅋㅋㅋㅋㅋㅋㅋ": 3433,
      "##핀": 3434,
      "##푼": 3435,
      "##풀": 3436,
      "##풋": 3437,
      "##틀": 3438,
      "##틴": 3439,
      "##텅": 3440,
      "##탱이": 3441,
      "##ᅲᆼ": 3442,
      "##층": 3443,
      "##촬영": 3444,
      "##ᆼ크": 3445,
      "##ᆻ자": 3446,
      "##ᆻ습니다": 3447,
      "##ᆻ잖아": 3448,
      "##ᆻ겠냐": 3449,
      "##퀴": 3450,
      "##캐": 3451,
      "##킁": 3452,
      "##킴": 3453,
      "##케이": 3454,
      "##ᅪᆼ이": 3455,
      "##ᇂ다": 3456,
      "##ᇂ어": 3457,
      "##띠": 3458,
      "##뛰": 3459,
      "##뚤": 3460,
      "##떡": 3461,
      "##떨어": 3462,
      "##ᅣᆫ": 3463,
      "##뿌": 3464,
      "##뿔": 3465,
      "##쁨": 3466,
      "##싼": 3467,
      "##썩": 3468,
      "##쯔": 3469,
      "##쫑": 3470,
      "##쭉": 3471,
      "##84": 3472,
      "##ㅠㅜ": 3473,
      "##too": 3474,
      "##99": 3475,
      "##ᆱ어": 3476,
      "##;;": 3477,
      "##cd": 3478,
      "##ex": 3479,
      "##20": 3480,
      "##2년": 3481,
      "##ㄹㅇ": 3482,
      "##ㄹㄱ": 3483,
      "##40대": 3484,
      "##ing": 3485,
      "##ᆲ은": 3486,
      "##kg": 3487,
      "##ki": 3488,
      "##ㅂㄷ": 3489,
      "##잉": 3490,
      "##이는": 3491,
      "##이니": 3492,
      "##이여": 3493,
      "##이대": 3494,
      "##있다": 3495,
      "##이미": 3496,
      "##이없": 3497,
      "##입니다": 3498,
      "##이형": 3499,
      "##이머": 3500,
      "##이쁜": 3501,
      "##이슬": 3502,
      "##잇고": 3503,
      "##이뻐": 3504,
      "##잠": 3505,
      "##자다": 3506,
      "##자로": 3507,
      "##자랑": 3508,
      "##자현": 3509,
      "##지어": 3510,
      "##지거": 3511,
      "##지로": 3512,
      "##지부": 3513,
      "##지들은": 3514,
      "##지우": 3515,
      "##지매": 3516,
      "##지말": 3517,
      "##지영": 3518,
      "##지키": 3519,
      "##지영이": 3520,
      "##는듯": 3521,
      "##가ᄆ": 3522,
      "##가스": 3523,
      "##가는거": 3524,
      "##가정": 3525,
      "##가는데": 3526,
      "##가면서": 3527,
      "##갔을": 3528,
      "##가능": 3529,
      "##가며": 3530,
      "##가뜨": 3531,
      "##가락": 3532,
      "##갑네": 3533,
      "##고요": 3534,
      "##고쳐": 3535,
      "##고싶": 3536,
      "##다녀": 3537,
      "##다처": 3538,
      "##다니까": 3539,
      "##들중에": 3540,
      "##들인듯": 3541,
      "##들끼리": 3542,
      "##항": 3543,
      "##하기": 3544,
      "##하러": 3545,
      "##하구": 3546,
      "##하던": 3547,
      "##하길": 3548,
      "##하겠지": 3549,
      "##하겠네": 3550,
      "##하잖아": 3551,
      "##하더니": 3552,
      "##하기도": 3553,
      "##하셔요": 3554,
      "이자": 3555,
      "이드": 3556,
      "이수": 3557,
      "이때": 3558,
      "이분": 3559,
      "이혜": 3560,
      "이용": 3561,
      "이년들": 3562,
      "이름": 3563,
      "이찬": 3564,
      "이열": 3565,
      "이드라마": 3566,
      "잊지": 3567,
      "이정도는": 3568,
      "##랖": 3569,
      "##라나": 3570,
      "##라디": 3571,
      "##라면서": 3572,
      "##라버": 3573,
      "##라며": 3574,
      "엿": 3575,
      "옆": 3576,
      "여신": 3577,
      "여적": 3578,
      "여친": 3579,
      "여행": 3580,
      "##동이": 3581,
      "##도소": 3582,
      "##도위": 3583,
      "##도가서": 3584,
      "##도록": 3585,
      "##납": 3586,
      "##나고": 3587,
      "##나들이": 3588,
      "##나겠": 3589,
      "##나와": 3590,
      "##나지만": 3591,
      "##나처럼": 3592,
      "##나마나": 3593,
      "##나소나": 3594,
      "##은건": 3595,
      "##은혜": 3596,
      "##설": 3597,
      "아기": 3598,
      "아마": 3599,
      "아냐": 3600,
      "아녀": 3601,
      "아버": 3602,
      "아빠": 3603,
      "아파": 3604,
      "아앙": 3605,
      "아픈": 3606,
      "아침": 3607,
      "아지매": 3608,
      "##니들": 3609,
      "##니스": 3610,
      "##니안": 3611,
      "##어주": 3612,
      "##어질": 3613,
      "##어야지": 3614,
      "##어머니": 3615,
      "##어빵": 3616,
      "##아도": 3617,
      "##았으면": 3618,
      "##아야지": 3619,
      "##았네": 3620,
      "##거없는": 3621,
      "##거같은데": 3622,
      "##거에요": 3623,
      "여자다": 3624,
      "여자에": 3625,
      "여자네": 3626,
      "여자인": 3627,
      "여자편": 3628,
      "여자와": 3629,
      "여자하나": 3630,
      "여자답": 3631,
      "여자욕": 3632,
      "여자였으면": 3633,
      "여자친구": 3634,
      "여자아이돌": 3635,
      "..,": 3636,
      "##게요": 3637,
      "##리다": 3638,
      "##리는거": 3639,
      "##리수": 3640,
      "##리는게": 3641,
      "##리지말고": 3642,
      "##시대": 3643,
      "##시오": 3644,
      "##시절": 3645,
      "##시나들이": 3646,
      "남에": 3647,
      "남적": 3648,
      "남혐": 3649,
      "##엘": 3650,
      "그이": 3651,
      "그지": 3652,
      "그건": 3653,
      "그의": 3654,
      "그녀": 3655,
      "그치": 3656,
      "그여자": 3657,
      "그니까": 3658,
      "그당": 3659,
      "그녀들": 3660,
      "그정도": 3661,
      "그대로": 3662,
      "그이상": 3663,
      "그나마": 3664,
      "##ᅮᆫ이": 3665,
      "##해요": 3666,
      "##해집": 3667,
      "##해봐": 3668,
      "##해보고": 3669,
      "##해봐라": 3670,
      "##햇지": 3671,
      "##기자": 3672,
      "##기녀": 3673,
      "##기를": 3674,
      "##기전": 3675,
      "##기본": 3676,
      "##기전에": 3677,
      "##기왕": 3678,
      "##한게": 3679,
      "##한수": 3680,
      "##한국": 3681,
      "##한일": 3682,
      "##한번": 3683,
      "##한넘": 3684,
      "##한척": 3685,
      "##한것들": 3686,
      "어마": 3687,
      "어제": 3688,
      "어미": 3689,
      "어때": 3690,
      "##네들": 3691,
      "##로는": 3692,
      "##로서": 3693,
      "##로영": 3694,
      "##로부터": 3695,
      "##만드": 3696,
      "##으려": 3697,
      "##으라고": 3698,
      "##으루": 3699,
      "##인드": 3700,
      "##인간": 3701,
      "##인과": 3702,
      "##인이랑": 3703,
      "##인것같은데": 3704,
      "##러니": 3705,
      "##러울": 3706,
      "##여도": 3707,
      "##마안": 3708,
      "##주지": 3709,
      "##죽이": 3710,
      "##주혀": 3711,
      "##주겠네": 3712,
      "##주변": 3713,
      "남자나": 3714,
      "남자냐": 3715,
      "남자분": 3716,
      "남자연예인": 3717,
      "남자라서": 3718,
      "한지": 3719,
      "한거": 3720,
      "한여자": 3721,
      "한테": 3722,
      "한다고": 3723,
      "한두": 3724,
      "한창": 3725,
      "한둘": 3726,
      "##구선": 3727,
      "하니": 3728,
      "하게": 3729,
      "하던": 3730,
      "하차": 3731,
      "하든": 3732,
      "하피": 3733,
      "하루": 3734,
      "하다가": 3735,
      "하는거지": 3736,
      "하지말고": 3737,
      "##보아": 3738,
      "##보게": 3739,
      "##보이고": 3740,
      "##냐고": 3741,
      "조현": 3742,
      "조폭": 3743,
      "조카": 3744,
      "조보아": 3745,
      "##양이": 3746,
      "##야돼": 3747,
      "가서": 3748,
      "가진": 3749,
      "가질": 3750,
      "가식": 3751,
      "가리는": 3752,
      "가득": 3753,
      "가시나들이": 3754,
      "모음": 3755,
      "모텔": 3756,
      "...?": 3757,
      "...\"": 3758,
      "##렴": 3759,
      "##려니": 3760,
      "##려야": 3761,
      "##령이": 3762,
      "##려야지": 3763,
      "##려가서": 3764,
      "##렸지": 3765,
      "##려보세요": 3766,
      "##댐": 3767,
      "##대해": 3768,
      "##대기": 3769,
      "##대야": 3770,
      "##댄다": 3771,
      "나만": 3772,
      "나래": 3773,
      "나는데": 3774,
      "낫지": 3775,
      "마라": 3776,
      "마스": 3777,
      "마녀": 3778,
      "마치": 3779,
      "마시고": 3780,
      "마땅": 3781,
      "맙시다": 3782,
      "마눌": 3783,
      "마인드": 3784,
      "지지": 3785,
      "지가": 3786,
      "지도": 3787,
      "지네": 3788,
      "지성": 3789,
      "지겨": 3790,
      "지적": 3791,
      "지내": 3792,
      "지능": 3793,
      "지들만": 3794,
      "지딸": 3795,
      "삭": 3796,
      "사용": 3797,
      "사위": 3798,
      "사생활": 3799,
      "저건": 3800,
      "기대": 3801,
      "기르": 3802,
      "기레기": 3803,
      "기억": 3804,
      "안사": 3805,
      "안걸": 3806,
      "안본": 3807,
      "안하는거": 3808,
      "안느": 3809,
      "안달": 3810,
      "안해도": 3811,
      "안나오": 3812,
      "안맞": 3813,
      "안좋은": 3814,
      "##깥": 3815,
      "다는": 3816,
      "다녀": 3817,
      "다물": 3818,
      "답다": 3819,
      "다해도": 3820,
      "다이어": 3821,
      "##남친": 3822,
      "##ᅥᆯ지": 3823,
      "##ᅥᆯ까": 3824,
      "##듣": 3825,
      "##드는": 3826,
      "##드라": 3827,
      "##드는거": 3828,
      "##드신": 3829,
      "##드는건": 3830,
      "##드러운": 3831,
      "##드립니다": 3832,
      "##스로": 3833,
      "##스런": 3834,
      "##스프": 3835,
      "##습은": 3836,
      "##스러운": 3837,
      "##스팅": 3838,
      "##상만": 3839,
      "##상을": 3840,
      "##상관": 3841,
      "##상태": 3842,
      "##는거고": 3843,
      "식": 3844,
      "시전": 3845,
      "시선": 3846,
      "시청": 3847,
      "시엄마": 3848,
      "시궁": 3849,
      "시어머니": 3850,
      "보지": 3851,
      "보다": 3852,
      "보이면": 3853,
      "볶아": 3854,
      "보나마나": 3855,
      "##ᆻ다는": 3856,
      "##생겨": 3857,
      "##사유": 3858,
      "##사친": 3859,
      "자고": 3860,
      "자리": 3861,
      "자빠": 3862,
      "자격": 3863,
      "자극": 3864,
      "잘해": 3865,
      "잘한": 3866,
      "잘난": 3867,
      "잘돼": 3868,
      "잘어울": 3869,
      "밖": 3870,
      "바다": 3871,
      "바보": 3872,
      "바빠": 3873,
      "밥은": 3874,
      "밖에": 3875,
      "바깥": 3876,
      "대상": 3877,
      "대신": 3878,
      "대세": 3879,
      "대중": 3880,
      "대충": 3881,
      "대통": 3882,
      "대왕": 3883,
      "성겨": 3884,
      "성노": 3885,
      "성질": 3886,
      "성추": 3887,
      "성욕": 3888,
      "성관계": 3889,
      "성깔": 3890,
      "##건지": 3891,
      "##건모": 3892,
      "##건알": 3893,
      "##숨": 3894,
      "##수를": 3895,
      "##수진": 3896,
      "##수밖에": 3897,
      "##수치심": 3898,
      "##의한수": 3899,
      "##붙": 3900,
      "##부모": 3901,
      "##부럽": 3902,
      "##부증": 3903,
      "##녀에": 3904,
      "##녀들이": 3905,
      "##하는건": 3906,
      "##하는척": 3907,
      "##제에": 3908,
      "##제결혼": 3909,
      "##칭": 3910,
      "##치면": 3911,
      "##미수": 3912,
      "##조개": 3913,
      "##조작": 3914,
      "##조용": 3915,
      "##좁은": 3916,
      "##정수": 3917,
      "##정나서": 3918,
      "##정훈": 3919,
      "##국에": 3920,
      "결정": 3921,
      "##래는": 3922,
      "##히려": 3923,
      "##힘든": 3924,
      "##무시": 3925,
      "##모습": 3926,
      "##모습은": 3927,
      "아니잖아": 3928,
      "너가": 3929,
      "너의": 3930,
      "넣어": 3931,
      "요거": 3932,
      "요리": 3933,
      "##년들이": 3934,
      "##년일": 3935,
      "##진국": 3936,
      "##진심": 3937,
      "왜그러": 3938,
      "진실": 3939,
      "좋지": 3940,
      "좋고": 3941,
      "좋다는": 3942,
      "좋던가": 3943,
      "있냐": 3944,
      "있겠": 3945,
      "있는건": 3946,
      "있으니": 3947,
      "있어도": 3948,
      "있을까": 3949,
      "못ᄊ": 3950,
      "못나": 3951,
      "못되": 3952,
      "못즐": 3953,
      "ㅋㅋㅋ원래": 3954,
      "##바로": 3955,
      "##바뀌": 3956,
      "결혼도": 3957,
      "결혼하지": 3958,
      "결혼못": 3959,
      "결혼까지": 3960,
      "결혼했으면": 3961,
      "결혼생활": 3962,
      "##여자네": 3963,
      "햇": 3964,
      "해소": 3965,
      "했을": 3966,
      "해당": 3967,
      "해본": 3968,
      "해체": 3969,
      "해주고": 3970,
      "핸드폰": 3971,
      "##겠는데": 3972,
      "##겠군": 3973,
      "##우우": 3974,
      "##되지": 3975,
      "##되는거고": 3976,
      "##유진": 3977,
      "##육아": 3978,
      "##유천": 3979,
      "##편력": 3980,
      "검": 3981,
      "거야": 3982,
      "거부": 3983,
      "거르": 3984,
      "거울": 3985,
      "거론": 3986,
      "##겨신": 3987,
      "##ᆼ이냐": 3988,
      "밉": 3989,
      "믿": 3990,
      "미안": 3991,
      "##있네": 3992,
      "##있는거": 3993,
      "##있었": 3994,
      "##있어도": 3995,
      "##있을듯": 3996,
      "인신": 3997,
      "인증": 3998,
      "생리": 3999,
      "생김": 4000,
      "##적도": 4001,
      "##센": 4002,
      "##섹": 4003,
      "##셈": 4004,
      "##세대": 4005,
      "##세상": 4006,
      "##세계": 4007,
      "김수": 4008,
      "김종국": 4009,
      "김갑": 4010,
      "김생민": 4011,
      "김주혀": 4012,
      "김건모": 4013,
      "김정훈": 4014,
      "없이": 4015,
      "없지": 4016,
      "없네": 4017,
      "없음": 4018,
      "없애": 4019,
      "없으니": 4020,
      "없다는": 4021,
      "살빠": 4022,
      "살림": 4023,
      "살찐": 4024,
      "정복": 4025,
      "##오고": 4026,
      "##오오": 4027,
      "애들도": 4028,
      "애네가": 4029,
      "##심한": 4030,
      "그러고": 4031,
      "그러다": 4032,
      "그러게": 4033,
      "그러면": 4034,
      "그러는거": 4035,
      "그러니까": 4036,
      "그러지마": 4037,
      "그러려니": 4038,
      "노력": 4039,
      "노잼": 4040,
      "노려보세요": 4041,
      "무거": 4042,
      "만남": 4043,
      "만날": 4044,
      "만석": 4045,
      "부터": 4046,
      "북한": 4047,
      "부러운": 4048,
      "부르면": 4049,
      "##할까": 4050,
      "주고": 4051,
      "주기": 4052,
      "주장": 4053,
      "주지ᄒ": 4054,
      "주접": 4055,
      "##애들이": 4056,
      "##애를": 4057,
      "##애애액": 4058,
      "##왈": 4059,
      "##왔": 4060,
      "##와이스": 4061,
      "##으로만": 4062,
      "##소가": 4063,
      "##소문": 4064,
      "##소리는": 4065,
      "##예진": 4066,
      "##예련": 4067,
      "##안에": 4068,
      "##안한": 4069,
      "##안한다": 4070,
      "##안함": 4071,
      "##안감": 4072,
      "##안나오": 4073,
      "한남은": 4074,
      "한남한": 4075,
      "같아서": 4076,
      "같잖": 4077,
      "전국민": 4078,
      "전라디": 4079,
      "전세계": 4080,
      "뭐건": 4081,
      "오빠": 4082,
      "오달": 4083,
      "오징": 4084,
      "오히려": 4085,
      "##매나": 4086,
      "##말을": 4087,
      "##집고": 4088,
      "##집에서": 4089,
      "##집니다": 4090,
      "내면": 4091,
      "내일": 4092,
      "내용": 4093,
      "내주변": 4094,
      "##현정": 4095,
      "아주머니": 4096,
      "아줌씨": 4097,
      "얼마안": 4098,
      "##간다": 4099,
      "##간남자": 4100,
      "##없지": 4101,
      "##없고": 4102,
      "많다": 4103,
      "많을": 4104,
      "많아서": 4105,
      "많을텐데": 4106,
      "니들이": 4107,
      "##화가": 4108,
      "##황이": 4109,
      "##글징": 4110,
      "##먹지": 4111,
      "##먹는": 4112,
      "##먹기": 4113,
      "##먹었": 4114,
      "##하면되지": 4115,
      "일이": 4116,
      "일은": 4117,
      "일을": 4118,
      "일상": 4119,
      "일진": 4120,
      "##에서는": 4121,
      "##에서도": 4122,
      "##연도": 4123,
      "##연애": 4124,
      "##하지는": 4125,
      "##하지도": 4126,
      "##하지좀": 4127,
      "##때는": 4128,
      "##때문": 4129,
      "##때처럼": 4130,
      "##빗": 4131,
      "##빛": 4132,
      "##비슷": 4133,
      "##한테나": 4134,
      "수지": 4135,
      "수고": 4136,
      "수치심": 4137,
      "수컷": 4138,
      "빅": 4139,
      "비즈": 4140,
      "비슷": 4141,
      "예의": 4142,
      "예비": 4143,
      "예전에": 4144,
      "예진이": 4145,
      "##봤자": 4146,
      "##일뿐": 4147,
      "##것은": 4148,
      "##것을": 4149,
      "##것들이": 4150,
      "##것처럼": 4151,
      "##것같다": 4152,
      "되지": 4153,
      "되고": 4154,
      "되게": 4155,
      "되면": 4156,
      "된다": 4157,
      "돈있는": 4158,
      "돈빼": 4159,
      "피곤": 4160,
      "##분은": 4161,
      "##분해서": 4162,
      "##했을": 4163,
      "##했지만": 4164,
      "##했겠지": 4165,
      "##했으니": 4166,
      "##했을까": 4167,
      "여자들도": 4168,
      "여자들아": 4169,
      "여자들한테": 4170,
      "여자들에게": 4171,
      "개인": 4172,
      "개그": 4173,
      "개노": 4174,
      "개집": 4175,
      "개뿔": 4176,
      "##...": 4177,
      "##장한": 4178,
      "##장난": 4179,
      "고자": 4180,
      "고발": 4181,
      "고딩": 4182,
      "고현정": 4183,
      "임창": 4184,
      "남편은": 4185,
      "남편한테": 4186,
      "남편과": 4187,
      "말하는": 4188,
      "말던": 4189,
      "유나": 4190,
      "유재": 4191,
      "육아": 4192,
      "유흥": 4193,
      "유혹": 4194,
      "육지다": 4195,
      "굿": 4196,
      "구라": 4197,
      "##원에서": 4198,
      "##원인데": 4199,
      "##전이": 4200,
      "##전자": 4201,
      "##전제": 4202,
      "##살기": 4203,
      "##배가": 4204,
      "나이도": 4205,
      "나이에": 4206,
      "나이대": 4207,
      "나이많": 4208,
      "나이어린": 4209,
      "##린거": 4210,
      "사람을": 4211,
      "사람인데": 4212,
      "욕도": 4213,
      "욕을": 4214,
      "욕하고": 4215,
      "욕하네": 4216,
      "욕하는거": 4217,
      "욕하면서": 4218,
      "욕먹고": 4219,
      "욕먹을": 4220,
      "늦": 4221,
      "느개": 4222,
      "느껴": 4223,
      "세다": 4224,
      "너무아까": 4225,
      "듣보": 4226,
      "듣기": 4227,
      "불러": 4228,
      "불화": 4229,
      "##저런": 4230,
      "##탓": 4231,
      "##탉": 4232,
      "##타고": 4233,
      "댓글들": 4234,
      "댓글에서": 4235,
      "댓글비율": 4236,
      "##질도": 4237,
      "##좀봐": 4238,
      "관상이": 4239,
      "할게": 4240,
      "할수": 4241,
      "할매": 4242,
      "할짓": 4243,
      "할줌마": 4244,
      "##워마드": 4245,
      "##운줄": 4246,
      "생각이": 4247,
      "생각은": 4248,
      "생각해서": 4249,
      "생각하면서": 4250,
      "생각나네": 4251,
      "아줌마는": 4252,
      "아줌마들이": 4253,
      "##었나": 4254,
      "##었냐": 4255,
      "상태": 4256,
      "야구선": 4257,
      "##하다가": 4258,
      "##하다고": 4259,
      "좋아서": 4260,
      "좋아함": 4261,
      "좋아하네": 4262,
      "좋았는데": 4263,
      "누굴": 4264,
      "문재": 4265,
      "제정": 4266,
      "제대로": 4267,
      "현재": 4268,
      "##트에": 4269,
      "##식으로": 4270,
      "##난리": 4271,
      "##동도": 4272,
      "한국남성": 4273,
      "얼굴도": 4274,
      "얼굴은": 4275,
      "얼굴로": 4276,
      "얼굴을": 4277,
      "얼굴작": 4278,
      "알지": 4279,
      "##ᆨ이지": 4280,
      "##ᆷ이나": 4281,
      "##ᆷ이라고": 4282,
      "여성이": 4283,
      "##걸들": 4284,
      "##걸로": 4285,
      "##걸수도": 4286,
      "임신만": 4287,
      "임신을": 4288,
      "임신하면": 4289,
      "꼬리": 4290,
      "꼬셔": 4291,
      "##곘네": 4292,
      "##선생": 4293,
      "##친다": 4294,
      "싫고": 4295,
      "싫은": 4296,
      "박성": 4297,
      "박혜": 4298,
      "박은혜": 4299,
      "박정수": 4300,
      "솔찍": 4301,
      "재혼": 4302,
      "재벌": 4303,
      "재앙": 4304,
      "##다고하면": 4305,
      "않는": 4306,
      "않음": 4307,
      "않더라": 4308,
      "않으니": 4309,
      "않겠습니다": 4310,
      "만나세요": 4311,
      "만나야함": 4312,
      "##는건지": 4313,
      "이런기사": 4314,
      "김칫": 4315,
      "김치쉬": 4316,
      "김치남들": 4317,
      "당시": 4318,
      "당신": 4319,
      "당신은": 4320,
      "방해": 4321,
      "방버": 4322,
      "와서": 4323,
      "와꾸": 4324,
      "##울텐데": 4325,
      "이혼녀": 4326,
      "봤는데": 4327,
      "저런거": 4328,
      "저런말": 4329,
      "연예인들": 4330,
      "연예인도": 4331,
      "연예인들이": 4332,
      "연예인들은": 4333,
      "페미들은": 4334,
      "페미들아": 4335,
      "페미년들": 4336,
      "##개지": 4337,
      "##피해자": 4338,
      "##ᆻ을때": 4339,
      "##ᆻ을텐데": 4340,
      "##이라면": 4341,
      "##작은": 4342,
      "맞지": 4343,
      "맞아": 4344,
      "맞네": 4345,
      "맞지만": 4346,
      "맞추": 4347,
      "먹지": 4348,
      "먹은": 4349,
      "먹기": 4350,
      "먹었는데": 4351,
      "본능": 4352,
      "본인이": 4353,
      "최대": 4354,
      "최근": 4355,
      "최지우": 4356,
      "##혐이": 4357,
      "##줄이": 4358,
      "##줄듯": 4359,
      "##버려": 4360,
      "그런게": 4361,
      "##받는": 4362,
      "##받는데": 4363,
      "문제네": 4364,
      "문제임": 4365,
      "돋": 4366,
      "도대": 4367,
      "도우": 4368,
      "도배": 4369,
      "도태": 4370,
      "도망": 4371,
      "신랑": 4372,
      "신부": 4373,
      "신경": 4374,
      "신의한수": 4375,
      "에혀": 4376,
      "엑소": 4377,
      "에로영": 4378,
      "찢": 4379,
      "찌라시": 4380,
      "##당하는": 4381,
      "##당한거": 4382,
      "악플이": 4383,
      "악플다": 4384,
      "악플러": 4385,
      "30대여성": 4386,
      "언능": 4387,
      "언론": 4388,
      "##체를": 4389,
      "입었": 4390,
      "입술": 4391,
      "입소문": 4392,
      "##많네": 4393,
      "강남": 4394,
      "강남이": 4395,
      "배려": 4396,
      "장가": 4397,
      "쳐맞": 4398,
      "##프가": 4399,
      "##킹": 4400,
      "##킬로": 4401,
      "##짓만": 4402,
      "집안": 4403,
      "집착": 4404,
      "##좋다": 4405,
      "넘쳐": 4406,
      "넘어가": 4407,
      "드라마나": 4408,
      "건지": 4409,
      "걸러": 4410,
      "버린": 4411,
      "설마": 4412,
      "설치": 4413,
      "##위에": 4414,
      "##줬음": 4415,
      "##감에": 4416,
      "열어": 4417,
      "아무도": 4418,
      "아무나": 4419,
      "아무것도": 4420,
      "아무튼": 4421,
      "잘생기": 4422,
      "들고": 4423,
      "들이대": 4424,
      "##태기": 4425,
      "##크업": 4426,
      "##싶은": 4427,
      "##싶은데": 4428,
      "남자들도": 4429,
      "남자들한테": 4430,
      "몰고가": 4431,
      "기사는": 4432,
      "기사에": 4433,
      "잘못은": 4434,
      "잘못한거": 4435,
      "잘못이라고": 4436,
      "##박육아": 4437,
      "인생선": 4438,
      "인생쫑": 4439,
      "늙탱이": 4440,
      "공통": 4441,
      "눈크고": 4442,
      "눈작은": 4443,
      "##늙": 4444,
      "##느낌": 4445,
      "##이네요": 4446,
      "##하나도": 4447,
      "나오고": 4448,
      "나오는데": 4449,
      "싶은": 4450,
      "싶어": 4451,
      "싶어서": 4452,
      "보고싶다": 4453,
      "자기인생": 4454,
      "꼭지만": 4455,
      "때가": 4456,
      "때도": 4457,
      "메퇘지": 4458,
      "스스로": 4459,
      "서른": 4460,
      "섭외": 4461,
      "얘네는": 4462,
      "##누가": 4463,
      "아이들": 4464,
      "##아니었음": 4465,
      "지금도": 4466,
      "지금와서": 4467,
      "못생김": 4468,
      "웃기": 4469,
      "웃겨": 4470,
      "웃김": 4471,
      "웃기는": 4472,
      "이쁘다": 4473,
      "소리": 4474,
      "송지ᄒ": 4475,
      "외간남자": 4476,
      "의상": 4477,
      "의심": 4478,
      "의미가": 4479,
      "의부증": 4480,
      "추자현": 4481,
      "##가지한다": 4482,
      "##달라": 4483,
      "그랬을까": 4484,
      "어디가서": 4485,
      "##주고싶고": 4486,
      "##주고싶은": 4487,
      "것도": 4488,
      "것임": 4489,
      "계집들이": 4490,
      "계집년들": 4491,
      "계집새끼": 4492,
      "손이": 4493,
      "손가락": 4494,
      "술먹": 4495,
      "술이나": 4496,
      "올리": 4497,
      "올리면": 4498,
      "원인": 4499,
      "##넘들": 4500,
      "##경씨": 4501,
      "##별의": 4502,
      "##입니까": 4503,
      "##돌이": 4504,
      "##돌아가": 4505,
      "그만들": 4506,
      "그만좀": 4507,
      "젊고": 4508,
      "죽어": 4509,
      "죽었다": 4510,
      "싹": 4511,
      "##산다": 4512,
      "##가서는": 4513,
      "##리는듯": 4514,
      "하는지": 4515,
      "하는구나": 4516,
      "사랑했던": 4517,
      "##는것들이": 4518,
      "##사람한테": 4519,
      "##놈인데": 4520,
      "##민국에서": 4521,
      "싫어합니다": 4522,
      "군대가": 4523,
      "능력도": 4524,
      "능력있는": 4525,
      "능력없는": 4526,
      "까고": 4527,
      "쉬울텐데": 4528,
      "존중": 4529,
      "트와이스": 4530,
      "평범": 4531,
      "호구": 4532,
      "호스트": 4533,
      "호텔": 4534,
      "호빗": 4535,
      "##돼니": 4536,
      "##됐어": 4537,
      "##셔서": 4538,
      "##셨는지": 4539,
      "##꺼리": 4540,
      "##김치": 4541,
      "모르겠다": 4542,
      "안되고": 4543,
      "실수": 4544,
      "정신이": 4545,
      "양육": 4546,
      "몸매자랑": 4547,
      "30이면": 4548,
      "돼지들이": 4549,
      "돼지들은": 4550,
      "돼지년": 4551,
      "발연기": 4552,
      "발정나서": 4553,
      "죄지": 4554,
      "죄가": 4555,
      "천국": 4556,
      "천박": 4557,
      "천이슬": 4558,
      "##호사": 4559,
      "##망신": 4560,
      "##두지": 4561,
      "##방송": 4562,
      "##방가서": 4563,
      "##하니깐": 4564,
      "어린게": 4565,
      "가스내": 4566,
      "작가": 4567,
      "작은": 4568,
      "이쁜게": 4569,
      "이쁜척": 4570,
      "세상인데": 4571,
      "관심이": 4572,
      "관심도": 4573,
      "관심받": 4574,
      "관심없다": 4575,
      "질투하는": 4576,
      "!!!!": 4577,
      "곽선": 4578,
      "끊": 4579,
      "달라": 4580,
      "달달": 4581,
      "물이": 4582,
      "물어뜨": 4583,
      "후배": 4584,
      "후덜": 4585,
      "ㅈㄴ웃": 4586,
      "##회전": 4587,
      "##회부터": 4588,
      "##목잡": 4589,
      "##패스": 4590,
      "##다니냐": 4591,
      "아내가": 4592,
      "아내의": 4593,
      "##릴듯": 4594,
      "하나로": 4595,
      "부럽네": 4596,
      "난리나": 4597,
      "난리냐": 4598,
      "ㅋㅋㅋㅋㅋㅋㅋㅋㅋㅋㅋㅋㅋ": 4599,
      "ㅋㅋㅋㅋㅋㅋㅋㅋㅋㅋㅋㅋ": 4600,
      "멋집니다": 4601,
      "메갈들": 4602,
      "게스트": 4603,
      "뒤에서": 4604,
      "별거": 4605,
      "속바지": 4606,
      "속도위": 4607,
      "속좁은": 4608,
      "음탕": 4609,
      "행동": 4610,
      "##군요": 4611,
      "##ᆨ한것도": 4612,
      "##창여": 4613,
      "##ooo": 4614,
      "##잘가": 4615,
      "##잘하고": 4616,
      "##잘못": 4617,
      "있다는걸": 4618,
      "##나이에": 4619,
      "##어나도": 4620,
      "##거리지": 4621,
      "조심해야": 4622,
      "조심해야지": 4623,
      "좋은데": 4624,
      "전현무가": 4625,
      "전현무랑": 4626,
      "내가봐도": 4627,
      "니네는": 4628,
      "니네가": 4629,
      "빠순이들아": 4630,
      "언제고": 4631,
      "##좋아야": 4632,
      "젊은넘": 4633,
      "젊은여자들": 4634,
      "꼴보기": 4635,
      "단단": 4636,
      "벌받아": 4637,
      "코는": 4638,
      "코스프": 4639,
      "##넣": 4640,
      "역대": 4641,
      "역할": 4642,
      "##나오면": 4643,
      "아깝": 4644,
      "아까워": 4645,
      "엄마가": 4646,
      "엄마를": 4647,
      "사진은": 4648,
      "저럴": 4649,
      "저러고": 4650,
      "대단한": 4651,
      "성폭행이": 4652,
      "했나": 4653,
      "했냐": 4654,
      "했잖아": 4655,
      "##된다": 4656,
      "오지랖": 4657,
      "힘들다": 4658,
      "힘들다고": 4659,
      "설리를": 4660,
      "못생긴게": 4661,
      "꽃뱀들": 4662,
      "꽃뱀한테": 4663,
      "끝난": 4664,
      "끝까지": 4665,
      "끝이다": 4666,
      "백퍼": 4667,
      "중기": 4668,
      "크지": 4669,
      "함께": 4670,
      "이해가": 4671,
      "이해한다": 4672,
      "이해못": 4673,
      "앞에서": 4674,
      "앞에선": 4675,
      "##악의": 4676,
      "억지다": 4677,
      "마음이": 4678,
      "절라": 4679,
      "절대로": 4680,
      "기자가": 4681,
      "기자님": 4682,
      "기자놈": 4683,
      "##는걸로": 4684,
      "시집못": 4685,
      "살아야": 4686,
      "살았으면": 4687,
      "머리채": 4688,
      "들어갔을": 4689,
      "피해자가": 4690,
      "날리": 4691,
      "떠나": 4692,
      "떠난": 4693,
      "빼애애액": 4694,
      "큰딸": 4695,
      "패션": 4696,
      "팬티": 4697,
      "헤어진": 4698,
      "홍윤": 4699,
      "##뇬들이": 4700,
      "##꾸겨신": 4701,
      "##따위": 4702,
      "##뿐임": 4703,
      "이래야": 4704,
      "##낳는": 4705,
      "##해주자": 4706,
      "##해주면": 4707,
      "##했다가": 4708,
      "어려서": 4709,
      "한녀들은": 4710,
      "직장": 4711,
      "직접": 4712,
      "징글징": 4713,
      "##부분이": 4714,
      "일본여자": 4715,
      "나이값": 4716,
      "한국여자는": 4717,
      "한국여자들이": 4718,
      "한국여자랑": 4719,
      "알아야지": 4720,
      "딱보니": 4721,
      "열폭하는거": 4722,
      "똑같": 4723,
      "로코": 4724,
      "산다": 4725,
      "선동": 4726,
      "선택": 4727,
      "승리": 4728,
      "잠깐": 4729,
      "잠잠": 4730,
      "판사님": 4731,
      "##련들은": 4732,
      "##뜯어": 4733,
      "##ㄷㄷㄷ": 4734,
      "##들한테는": 4735,
      "##하시구": 4736,
      "이기적": 4737,
      "이기적이": 4738,
      "여자로써": 4739,
      "##싫다": 4740,
      "##싫음": 4741,
      "##인생이나": 4742,
      "합법": 4743,
      "종족": 4744,
      "종특": 4745,
      "사과할": 4746,
      "사과문": 4747,
      "사실상": 4748,
      "사귄": 4749,
      "연기자": 4750,
      "연기가": 4751,
      "생겼다": 4752,
      "같아요": 4753,
      "화사가": 4754,
      "화사도": 4755,
      "불편하다": 4756,
      "불쌍해": 4757,
      "불쌍한": 4758,
      "상처는": 4759,
      "현실이다": 4760,
      "성폭행을": 4761,
      "25살": 4762,
      "25년전": 4763,
      "데리고": 4764,
      "데뷔": 4765,
      "등등": 4766,
      "등골": 4767,
      "똥차": 4768,
      "분유": 4769,
      "새로운": 4770,
      "순간": 4771,
      "씹": 4772,
      "출산": 4773,
      "타입": 4774,
      "##벽에": 4775,
      "##컵": 4776,
      "##딸이": 4777,
      "##쪽에서": 4778,
      "##나봄": 4779,
      "##나보지": 4780,
      "나와라": 4781,
      "맛은": 4782,
      "막상": 4783,
      "##스럽네": 4784,
      "보여줘라": 4785,
      "##웃겨": 4786,
      "김태리": 4787,
      "정도면": 4788,
      "잘생겼는데": 4789,
      "평생을": 4790,
      "업소도": 4791,
      "업소녀가": 4792,
      "깨끗": 4793,
      "놀아": 4794,
      "라고": 4795,
      "색기": 4796,
      "색녀": 4797,
      "줄을": 4798,
      "초반": 4799,
      "청순": 4800,
      "충실": 4801,
      "톱": 4802,
      "토니안": 4803,
      "표현": 4804,
      "혐오": 4805,
      "혜진": 4806,
      "형님": 4807,
      "##싹": 4808,
      "##싸면서": 4809,
      "여배우는": 4810,
      "아쉽다": 4811,
      "남녀간": 4812,
      "남녀사이": 4813,
      "급한": 4814,
      "##해보임": 4815,
      "##해보이고": 4816,
      "##양은": 4817,
      "가능성": 4818,
      "마약한것도": 4819,
      "##들이랑은": 4820,
      "결혼하기": 4821,
      "##움을": 4822,
      "이뻐서": 4823,
      "이뻤는데": 4824,
      "국민": 4825,
      "국제결혼": 4826,
      "누군데": 4827,
      "현아는": 4828,
      "박나래가": 4829,
      "박나래랑": 4830,
      "쓰레기만드": 4831,
      "괜찮아": 4832,
      "면상도": 4833,
      "면상을": 4834,
      "권리도": 4835,
      "권태기": 4836,
      "끼고": 4837,
      "년이": 4838,
      "쓸모": 4839,
      "위험": 4840,
      "암탉": 4841,
      "엉덩": 4842,
      "챙녀들": 4843,
      "철저": 4844,
      "카톡": 4845,
      "포기": 4846,
      "풀메이": 4847,
      "폭로": 4848,
      "##팬들": 4849,
      "이성으로": 4850,
      "##라는둥": 4851,
      "여우짓": 4852,
      "##돈으로": 4853,
      "아랫도": 4854,
      "##역겨": 4855,
      "남자로서": 4856,
      "하지마셈": 4857,
      "##볼려고": 4858,
      "##야하는지": 4859,
      "가만히": 4860,
      "기안84": 4861,
      "안재현이": 4862,
      "생긴거": 4863,
      "살인미수": 4864,
      "정상적인": 4865,
      "노브라를": 4866,
      "무섭다": 4867,
      "무섭고": 4868,
      "부부관계": 4869,
      "더럽다": 4870,
      "더럽게": 4871,
      "섹시하지": 4872,
      "제목보고": 4873,
      "손절은": 4874,
      "잡았다고": 4875,
      "역겨워": 4876,
      "역겹다": 4877,
      "억울한": 4878,
      "산이는": 4879,
      "책임져라": 4880,
      "궁금": 4881,
      "꿀빨": 4882,
      "변호사": 4883,
      "범죄": 4884,
      "증거다": 4885,
      "폐미": 4886,
      "히트": 4887,
      "효린": 4888,
      "흉": 4889,
      "홀랑": 4890,
      "##덕은": 4891,
      "##끄럽": 4892,
      "##이해안감": 4893,
      "##합니까": 4894,
      "이야기": 4895,
      "여시같은": 4896,
      "여편네들": 4897,
      "여자연예인들은": 4898,
      "남친이": 4899,
      "남자집에": 4900,
      "한채아": 4901,
      "졸라": 4902,
      "모델이나": 4903,
      "##댓글이": 4904,
      "사건도": 4905,
      "다르게": 4906,
      "다르네": 4907,
      "성범죄": 4908,
      "연옌": 4909,
      "정준영": 4910,
      "##놓구": 4911,
      "숨길": 4912,
      "비난하는": 4913,
      "유명인": 4914,
      "세계최": 4915,
      "입장에선": 4916,
      "힘든데": 4917,
      "받아야": 4918,
      "##아줌마가": 4919,
      "연하남은": 4920,
      "김태희는": 4921,
      "80프로": 4922,
      "겪": 4923,
      "겨우": 4924,
      "꺼내": 4925,
      "녀자": 4926,
      "삐뚤": 4927,
      "슴가": 4928,
      "써라": 4929,
      "혈기왕": 4930,
      "##허니": 4931,
      "##덩어리": 4932,
      "##이유는": 4933,
      "이시언": 4934,
      "이종석": 4935,
      "남이사": 4936,
      "##였다면": 4937,
      "하겠는데": 4938,
      "하늘같은": 4939,
      "조신하게": 4940,
      "조금만": 4941,
      "나온다": 4942,
      "나쁘냐": 4943,
      "마찬가지": 4944,
      "마찬가지고": 4945,
      "사고치고": 4946,
      "안해본": 4947,
      "시댁": 4948,
      "보내는": 4949,
      "잘살게": 4950,
      "성비봐라": 4951,
      "했다면": 4952,
      "미개한": 4953,
      "미개인들": 4954,
      "생기면": 4955,
      "##냄새": 4956,
      "일부다처": 4957,
      "유부남": 4958,
      "유부녀": 4959,
      "할일없는": 4960,
      "최소한": 4961,
      "##낄낄": 4962,
      "건모형": 4963,
      "첫회부터": 4964,
      "서현진": 4965,
      "아이즈원": 4966,
      "아이즈원은": 4967,
      "소지섭": 4968,
      "소지섭이": 4969,
      "빨아주는거": 4970,
      "##놈들입니다": 4971,
      "정신차리": 4972,
      "언젠간": 4973,
      "언젠가는": 4974,
      "중요해": 4975,
      "혼전임": 4976,
      "똑똑한": 4977,
      "똑똑하고": 4978,
      "섹스할때": 4979,
      "##향이보다": 4980,
      ">>>>>": 4981,
      "뼛속": 4982,
      "빵터": 4983,
      "준비": 4984,
      "캐스팅": 4985,
      "##균": 4986,
      "##밤에": 4987,
      "##^^;": 4988,
      "##고사냐": 4989,
      "이와중에": 4990,
      "이소라": 4991,
      "이민정": 4992,
      "남잔데": 4993,
      "그성별의": 4994,
      "어지간히": 4995,
      "한쪽은": 4996,
      "가지가지한다": 4997,
      "마지막": 4998,
      "기다려": 4999,
      "기러기짓": 5000,
      "잘버는": 5001,
      "잘나가던": 5002,
      "바랍니다": 5003,
      "겉은": 5004,
      "인터넷": 5005,
      "살다보면": 5006,
      "정확한": 5007,
      "정겨운은": 5008,
      "놈도": 5009,
      "부담스러워": 5010,
      "부러워서": 5011,
      "비호감": 5012,
      "피임을": 5013,
      "고마해라": 5014,
      "임산부": 5015,
      "유치한": 5016,
      "##명이서": 5017,
      "박해미도": 5018,
      "박보검": 5019,
      "빻아": 5020,
      "페미니스트": 5021,
      "장동건": 5022,
      "감정은": 5023,
      "공효진": 5024,
      "경제적": 5025,
      "정신병자": 5026,
      "발언을": 5027,
      "키작고": 5028,
      "됐을지": 5029,
      "커리어가": 5030,
      "젖꼭지": 5031,
      "워너비": 5032,
      "##불쌍하다": 5033,
      "##취급하고": 5034,
      "카메라": 5035,
      "탈코르셋": 5036,
      "뚱뚱한": 5037,
      "러브라인이": 5038,
      "창피하다": 5039,
      "투표권": 5040,
      "클라스": 5041,
      "괴롭혀": 5042,
      "oecd": 5043,
      "sns에": 5044,
      "very": 5045,
      "교도소": 5046,
      "깽상": 5047,
      "디게": 5048,
      "독박육아": 5049,
      "런닝": 5050,
      "춘향이보다": 5051,
      "컴플": 5052,
      "툭하면": 5053,
      "풋풋": 5054,
      "훈남": 5055,
      "ㅂㄷㅂㄷ": 5056,
      "##ᅱ어나온": 5057,
      "##too운동": 5058,
      "##이미지": 5059,
      "##지키는": 5060,
      "이찬오": 5061,
      "이열음": 5062,
      "여적여": 5063,
      "아버지가": 5064,
      "아파서": 5065,
      "여자편은": 5066,
      "여자답게": 5067,
      "남적남": 5068,
      "그치만": 5069,
      "그당시": 5070,
      "##해집시다": 5071,
      "어때서": 5072,
      "하필": 5073,
      "모텔가": 5074,
      "마스크": 5075,
      "마녀사": 5076,
      "안느껴": 5077,
      "답답": 5078,
      "시선강": 5079,
      "시궁창": 5080,
      "자빠져": 5081,
      "바빠서": 5082,
      "대왕조개": 5083,
      "성격이": 5084,
      "성질드러운": 5085,
      "성추행": 5086,
      "##조용히": 5087,
      "왜그러고사냐": 5088,
      "못즐기": 5089,
      "해본적도": 5090,
      "김갑수": 5091,
      "김주혁님": 5092,
      "그러지마셔요": 5093,
      "주지훈": 5094,
      "##예련이": 5095,
      "전라디언": 5096,
      "오징어": 5097,
      "비즈니스": 5098,
      "고딩때": 5099,
      "유재석이": 5100,
      "유흥업": 5101,
      "육지담이": 5102,
      "느개비": 5103,
      "야구선수": 5104,
      "박은혜가": 5105,
      "김치쉰": 5106,
      "방법이": 5107,
      "에로영화": 5108,
      "송지효": 5109,
      "평범한": 5110,
      "양육비": 5111,
      "곽선영": 5112,
      "후덜덜": 5113,
      "속도위반": 5114,
      "코스프레": 5115,
      "홍윤화": 5116,
      "징글징글": 5117,
      "25년전이면": 5118,
      "남녀사이에": 5119,
      "쓰레기만듬": 5120,
      "위험한": 5121,
      "엉덩이": 5122,
      "풀메이크업": 5123,
      "혈기왕성": 5124,
      "일부다처제": 5125,
      "''": 5126,
      "(=": 5127,
      ",?": 5128,
      "--": 5129,
      "0하나": 5130,
      "12": 5131,
      "14": 5132,
      "10대": 5133,
      "1패": 5134,
      "1등": 5135,
      "140": 5136,
      "1조가": 5137,
      "23": 5138,
      "21": 5139,
      "37": 5140,
      "32": 5141,
      "35": 5142,
      "34": 5143,
      "3살": 5144,
      "3번": 5145,
      "37살": 5146,
      "3명이서": 5147,
      "43": 5148,
      "45": 5149,
      "4년": 5150,
      "4년전": 5151,
      "4번째": 5152,
      "59": 5153,
      "52": 5154,
      "50대": 5155,
      "5명": 5156,
      "5억": 5157,
      "60": 5158,
      "68": 5159,
      "61": 5160,
      "69": 5161,
      "72": 5162,
      "75": 5163,
      "7때": 5164,
      "81": 5165,
      "90": 5166,
      "95": 5167,
      "9남": 5168,
      "9살": 5169,
      "9월": 5170,
      "9번째": 5171,
      "92년": 5172,
      ":/": 5173,
      ":(": 5174,
      "<-": 5175,
      ">=": 5176,
      "?:": 5177,
      "?...": 5178,
      "^„": 5179,
      "ab": 5180,
      "ao": 5181,
      "av": 5182,
      "an": 5183,
      "bt": 5184,
      "bo": 5185,
      "bj": 5186,
      "cc": 5187,
      "co": 5188,
      "ca": 5189,
      "ch": 5190,
      "cf": 5191,
      "dd": 5192,
      "d커": 5193,
      "e뇬": 5194,
      "eww": 5195,
      "gi": 5196,
      "g20": 5197,
      "ht": 5198,
      "it": 5199,
      "il": 5200,
      "jt": 5201,
      "ji": 5202,
      "lg": 5203,
      "me": 5204,
      "no": 5205,
      "rg": 5206,
      "st": 5207,
      "sbs": 5208,
      "tv": 5209,
      "tex": 5210,
      "up": 5211,
      "vs": 5212,
      "vi": 5213,
      "xx": 5214,
      "yg": 5215,
      "yo": 5216,
      "~.": 5217,
      "~*": 5218,
      "~^^": 5219,
      "°)": 5220,
      "͜ʖ": 5221,
      "규": 5222,
      "갸": 5223,
      "견": 5224,
      "긴": 5225,
      "굴": 5226,
      "곡": 5227,
      "객": 5228,
      "꽤": 5229,
      "껀": 5230,
      "끙": 5231,
      "깬": 5232,
      "꿈": 5233,
      "꽝이": 5234,
      "뇨": 5235,
      "뉴": 5236,
      "농": 5237,
      "널어": 5238,
      "냔": 5239,
      "든": 5240,
      "딘": 5241,
      "댕": 5242,
      "듬": 5243,
      "덤": 5244,
      "떼": 5245,
      "뚠": 5246,
      "똘": 5247,
      "땐": 5248,
      "뜻": 5249,
      "르": 5250,
      "린": 5251,
      "랑": 5252,
      "랭": 5253,
      "럭": 5254,
      "럴": 5255,
      "레이": 5256,
      "므": 5257,
      "멸": 5258,
      "멈": 5259,
      "브": 5260,
      "뷔": 5261,
      "빈": 5262,
      "벙": 5263,
      "붕": 5264,
      "베이": 5265,
      "븅": 5266,
      "뽀": 5267,
      "뻥": 5268,
      "빽": 5269,
      "뺑이": 5270,
      "쇠": 5271,
      "싀": 5272,
      "셰": 5273,
      "쑤": 5274,
      "씌": 5275,
      "쌔": 5276,
      "쓴": 5277,
      "싼": 5278,
      "썩": 5279,
      "썸": 5280,
      "쑥": 5281,
      "은": 5282,
      "을": 5283,
      "옥": 5284,
      "웅": 5285,
      "즈": 5286,
      "쟈": 5287,
      "잔": 5288,
      "짬": 5289,
      "쩔어": 5290,
      "쩔고": 5291,
      "촌": 5292,
      "총": 5293,
      "케": 5294,
      "캬": 5295,
      "콘": 5296,
      "콩": 5297,
      "콜": 5298,
      "킁": 5299,
      "킴": 5300,
      "쾅이": 5301,
      "터": 5302,
      "퉤": 5303,
      "텅": 5304,
      "틈": 5305,
      "팀": 5306,
      "테이": 5307,
      "털고": 5308,
      "튀어나온": 5309,
      "퍼": 5310,
      "푸": 5311,
      "펴": 5312,
      "팜": 5313,
      "푼": 5314,
      "흔": 5315,
      "흘": 5316,
      "훌": 5317,
      "헉": 5318,
      "흠": 5319,
      "훤": 5320,
      "험": 5321,
      "♡♡♡": 5322,
      "ㄲㅈ": 5323,
      "ㄲㅣ": 5324,
      "ㄴㄴ": 5325,
      "ㄴ이": 5326,
      "ㄴ들": 5327,
      "ㄴ이나": 5328,
      "ㄹㅇ": 5329,
      "ㅅs": 5330,
      "ㅅㅂ": 5331,
      "ㅅㅐ": 5332,
      "ㅅ궁": 5333,
      "ㅆㄹㄱ": 5334,
      "ㅇㄴ": 5335,
      "ㅇㅅ": 5336,
      "ㅇㄱ": 5337,
      "ㅇㅣ": 5338,
      "ㅈㅅ": 5339,
      "ㅈㄱ": 5340,
      "ㅈ집": 5341,
      "ㅈ같은": 5342,
      "ㅈ된": 5343,
      "ㅊ먹는": 5344,
      "ㅋㄴ": 5345,
      "ㅋ다": 5346,
      "ㅋ아주": 5347,
      "ㅎ차": 5348,
      "##ᅩᆷ": 5349,
      "##ᅩ고": 5350,
      "##ᆺ자": 5351,
      "##ᆺ는": 5352,
      "##ᆺ에": 5353,
      "##ᆺ한": 5354,
      "##ᆺ구": 5355,
      "##ᆺ대": 5356,
      "##ᆺ수": 5357,
      "##ᆺ바": 5358,
      "##ᆺ겠": 5359,
      "##ᆺ노": 5360,
      "##ᆺ말": 5361,
      "##ᆺ듯": 5362,
      "##ᆺ살": 5363,
      "##ᆺ재": 5364,
      "##ᆺ같은": 5365,
      "##ᆺ이나": 5366,
      "##ᆺ위": 5367,
      "##ᆺ감": 5368,
      "##ᆺ티": 5369,
      "##ᆺ놈": 5370,
      "##ᆺ어도": 5371,
      "##ᆺ하냐": 5372,
      "##ᆺ네요": 5373,
      "##ᆺ소리": 5374,
      "##ᆺ는지": 5375,
      "##ᆺ잡": 5376,
      "##ᆺ퇘지": 5377,
      "##ᆺ때문에": 5378,
      "##ᆺ인지": 5379,
      "##ᆺ을텐데": 5380,
      "##ᆺ거임": 5381,
      "##ᆺ컷": 5382,
      "##ᆺ모습": 5383,
      "##흐": 5384,
      "##흔": 5385,
      "##혈": 5386,
      "##홀": 5387,
      "##흣": 5388,
      "##훅": 5389,
      "##ᆯ지": 5390,
      "##ᆯ라": 5391,
      "##ᆯ은": 5392,
      "##ᆯ어": 5393,
      "##ᆯ아": 5394,
      "##ᆯ게": 5395,
      "##ᆯ만": 5396,
      "##ᆯ래": 5397,
      "##ᆯ모": 5398,
      "##ᆯ린": 5399,
      "##ᆯ동": 5400,
      "##ᆯ희": 5401,
      "##ᆯ갈": 5402,
      "##ᆯ프": 5403,
      "##ᆯ이네": 5404,
      "##ᆯ반": 5405,
      "##ᆯ거리": 5406,
      "##ᆯ되는": 5407,
      "##ᆯ메이": 5408,
      "##ᆯ끔": 5409,
      "##ᆯ수록": 5410,
      "##ᆯ해보임": 5411,
      "##ᆽ들": 5412,
      "##ᆽ음": 5413,
      "##ᆽ어서": 5414,
      "##ᆽ겠지만": 5415,
      "##ᆽ으려고": 5416,
      "##뉘": 5417,
      "##녜": 5418,
      "##냉": 5419,
      "##녹": 5420,
      "##뉴스": 5421,
      "##ᅳ파": 5422,
      "##ᆫ도": 5423,
      "##ᆫ게": 5424,
      "##ᆫ리": 5425,
      "##ᆫ진": 5426,
      "##ᆫ애": 5427,
      "##ᆫ내": 5428,
      "##ᆫ타": 5429,
      "##ᆫ트": 5430,
      "##ᆫ다고": 5431,
      "##ᆫ이랑": 5432,
      "##ᆫ이라고": 5433,
      "##ᆫ적으로": 5434,
      "##ᆫ건가": 5435,
      "##ᆫ츠": 5436,
      "##ᆫ옷": 5437,
      "##ᆫ틀": 5438,
      "##긔": 5439,
      "##갱": 5440,
      "##ᅥ긴": 5441,
      "##ᅮㅅ": 5442,
      "##ᅮ기만": 5443,
      "##ᆨ지": 5444,
      "##ᆨ도": 5445,
      "##ᆨ어": 5446,
      "##ᆨ인": 5447,
      "##ᆨ대": 5448,
      "##ᆨ치": 5449,
      "##ᆨ정": 5450,
      "##ᆨ연": 5451,
      "##ᆨ인데": 5452,
      "##ᆨ종": 5453,
      "##ᆨ버": 5454,
      "##ᆨ키": 5455,
      "##ᆨ짓": 5456,
      "##ᆨ달": 5457,
      "##ᆨ복": 5458,
      "##ᆨ하니": 5459,
      "##ᆨ된": 5460,
      "##ᆨ지가": 5461,
      "##ᆨ하네요": 5462,
      "##ᆨ힌": 5463,
      "##ᆨ드립니다": 5464,
      "##ᆨ했겠지": 5465,
      "##ᆨ싹": 5466,
      "##ᆨ훅": 5467,
      "##암": 5468,
      "##옹": 5469,
      "##완": 5470,
      "##묘": 5471,
      "##먜": 5472,
      "##맘": 5473,
      "##몬": 5474,
      "##몽": 5475,
      "##뭉": 5476,
      "##므파": 5477,
      "##ᅧ야": 5478,
      "##ᅧᆻ다": 5479,
      "##ᅧᆻ어도": 5480,
      "##ᅦ다가": 5481,
      "##ᅦᆯ트": 5482,
      "##룬": 5483,
      "##량": 5484,
      "##랭이": 5485,
      "##뎌": 5486,
      "##듀": 5487,
      "##둔": 5488,
      "##댕이": 5489,
      "##듀스": 5490,
      "##ᇀ어": 5491,
      "##ᇀ하나도": 5492,
      "##쟈": 5493,
      "##졍": 5494,
      "##졸": 5495,
      "##즁": 5496,
      "##ㅜㅜ": 5497,
      "##ㅜ않": 5498,
      "##ㅜ집에서": 5499,
      "##쇼": 5500,
      "##슈": 5501,
      "##샤": 5502,
      "##쉐": 5503,
      "##쇼나": 5504,
      "##ᅱ니까": 5505,
      "##ᆸᄐ": 5506,
      "##ᆸ기": 5507,
      "##ᆸ대": 5508,
      "##ᆸ치": 5509,
      "##ᆸ히": 5510,
      "##ᆸ겠": 5511,
      "##ᆸ음": 5512,
      "##ᆸ과": 5513,
      "##ᆸ번": 5514,
      "##ᆸ쳐": 5515,
      "##ᆸ이지": 5516,
      "##ᆸ없는": 5517,
      "##ᆸ따": 5518,
      "##ᆸ해주": 5519,
      "##ᆸ진짜": 5520,
      "##ᆸ힌": 5521,
      "##ᆸ션": 5522,
      "##ᆸ만명": 5523,
      "##ᆸ올려": 5524,
      "##ᆸ가능": 5525,
      "##ᆸ질도": 5526,
      "##ᆸ두지": 5527,
      "##ᆸ나보지": 5528,
      "##뷰": 5529,
      "##븐": 5530,
      "##블": 5531,
      "##뱅": 5532,
      "##벅": 5533,
      "##뱐": 5534,
      "##ᆷ자": 5535,
      "##ᆷ한": 5536,
      "##ᆷ상": 5537,
      "##ᆷ미": 5538,
      "##ᆷ짜": 5539,
      "##ᆷ소": 5540,
      "##ᆷ간": 5541,
      "##ᆷ하다": 5542,
      "##ᆷ프": 5543,
      "##ᆷ통": 5544,
      "##ᆷ퇘지": 5545,
      "##ᆷ없다": 5546,
      "##ᆷ보는": 5547,
      "##ᆷ넷": 5548,
      "##ᆷ니들": 5549,
      "##꿔": 5550,
      "##끌": 5551,
      "##깜": 5552,
      "##껀": 5553,
      "##낀": 5554,
      "##꾼": 5555,
      "##깽": 5556,
      "##껌": 5557,
      "##ᅴᆫ": 5558,
      "##ᆿㅋ": 5559,
      "##ᆿㅋㅋㅋㅋ": 5560,
      "##ᆿ처럼": 5561,
      "##ᆿㅋㅋㅋ": 5562,
      "##ᆿ은데": 5563,
      "##ㅋ그": 5564,
      "##ᅢ여": 5565,
      "##펄": 5566,
      "##픔": 5567,
      "##페이": 5568,
      "##폈어도": 5569,
      "##펠트": 5570,
      "##튜": 5571,
      "##탸": 5572,
      "##퉤": 5573,
      "##탐": 5574,
      "##턴": 5575,
      "##톤": 5576,
      "##털": 5577,
      "##팀": 5578,
      "##튀어나온": 5579,
      "##챠": 5580,
      "##췌": 5581,
      "##춘": 5582,
      "##챙": 5583,
      "##촐": 5584,
      "##춤": 5585,
      "##칀": 5586,
      "##ᆼ한": 5587,
      "##ᆼ을": 5588,
      "##ᆼ구": 5589,
      "##ᆼ의": 5590,
      "##ᆼ계": 5591,
      "##ᆼ님": 5592,
      "##ᆼ년들": 5593,
      "##ᆼ싱": 5594,
      "##ᆼ념": 5595,
      "##ᆼ어빵": 5596,
      "##ᆼ인것같은데": 5597,
      "##ᆼ장한": 5598,
      "##ᆼ뜯어": 5599,
      "##ᆼ덩어리": 5600,
      "##ᆻ는": 5601,
      "##ᆻ노": 5602,
      "##ᆻ든": 5603,
      "##ᆻ투": 5604,
      "##ᆻ구만": 5605,
      "##ᆻ군": 5606,
      "##ᆻ겠네": 5607,
      "##ᆻ죠": 5608,
      "##ᆻ거나": 5609,
      "##ᆻ기로": 5610,
      "##ᆻ듯이": 5611,
      "##ᆻ겠어": 5612,
      "##ᆻ었는데": 5613,
      "##ᆻ나보네": 5614,
      "##ᆻ간다": 5615,
      "##캬": 5616,
      "##쾌": 5617,
      "##큰": 5618,
      "##칸": 5619,
      "##클": 5620,
      "##쿨": 5621,
      "##콕": 5622,
      "##캔": 5623,
      "##쿠ㅅ": 5624,
      "##ᇂㄴ": 5625,
      "##ᇂ지": 5626,
      "##ᇂ여": 5627,
      "##ᇂ다고": 5628,
      "##ᇂ케이": 5629,
      "##떄": 5630,
      "##땀": 5631,
      "##땡": 5632,
      "##똥": 5633,
      "##떨고": 5634,
      "##뚠이": 5635,
      "##떨지": 5636,
      "##떼다가": 5637,
      "##쁠": 5638,
      "##뺑": 5639,
      "##뽕": 5640,
      "##뺀": 5641,
      "##뿍": 5642,
      "##3억": 5643,
      "##3라면서": 5644,
      "##쓴": 5645,
      "##쓸": 5646,
      "##쏠": 5647,
      "##쑥": 5648,
      "##쑨이": 5649,
      "##0이": 5650,
      "##ㄴ도": 5651,
      "##ㄴ들아": 5652,
      "##ㄴ이네": 5653,
      "##ㄴ빛": 5654,
      "##짤": 5655,
      "##쩍": 5656,
      "##쯤": 5657,
      "##쩐다": 5658,
      "##쩔지": 5659,
      "##쫌": 5660,
      "##쪘다": 5661,
      "##ᆹ은": 5662,
      "##ᆹ받": 5663,
      "##8살": 5664,
      "##ㅡ들": 5665,
      "##ᆰ은": 5666,
      "##ᆰ들을": 5667,
      "##ᆰ히는": 5668,
      "##ᇁ이": 5669,
      "##ᇁ고": 5670,
      "##ᇁ은": 5671,
      "##ᇁ에": 5672,
      "##ᇁ아라": 5673,
      "##ᇁ에는": 5674,
      "##ᇁ은거": 5675,
      "##ᆮ는": 5676,
      "##ᆮ은": 5677,
      "##ᆮ네": 5678,
      "##ᆮ어서": 5679,
      "##ᆮ었네": 5680,
      "##ᆾ이나": 5681,
      "##ᆾ아다니": 5682,
      "##ᆶ을": 5683,
      "##ᆶ었다": 5684,
      "##.!": 5685,
      "##ᆢ연기": 5686,
      "##ᆢ그냥": 5687,
      "##ᆢ불쌍": 5688,
      "##ᆢ누가": 5689,
      "##ᆢ3억": 5690,
      "##ㅠㅋㅋㅋㅋㅋ": 5691,
      "##ㅠ지키는": 5692,
      "##799": 5693,
      "##ㅇㅇ": 5694,
      "##ㅇr": 5695,
      "##th": 5696,
      "##tp": 5697,
      "##t를": 5698,
      "##ter": 5699,
      "##1도": 5700,
      "##1의": 5701,
      "##1위": 5702,
      "##13년": 5703,
      "##18살": 5704,
      "##??": 5705,
      "##ᆩ네": 5706,
      "##ᆩ일": 5707,
      "##ᆱ겨": 5708,
      "##bc": 5709,
      "##be": 5710,
      "##bt를": 5711,
      "##sm": 5712,
      "##~^": 5713,
      "##^♡♡": 5714,
      "##c컵": 5715,
      "##ew": 5716,
      "##2의": 5717,
      "##2이야": 5718,
      "##ㄹㅏ": 5719,
      "##ㄹ하는": 5720,
      "##ㄹ하네": 5721,
      "##ㅅ들": 5722,
      "##ㅅ때문에": 5723,
      "##ons": 5724,
      "##ay": 5725,
      "##av": 5726,
      "##a가": 5727,
      "##ang": 5728,
      "##yth": 5729,
      "##540": 5730,
      "##48": 5731,
      "##4명": 5732,
      "##4540": 5733,
      "##mons": 5734,
      "##rl": 5735,
      "##ll": 5736,
      "##!\"": 5737,
      "##ㄱㅋㅋ": 5738,
      "##,,": 5739,
      "##ㅈㄴ": 5740,
      "##ㅈㄹ하는": 5741,
      "##ᆲ고": 5742,
      "##ᆲ기": 5743,
      "##kki": 5744,
      "##ㅛ도": 5745,
      "##zy": 5746,
      "##ᆬ네": 5747,
      "##dd": 5748,
      "##ㅂㅅ들": 5749,
      "##╭∩": 5750,
      "##ㅆㄹㄱ": 5751,
      "##ᆞ여자들": 5752,
      "##uk": 5753,
      "##utoo운동": 5754,
      "##잌": 5755,
      "##이도": 5756,
      "##이에": 5757,
      "##이혼": 5758,
      "##이하고": 5759,
      "##이제": 5760,
      "##이래": 5761,
      "##이런": 5762,
      "##이년": 5763,
      "##이에서": 5764,
      "##이니까": 5765,
      "##이때": 5766,
      "##있다고": 5767,
      "##이는건": 5768,
      "##이구나": 5769,
      "##이더라": 5770,
      "##이레": 5771,
      "##이즈": 5772,
      "##이벌": 5773,
      "##이사람": 5774,
      "##이던데": 5775,
      "##이언": 5776,
      "##이에게": 5777,
      "##이여자들": 5778,
      "##이급": 5779,
      "##이너": 5780,
      "##이이가": 5781,
      "##잇지": 5782,
      "##이코": 5783,
      "##이병": 5784,
      "##이었다": 5785,
      "##이기도": 5786,
      "##이인줄": 5787,
      "##이없다": 5788,
      "##이는것도": 5789,
      "##이더만": 5790,
      "##이병헌": 5791,
      "##이득": 5792,
      "##잇냐": 5793,
      "##이아까": 5794,
      "##이아파": 5795,
      "##이캐": 5796,
      "##이킴": 5797,
      "##이뿌": 5798,
      "##이비슷": 5799,
      "##이많네": 5800,
      "##이경씨": 5801,
      "##이따위": 5802,
      "##잊어서": 5803,
      "##ᅳᆯ텐데": 5804,
      "##자고": 5805,
      "##자도": 5806,
      "##자면": 5807,
      "##자마": 5808,
      "##자요": 5809,
      "##자스": 5810,
      "##자들은": 5811,
      "##자안": 5812,
      "##자연": 5813,
      "##자한테": 5814,
      "##자루": 5815,
      "##자발": 5816,
      "##자란": 5817,
      "##자들만": 5818,
      "##자된": 5819,
      "##자극": 5820,
      "##자는거야": 5821,
      "##자신이": 5822,
      "##자료": 5823,
      "##자같고": 5824,
      "##지ㅋ": 5825,
      "##지ㅡ": 5826,
      "##지지": 5827,
      "##지라": 5828,
      "##지나": 5829,
      "##지니": 5830,
      "##지기": 5831,
      "##지네": 5832,
      "##지러": 5833,
      "##지대": 5834,
      "##지는거": 5835,
      "##지하고": 5836,
      "##징이": 5837,
      "##지적": 5838,
      "##지긴": 5839,
      "##지연": 5840,
      "##지원": 5841,
      "##지디": 5842,
      "##지식": 5843,
      "##지난": 5844,
      "##지금": 5845,
      "##지계": 5846,
      "##지혜": 5847,
      "##지길": 5848,
      "##지겠지": 5849,
      "##지더라": 5850,
      "##지다가": 5851,
      "##지던데": 5852,
      "##지하니": 5853,
      "##지랄": 5854,
      "##지된": 5855,
      "##지뭐": 5856,
      "##지표": 5857,
      "##지러워": 5858,
      "##지웃": 5859,
      "##지베": 5860,
      "##지나서": 5861,
      "##지덕": 5862,
      "##지라는거": 5863,
      "##지띠": 5864,
      "##지받는데": 5865,
      "##지딸이": 5866,
      "##지펄": 5867,
      "##지ㅇㅇ": 5868,
      "##지이기도": 5869,
      "##는ㄷ": 5870,
      "##는시": 5871,
      "##는에": 5872,
      "##는남자": 5873,
      "##는놈": 5874,
      "##는인생": 5875,
      "##는곳": 5876,
      "##는갑네": 5877,
      "##는설": 5878,
      "##는여자네": 5879,
      "##는이때": 5880,
      "##갓": 5881,
      "##가자": 5882,
      "##가시": 5883,
      "##가에": 5884,
      "##가요": 5885,
      "##가드": 5886,
      "##가ㅋㅋㅋㅋ": 5887,
      "##가수": 5888,
      "##가하고": 5889,
      "##가하는": 5890,
      "##가일": 5891,
      "##가인데": 5892,
      "##가트": 5893,
      "##감이": 5894,
      "##가는게": 5895,
      "##가씨": 5896,
      "##가관": 5897,
      "##갔으면": 5898,
      "##갑다": 5899,
      "##가있는": 5900,
      "##가ㅋㅋㅋㅋㅋ": 5901,
      "##갓지": 5902,
      "##갑이": 5903,
      "##가족": 5904,
      "##갔고": 5905,
      "##가해보": 5906,
      "##가없음": 5907,
      "##가기가": 5908,
      "##갖고": 5909,
      "##가시길": 5910,
      "##감이네": 5911,
      "##가해봐": 5912,
      "##가왈": 5913,
      "##가망신": 5914,
      "##가흐": 5915,
      "##갔나보네": 5916,
      "##가ㄴ빛": 5917,
      "##값은": 5918,
      "##갚아라": 5919,
      "##곡": 5920,
      "##고ㅋㅋ": 5921,
      "##고은": 5922,
      "##고기": 5923,
      "##고의": 5924,
      "##고치": 5925,
      "##고하면": 5926,
      "##고인데": 5927,
      "##고갈": 5928,
      "##고죄": 5929,
      "##고넘": 5930,
      "##고다니": 5931,
      "##곳이": 5932,
      "##고백": 5933,
      "##고그런": 5934,
      "##고나면": 5935,
      "##공이지": 5936,
      "##고있는데": 5937,
      "##고다녀": 5938,
      "##고라면서": 5939,
      "##고해요": 5940,
      "##곱번": 5941,
      "##고이병헌": 5942,
      "##다도": 5943,
      "##다리": 5944,
      "##다하고": 5945,
      "##다음": 5946,
      "##다되": 5947,
      "##다투": 5948,
      "##다닌": 5949,
      "##다발": 5950,
      "##다보니": 5951,
      "##닫고": 5952,
      "##다리가": 5953,
      "##다진짜": 5954,
      "##다그러": 5955,
      "##다라시": 5956,
      "##다는거냐": 5957,
      "##다수가": 5958,
      "##다삼": 5959,
      "##다는건지": 5960,
      "##다움을": 5961,
      "##닷같은": 5962,
      "##들ㅋ": 5963,
      "##들고": 5964,
      "##들마": 5965,
      "##들바": 5966,
      "##들말": 5967,
      "##들과": 5968,
      "##들인데": 5969,
      "##들저": 5970,
      "##들한다": 5971,
      "##들중": 5972,
      "##들하네": 5973,
      "##들처럼": 5974,
      "##들어서": 5975,
      "##들두": 5976,
      "##들보면": 5977,
      "##들지말고": 5978,
      "##들사이": 5979,
      "##들안하고": 5980,
      "##들조작": 5981,
      "##들살기": 5982,
      "##들다발": 5983,
      "##핰": 5984,
      "##하거": 5985,
      "##하에": 5986,
      "##하여": 5987,
      "##하신": 5988,
      "##하할": 5989,
      "##하연": 5990,
      "##하니까": 5991,
      "##하구나": 5992,
      "##하것도": 5993,
      "##하루": 5994,
      "##하셔": 5995,
      "##하라도": 5996,
      "##하던데": 5997,
      "##하급": 5998,
      "##하악": 5999,
      "##하기는": 6000,
      "##합이": 6001,
      "##하겠지만": 6002,
      "##학에": 6003,
      "##하튼": 6004,
      "##하거나": 6005,
      "##하거든": 6006,
      "##하던가": 6007,
      "##하느라": 6008,
      "##핫한": 6009,
      "##하캬": 6010,
      "이지": 6011,
      "이다": 6012,
      "이라": 6013,
      "이나": 6014,
      "이거": 6015,
      "이리": 6016,
      "이구": 6017,
      "이랑": 6018,
      "이정": 6019,
      "임마": 6020,
      "이세": 6021,
      "이명": 6022,
      "이단": 6023,
      "이었": 6024,
      "이재": 6025,
      "이준": 6026,
      "이형": 6027,
      "이태": 6028,
      "이새": 6029,
      "이어서": 6030,
      "이라도": 6031,
      "이어나": 6032,
      "이프로": 6033,
      "이련": 6034,
      "이채": 6035,
      "이나라": 6036,
      "이참": 6037,
      "이년이": 6038,
      "이베": 6039,
      "이색": 6040,
      "이효": 6041,
      "잊고": 6042,
      "이어진": 6043,
      "이광": 6044,
      "이정도로": 6045,
      "이외": 6046,
      "이정도면": 6047,
      "이하도": 6048,
      "이뇨나": 6049,
      "이지부": 6050,
      "이어야지": 6051,
      "이인간": 6052,
      "이걸로": 6053,
      "이늙": 6054,
      "이아줌마가": 6055,
      "잇는지": 6056,
      "잊겠지만": 6057,
      "이쉐": 6058,
      "이떄": 6059,
      "이ㄴ도": 6060,
      "잃었다": 6061,
      "이이경씨": 6062,
      "이들마": 6063,
      "##ᅡᆯ까": 6064,
      "##라가": 6065,
      "##라ㅋㅋ": 6066,
      "##라거": 6067,
      "##라기": 6068,
      "##라구": 6069,
      "##라보": 6070,
      "##라야": 6071,
      "##락시": 6072,
      "##라하지": 6073,
      "##라지만": 6074,
      "##라든": 6075,
      "##라는건": 6076,
      "##라ㅋㅋㅋ": 6077,
      "##라이네": 6078,
      "##라호": 6079,
      "##라지는": 6080,
      "##라지도": 6081,
      "##랍고": 6082,
      "##라불": 6083,
      "##라는거야": 6084,
      "##라먹을": 6085,
      "여으": 6086,
      "여부": 6087,
      "영이": 6088,
      "여긴": 6089,
      "여관": 6090,
      "여론": 6091,
      "여름": 6092,
      "여지가": 6093,
      "여보세요": 6094,
      "여사친": 6095,
      "역이지": 6096,
      "여선생": 6097,
      "여혐이": 6098,
      "염소": 6099,
      "엮네": 6100,
      "여하튼": 6101,
      "##ᅥᆫ지": 6102,
      "##도의": 6103,
      "##도를": 6104,
      "##도년": 6105,
      "##도우": 6106,
      "##도편": 6107,
      "##도있": 6108,
      "##도안": 6109,
      "##도화": 6110,
      "##도전": 6111,
      "##독이": 6112,
      "##도망": 6113,
      "##도않": 6114,
      "##도참": 6115,
      "##도손": 6116,
      "##도아줌마": 6117,
      "##도하노": 6118,
      "##도속은": 6119,
      "##도연도": 6120,
      "##도돼니": 6121,
      "##도좋아야": 6122,
      "##도팀": 6123,
      "##돋네": 6124,
      "##ㅋㅋㅈ": 6125,
      "##ㅋㅋ드": 6126,
      "##ㅋㅋ생": 6127,
      "##ㅋㅋ할": 6128,
      "##ㅋㅋ갈": 6129,
      "##ㅋㅋ여자들": 6130,
      "##ㅋㅋ하라": 6131,
      "##ㅋㅋ돈": 6132,
      "##ㅋㅋ골": 6133,
      "##ㅋㅋ장난": 6134,
      "##ㅋㅋㄱㅋㅋ": 6135,
      "##나ㅋ": 6136,
      "##나도": 6137,
      "##나게": 6138,
      "##나여": 6139,
      "##나냐": 6140,
      "##나하고": 6141,
      "##나미": 6142,
      "##나음": 6143,
      "##낙시": 6144,
      "##나이다": 6145,
      "##나감": 6146,
      "##나와서": 6147,
      "##났고": 6148,
      "##났구나": 6149,
      "##낮고": 6150,
      "##나혼자": 6151,
      "##나대도": 6152,
      "##났어요": 6153,
      "##낫구만": 6154,
      "##나쁠": 6155,
      "##나들살기": 6156,
      "##은은": 6157,
      "##은정": 6158,
      "##은오": 6159,
      "##은아니": 6160,
      "##은망": 6161,
      "##은결혼": 6162,
      "##은곳": 6163,
      "##은우는": 6164,
      "##은없어": 6165,
      "##은고기": 6166,
      "##서는": 6167,
      "##서서": 6168,
      "##서니": 6169,
      "##서야": 6170,
      "##서하나": 6171,
      "##서하는게": 6172,
      "##서에도": 6173,
      "##서지게": 6174,
      "##서운줄": 6175,
      "##서트에": 6176,
      "##섭음": 6177,
      "아시": 6178,
      "아들이": 6179,
      "아부": 6180,
      "아들은": 6181,
      "아는데": 6182,
      "아재": 6183,
      "아플": 6184,
      "아갈": 6185,
      "아휴": 6186,
      "아는것": 6187,
      "아름": 6188,
      "아담": 6189,
      "아토": 6190,
      "아진짜": 6191,
      "아역이": 6192,
      "아웃겨": 6193,
      "앙념": 6194,
      "아가씨": 6195,
      "아다라시": 6196,
      "##니가": 6197,
      "##니신": 6198,
      "##니를": 6199,
      "##니와": 6200,
      "##니하네": 6201,
      "##니뭐": 6202,
      "##니김치": 6203,
      "##어는": 6204,
      "##어마": 6205,
      "##어있": 6206,
      "##어오": 6207,
      "##어리고": 6208,
      "##어재": 6209,
      "##어갈": 6210,
      "##업다": 6211,
      "##어주고": 6212,
      "##어넘": 6213,
      "##어휴": 6214,
      "##어패": 6215,
      "##어놓고": 6216,
      "##억을": 6217,
      "##어왜": 6218,
      "##어볼": 6219,
      "##어쩌": 6220,
      "##엇는데": 6221,
      "##어떡": 6222,
      "##어댐": 6223,
      "##어넣": 6224,
      "##엇인지": 6225,
      "##엄한": 6226,
      "##얹네": 6227,
      "##앗": 6228,
      "##아들": 6229,
      "##아마": 6230,
      "##아보": 6231,
      "##아냐": 6232,
      "##아는거": 6233,
      "##아래": 6234,
      "##아무": 6235,
      "##아내": 6236,
      "##아하지": 6237,
      "##아니까": 6238,
      "##아냥": 6239,
      "##아원": 6240,
      "##아직": 6241,
      "##아식": 6242,
      "##악이": 6243,
      "##아즘": 6244,
      "##아버": 6245,
      "##아님": 6246,
      "##아빠": 6247,
      "##아들이랑": 6248,
      "##았나": 6249,
      "##았겠지": 6250,
      "##아있지": 6251,
      "##았지만": 6252,
      "##아닥": 6253,
      "##앙이지": 6254,
      "##아먹네": 6255,
      "##았어요": 6256,
      "##아뿌": 6257,
      "##아ㅠㅜ": 6258,
      "##아는듯": 6259,
      "##아먹지": 6260,
      "##아주고싶고": 6261,
      "##아가서는": 6262,
      "##압올려": 6263,
      "##앞에": 6264,
      "##거가": 6265,
      "##거고": 6266,
      "##거기": 6267,
      "##거마": 6268,
      "##거냐": 6269,
      "##거무": 6270,
      "##거던": 6271,
      "##겁니다": 6272,
      "##거면서": 6273,
      "##거울": 6274,
      "##거짓": 6275,
      "##거라도": 6276,
      "##거같이": 6277,
      "##거아니냐": 6278,
      "##겁겠": 6279,
      "##거들조작": 6280,
      "##거니와": 6281,
      "여장": 6282,
      "여자라": 6283,
      "여자나": 6284,
      "여자면": 6285,
      "여자한": 6286,
      "여자냐": 6287,
      "여자야": 6288,
      "여자생": 6289,
      "여자조": 6290,
      "여자바": 6291,
      "여장이": 6292,
      "여자임": 6293,
      "여자라고": 6294,
      "여자일": 6295,
      "여자남자": 6296,
      "여자종": 6297,
      "여자까지": 6298,
      "여자구나": 6299,
      "여자보다": 6300,
      "여자처럼": 6301,
      "여자란": 6302,
      "여자이면": 6303,
      "여자보고": 6304,
      "여자라도": 6305,
      "여자두": 6306,
      "여자네요": 6307,
      "여자배우": 6308,
      "여자좋아": 6309,
      "여자메": 6310,
      "여자때문에": 6311,
      "여자애들": 6312,
      "여자비율": 6313,
      "여자라는": 6314,
      "여자출연": 6315,
      "여자였을": 6316,
      "여자같고": 6317,
      "여자얼굴": 6318,
      "여자입니다": 6319,
      "여자라며": 6320,
      "여자분은": 6321,
      "여자잘못": 6322,
      "여자쪽에서": 6323,
      "여자댓글이": 6324,
      "여자였다면": 6325,
      "여자이병": 6326,
      "..??": 6327,
      "##게지": 6328,
      "##게사": 6329,
      "##게하는": 6330,
      "##게없": 6331,
      "##게원": 6332,
      "##게못": 6333,
      "##게하냐": 6334,
      "##게뭐": 6335,
      "##게에선": 6336,
      "##게해줘": 6337,
      "##겟냐": 6338,
      "##게생겨": 6339,
      "##겧ㄴ": 6340,
      "##게이인줄": 6341,
      "##리니": 6342,
      "##리시": 6343,
      "##리에": 6344,
      "##리기": 6345,
      "##리로": 6346,
      "##리만": 6347,
      "##리구": 6348,
      "##리스": 6349,
      "##리랑": 6350,
      "##리는데": 6351,
      "##리와": 6352,
      "##리노": 6353,
      "##리안": 6354,
      "##리인데": 6355,
      "##리든": 6356,
      "##리좀": 6357,
      "##리남자": 6358,
      "##리하게": 6359,
      "##리겠다": 6360,
      "##리다가": 6361,
      "##리보니": 6362,
      "##리던데": 6363,
      "##리대로": 6364,
      "##리는거지": 6365,
      "##리하라": 6366,
      "##리지도": 6367,
      "##리겠냐": 6368,
      "##리웃": 6369,
      "##리년은": 6370,
      "##리가지고": 6371,
      "##리둘": 6372,
      "##리기만": 6373,
      "##리막": 6374,
      "##리케이": 6375,
      "##리개지": 6376,
      "##릭도": 6377,
      "##리몽": 6378,
      "##리어는": 6379,
      "##시는": 6380,
      "##시시": 6381,
      "##시로": 6382,
      "##시냐": 6383,
      "##시녀": 6384,
      "##시집": 6385,
      "##시간": 6386,
      "##시하면": 6387,
      "##시하지": 6388,
      "##시비": 6389,
      "##시민": 6390,
      "##시전": 6391,
      "##시물": 6392,
      "##시받": 6393,
      "##시겠다": 6394,
      "##시청": 6395,
      "##시네요": 6396,
      "##시름": 6397,
      "##시공": 6398,
      "##시기만": 6399,
      "##시간에": 6400,
      "##시킨": 6401,
      "##시나보다": 6402,
      "##시구요": 6403,
      "##십으로": 6404,
      "##시끄럽": 6405,
      "##십만명": 6406,
      "##시자면": 6407,
      "##면에": 6408,
      "##면상": 6409,
      "##면뭐": 6410,
      "##면안되": 6411,
      "##면어떡": 6412,
      "남들": 6413,
      "남은": 6414,
      "남여": 6415,
      "남주": 6416,
      "남남": 6417,
      "남들이": 6418,
      "남부": 6419,
      "남들은": 6420,
      "남긴": 6421,
      "남한테": 6422,
      "남일": 6423,
      "남경": 6424,
      "남배우": 6425,
      "남욕": 6426,
      "남기는": 6427,
      "남성이": 6428,
      "남았다": 6429,
      "남사친": 6430,
      "남탓": 6431,
      "남달라": 6432,
      "남가수": 6433,
      "##에다": 6434,
      "##에나": 6435,
      "##에만": 6436,
      "##에놈": 6437,
      "##에너": 6438,
      "##에쁘": 6439,
      "그냐": 6440,
      "그려": 6441,
      "그들이": 6442,
      "그연": 6443,
      "그때": 6444,
      "그것": 6445,
      "그분": 6446,
      "그저": 6447,
      "그짓": 6448,
      "그루": 6449,
      "그란": 6450,
      "그알": 6451,
      "그분들": 6452,
      "그담": 6453,
      "급이": 6454,
      "그쪽": 6455,
      "그립": 6456,
      "그리도": 6457,
      "그년은": 6458,
      "그놈이": 6459,
      "그딴": 6460,
      "그려서": 6461,
      "그남들": 6462,
      "그새끼": 6463,
      "그정도로": 6464,
      "그닥": 6465,
      "그짓을": 6466,
      "그나이에": 6467,
      "그밤에": 6468,
      "긁은": 6469,
      "그다음": 6470,
      "##ᅮᆫ여자": 6471,
      "##해하지": 6472,
      "##해한다": 6473,
      "##해질": 6474,
      "##해선": 6475,
      "##해이고": 6476,
      "##해보니": 6477,
      "##해놓고": 6478,
      "##해봐도": 6479,
      "##해줘야": 6480,
      "##해하지말고": 6481,
      "##햇어": 6482,
      "##해ᆢᆢ": 6483,
      "##핸드폰": 6484,
      "##햇는데": 6485,
      "##해댄다": 6486,
      "##해소가": 6487,
      "##해먹기": 6488,
      "##해주고싶고": 6489,
      "##해지더라": 6490,
      "##해갓지": 6491,
      "##기나": 6492,
      "##기면": 6493,
      "##기인": 6494,
      "##기여": 6495,
      "##기냐": 6496,
      "##기려": 6497,
      "##기는데": 6498,
      "##기임": 6499,
      "##기할": 6500,
      "##기차": 6501,
      "##기준": 6502,
      "##김이": 6503,
      "##기하네": 6504,
      "##기주고": 6505,
      "##기들도": 6506,
      "##기구만": 6507,
      "##기지말고": 6508,
      "##기영이": 6509,
      "##기그래": 6510,
      "##기싫": 6511,
      "##기덜": 6512,
      "##기딸": 6513,
      "##기엔": 6514,
      "##기거든": 6515,
      "##기땐": 6516,
      "##기간이": 6517,
      "##기서도": 6518,
      "##기오는": 6519,
      "##기감은": 6520,
      "##기쁨": 6521,
      "##깊은": 6522,
      "##기시전": 6523,
      "##한지": 6524,
      "##한는": 6525,
      "##한가": 6526,
      "##한나": 6527,
      "##한한": 6528,
      "##한마": 6529,
      "##한대": 6530,
      "##한심": 6531,
      "##한듯": 6532,
      "##한개": 6533,
      "##한순": 6534,
      "##한별": 6535,
      "##한여자가": 6536,
      "##한남들": 6537,
      "##한이유": 6538,
      "##한여자도": 6539,
      "##한남자랑": 6540,
      "##한나지만": 6541,
      "##한것처럼": 6542,
      "##한느낌": 6543,
      "##한딸이": 6544,
      "##한곡": 6545,
      "##한아내": 6546,
      "어서": 6547,
      "어데": 6548,
      "어우": 6549,
      "어짜": 6550,
      "어장": 6551,
      "어중": 6552,
      "어른": 6553,
      "어루": 6554,
      "어찌": 6555,
      "어릴": 6556,
      "어이가": 6557,
      "어머니": 6558,
      "어후": 6559,
      "얻어": 6560,
      "어이없": 6561,
      "얻었네": 6562,
      "어이없다": 6563,
      "어기여": 6564,
      "##데냐": 6565,
      "##데스": 6566,
      "##데리고": 6567,
      "##데기로": 6568,
      "##데뷔": 6569,
      "##데가없음": 6570,
      "##네ㅋ": 6571,
      "##넫": 6572,
      "##네사": 6573,
      "##네정": 6574,
      "##네ㅋㅋㅋㅋㅋ": 6575,
      "##네ᆢᆢ": 6576,
      "##네ㅠㅋㅋㅋㅋㅋ": 6577,
      "##로ㄹ": 6578,
      "##로구": 6579,
      "##로남": 6580,
      "##로있": 6581,
      "##로라고": 6582,
      "##로하니": 6583,
      "##로올": 6584,
      "##로였으면": 6585,
      "##로인듯": 6586,
      "##로써": 6587,
      "##로맨스": 6588,
      "##로가면": 6589,
      "##롬들": 6590,
      "##로뛰": 6591,
      "##로하구": 6592,
      "##로돌아가": 6593,
      "##만해": 6594,
      "##만까": 6595,
      "##만남": 6596,
      "##만의": 6597,
      "##만먹": 6598,
      "##만하면": 6599,
      "##만하지": 6600,
      "##만디": 6601,
      "##만하다": 6602,
      "##만져": 6603,
      "##만아니": 6604,
      "##만해도": 6605,
      "##만놈": 6606,
      "##만보면": 6607,
      "##만들어": 6608,
      "##만좋아": 6609,
      "##만찬": 6610,
      "##만취": 6611,
      "##만가라": 6612,
      "##만주면": 6613,
      "##만률": 6614,
      "##만바뀌": 6615,
      "##만뺀": 6616,
      "##만이더라": 6617,
      "##만가드": 6618,
      "##만들지말고": 6619,
      "##응": 6620,
      "##으고": 6621,
      "##으나": 6622,
      "##으러": 6623,
      "##으신": 6624,
      "##으세요": 6625,
      "##읍다": 6626,
      "##으론": 6627,
      "##으라는": 6628,
      "##으려면": 6629,
      "##으시네": 6630,
      "##으시길": 6631,
      "##으셔서": 6632,
      "##으시나보다": 6633,
      "##인게": 6634,
      "##인을": 6635,
      "##인건": 6636,
      "##인저": 6637,
      "##인디": 6638,
      "##인들아": 6639,
      "##인까지": 6640,
      "##인척": 6641,
      "##인지는": 6642,
      "##인인생": 6643,
      "##인ㅡㅡ": 6644,
      "##인관계": 6645,
      "##인그룹": 6646,
      "##인건데": 6647,
      "##인수준": 6648,
      "##인간이": 6649,
      "##인도가서": 6650,
      "##인기녀": 6651,
      "##인으로만": 6652,
      "##인이라면": 6653,
      "##인넣": 6654,
      "##러도": 6655,
      "##러ㅋㅋ": 6656,
      "##러에": 6657,
      "##러들은": 6658,
      "##러내": 6659,
      "##러간": 6660,
      "##러질": 6661,
      "##러디": 6662,
      "##러세요": 6663,
      "##럭이": 6664,
      "##러하네": 6665,
      "##러감": 6666,
      "##러가는": 6667,
      "##러움": 6668,
      "##러가지고": 6669,
      "##렀던": 6670,
      "##러나네": 6671,
      "##러가라": 6672,
      "##렇지": 6673,
      "##여주": 6674,
      "##여대": 6675,
      "##여드": 6676,
      "##여하는": 6677,
      "##여년": 6678,
      "##역시": 6679,
      "##여ㅠㅠ": 6680,
      "##엽다": 6681,
      "##였네": 6682,
      "##여배우": 6683,
      "##엽이": 6684,
      "##였지": 6685,
      "##였음": 6686,
      "##였던": 6687,
      "##였구나": 6688,
      "##여잔": 6689,
      "##였나": 6690,
      "##여남친": 6691,
      "##엽과": 6692,
      "##였군": 6693,
      "##옆에는": 6694,
      "##마는": 6695,
      "##마가": 6696,
      "##마스": 6697,
      "##마디": 6698,
      "##마트": 6699,
      "##맛이": 6700,
      "##마들한테": 6701,
      "##마법": 6702,
      "##마약": 6703,
      "##마방가서": 6704,
      "##줌": 6705,
      "##주나": 6706,
      "##주시": 6707,
      "##주네": 6708,
      "##주랑": 6709,
      "##주의": 6710,
      "##주하는": 6711,
      "##주진": 6712,
      "##주먹": 6713,
      "##주니까": 6714,
      "##주일": 6715,
      "##주같은": 6716,
      "##주면서": 6717,
      "##주위": 6718,
      "##주보고": 6719,
      "##주호": 6720,
      "##주는거지": 6721,
      "##주나요": 6722,
      "##주지는": 6723,
      "##주인줄": 6724,
      "##주얼": 6725,
      "##주에도": 6726,
      "##주먹은": 6727,
      "##주던가": 6728,
      "##주느라": 6729,
      "##주언니": 6730,
      "##주제에": 6731,
      "남자다": 6732,
      "남자도": 6733,
      "남자면": 6734,
      "남자에": 6735,
      "남자야": 6736,
      "남자의": 6737,
      "남자같": 6738,
      "남자와": 6739,
      "남자라고": 6740,
      "남자지만": 6741,
      "남자친": 6742,
      "남자개": 6743,
      "남자란": 6744,
      "남자구만": 6745,
      "남자놈": 6746,
      "남자라도": 6747,
      "남자배우": 6748,
      "남자같이": 6749,
      "남자등": 6750,
      "남자혐": 6751,
      "남자라면": 6752,
      "남자였으면": 6753,
      "남자보는": 6754,
      "남자ㅋㅋㅋㅋㅋㅋㅋ": 6755,
      "남자아이돌": 6756,
      "남자네ㅋㅋ": 6757,
      "남자있냐": 6758,
      "남자같음": 6759,
      "남자망신": 6760,
      "남자쪽에서": 6761,
      "남자팬들": 6762,
      "남잘되는": 6763,
      "남장을": 6764,
      "##을거": 6765,
      "##을수": 6766,
      "##을정도": 6767,
      "##을너": 6768,
      "##을거다": 6769,
      "##을대도": 6770,
      "##을흘": 6771,
      "##을꺼같": 6772,
      "##을라나": 6773,
      "##을거같은데": 6774,
      "##을러가지고": 6775,
      "한들": 6776,
      "한게": 6777,
      "한현": 6778,
      "한때": 6779,
      "한쳐": 6780,
      "한것도": 6781,
      "한방": 6782,
      "한다는": 6783,
      "한뇬": 6784,
      "한참": 6785,
      "한여자랑": 6786,
      "한효": 6787,
      "한평": 6788,
      "한동안": 6789,
      "한냄": 6790,
      "한눈": 6791,
      "한줄알": 6792,
      "한가보네": 6793,
      "한가정": 6794,
      "한숨": 6795,
      "한분은": 6796,
      "한고은": 6797,
      "한만디": 6798,
      "한여배우": 6799,
      "한마디": 6800,
      "##구려": 6801,
      "##구년": 6802,
      "##구하라": 6803,
      "##구해야": 6804,
      "##구석": 6805,
      "##구헌": 6806,
      "##구먼": 6807,
      "##구조가": 6808,
      "##구살기": 6809,
      "##구라가": 6810,
      "하다": 6811,
      "하구": 6812,
      "하야": 6813,
      "하려": 6814,
      "하건": 6815,
      "하신": 6816,
      "하현": 6817,
      "하연": 6818,
      "하라고": 6819,
      "하트": 6820,
      "하물": 6821,
      "하구나": 6822,
      "하길": 6823,
      "하더라": 6824,
      "하며": 6825,
      "하구만": 6826,
      "하던데": 6827,
      "하려고": 6828,
      "하다니": 6829,
      "하겠네": 6830,
      "하죠": 6831,
      "하등": 6832,
      "하악": 6833,
      "학실": 6834,
      "하지는": 6835,
      "하겠냐": 6836,
      "하겠지만": 6837,
      "하라는": 6838,
      "하니깐": 6839,
      "하거든": 6840,
      "하기사": 6841,
      "하드만": 6842,
      "하는걸까": 6843,
      "하시오": 6844,
      "하셨는지": 6845,
      "하시구요": 6846,
      "하기싫": 6847,
      "##보자": 6848,
      "##보가": 6849,
      "##보네": 6850,
      "##보드": 6851,
      "##보신": 6852,
      "##보를": 6853,
      "##보그": 6854,
      "##보임": 6855,
      "##보니까": 6856,
      "##보일": 6857,
      "##보겠다": 6858,
      "##보길": 6859,
      "##보이네": 6860,
      "##보려고": 6861,
      "##보같이": 6862,
      "##보급": 6863,
      "##보나요": 6864,
      "##보기로": 6865,
      "##보험": 6866,
      "##보하세요": 6867,
      "##보들인듯": 6868,
      "##보입니까": 6869,
      "##냐ㅉ": 6870,
      "##냐는": 6871,
      "##냐오": 6872,
      "##냐저": 6873,
      "##냥이지": 6874,
      "##냠상": 6875,
      "조장": 6876,
      "조문": 6877,
      "조선": 6878,
      "조작": 6879,
      "조아라": 6880,
      "좃이": 6881,
      "조아하지": 6882,
      "##야에": 6883,
      "##야할": 6884,
      "##야노": 6885,
      "##야말": 6886,
      "##야라고": 6887,
      "##야혀": 6888,
      "##약한": 6889,
      "##야뭐": 6890,
      "##야할듯": 6891,
      "##야한다고": 6892,
      "##야겠군": 6893,
      "##야곘네": 6894,
      "##야데스": 6895,
      "##요구": 6896,
      "##요ㅋㅋㅋㅋ": 6897,
      "##요제": 6898,
      "##욕이": 6899,
      "##요즘": 6900,
      "##요술": 6901,
      "##요하자": 6902,
      "##요기감은": 6903,
      "가자": 6904,
      "가는": 6905,
      "가고": 6906,
      "가라": 6907,
      "가니": 6908,
      "가면": 6909,
      "가려": 6910,
      "가부": 6911,
      "가치": 6912,
      "가히": 6913,
      "가짜": 6914,
      "가임": 6915,
      "가르": 6916,
      "가지만": 6917,
      "가린": 6918,
      "갑니다": 6919,
      "가문": 6920,
      "갔다고": 6921,
      "가관": 6922,
      "가야지": 6923,
      "가방": 6924,
      "가출": 6925,
      "가봐라": 6926,
      "가꾸": 6927,
      "가치고": 6928,
      "가벼": 6929,
      "갔냐": 6930,
      "가리면": 6931,
      "갔나": 6932,
      "가려서": 6933,
      "가던가": 6934,
      "가택": 6935,
      "갔다가": 6936,
      "가봤자": 6937,
      "가냉": 6938,
      "각종": 6939,
      "가랭이": 6940,
      "가꿔": 6941,
      "갘은데": 6942,
      "가엽다": 6943,
      "가야겠군": 6944,
      "모가": 6945,
      "모한": 6946,
      "모질": 6947,
      "몸이": 6948,
      "모두": 6949,
      "모시고": 6950,
      "모습": 6951,
      "모성애": 6952,
      "모여서": 6953,
      "모를까": 6954,
      "모양이": 6955,
      "모쏠": 6956,
      "모이는건": 6957,
      "모자란": 6958,
      "모으고": 6959,
      "모인그룹": 6960,
      "##려나": 6961,
      "##려한": 6962,
      "##려구": 6963,
      "##렸다": 6964,
      "##려동": 6965,
      "##렸다고": 6966,
      "##려쳐": 6967,
      "##렸는데": 6968,
      "##려다가": 6969,
      "##려죽": 6970,
      "##려진다": 6971,
      "##렸지만": 6972,
      "##려놔라": 6973,
      "##려줬음": 6974,
      "##려는설": 6975,
      "##대서": 6976,
      "##대니": 6977,
      "##대면": 6978,
      "##대상": 6979,
      "##대는거": 6980,
      "##대생": 6981,
      "##대의": 6982,
      "##대하고": 6983,
      "##대부": 6984,
      "##대를": 6985,
      "##대예": 6986,
      "##대장": 6987,
      "##대디": 6988,
      "##대같은": 6989,
      "##대는건": 6990,
      "##대루": 6991,
      "##대며": 6992,
      "##대하면서": 6993,
      "##대지말고": 6994,
      "##대부분": 6995,
      "##대에선": 6996,
      "##대지마라": 6997,
      "##대는거임": 6998,
      "##대년들아": 6999,
      "##대튀어나온": 7000,
      "나는": 7001,
      "나니": 7002,
      "나네": 7003,
      "나야": 7004,
      "나혼": 7005,
      "났다": 7006,
      "나하고": 7007,
      "나연": 7008,
      "나인데": 7009,
      "났을": 7010,
      "나보다": 7011,
      "나빠": 7012,
      "났네": 7013,
      "나머": 7014,
      "나라도": 7015,
      "나두": 7016,
      "나올": 7017,
      "나저씨": 7018,
      "낮고": 7019,
      "나혼자": 7020,
      "나가면": 7021,
      "나보이": 7022,
      "나가는거": 7023,
      "나댄다": 7024,
      "낫거임": 7025,
      "나뉘": 7026,
      "낚일": 7027,
      "나서서": 7028,
      "나아가서는": 7029,
      "나대지말고": 7030,
      "마냥": 7031,
      "마저": 7032,
      "마세요": 7033,
      "맛이": 7034,
      "마츠": 7035,
      "마르면": 7036,
      "마블": 7037,
      "마이너": 7038,
      "마닷같은": 7039,
      "마니하네": 7040,
      "마시자면": 7041,
      "지아": 7042,
      "지정": 7043,
      "지들은": 7044,
      "지민": 7045,
      "지리고": 7046,
      "집니다": 7047,
      "지난": 7048,
      "지혜": 7049,
      "지루": 7050,
      "지적인": 7051,
      "지들도": 7052,
      "지목": 7053,
      "지름": 7054,
      "지켜": 7055,
      "지인이": 7056,
      "지엄마": 7057,
      "지영이": 7058,
      "지들이랑": 7059,
      "지갑": 7060,
      "지혼자": 7061,
      "지생각": 7062,
      "지은이": 7063,
      "지아를": 7064,
      "지네는": 7065,
      "지ㄹㅏ": 7066,
      "지로ㄹ": 7067,
      "지인으로만": 7068,
      "지주제에": 7069,
      "사냐": 7070,
      "사니까": 7071,
      "사이다": 7072,
      "사야지": 7073,
      "사죄": 7074,
      "사이가": 7075,
      "사기고": 7076,
      "사극": 7077,
      "사는거야": 7078,
      "사느라": 7079,
      "사례": 7080,
      "사장님": 7081,
      "사이에서": 7082,
      "사는인생": 7083,
      "사가시": 7084,
      "사라지는": 7085,
      "사주니까": 7086,
      "저는": 7087,
      "저들": 7088,
      "저도": 7089,
      "저람": 7090,
      "저분": 7091,
      "저번": 7092,
      "저럼": 7093,
      "저처럼": 7094,
      "저여성": 7095,
      "저년이": 7096,
      "저옷": 7097,
      "저남자가": 7098,
      "저정도면": 7099,
      "저정도는": 7100,
      "저세상": 7101,
      "저난리": 7102,
      "저나이에": 7103,
      "저껌": 7104,
      "저기서도": 7105,
      "저주하는": 7106,
      "기가": 7107,
      "기들": 7108,
      "기생": 7109,
      "기부": 7110,
      "기무": 7111,
      "기모": 7112,
      "기집": 7113,
      "기간": 7114,
      "기저": 7115,
      "기준": 7116,
      "기계": 7117,
      "기어나": 7118,
      "기빨": 7119,
      "기념": 7120,
      "기쁨": 7121,
      "기센": 7122,
      "길거리": 7123,
      "깊이": 7124,
      "기지베": 7125,
      "안한": 7126,
      "안생": 7127,
      "안부": 7128,
      "안테": 7129,
      "안심": 7130,
      "안내": 7131,
      "안간": 7132,
      "안봐": 7133,
      "안했": 7134,
      "안더": 7135,
      "안굴": 7136,
      "안희": 7137,
      "안줘": 7138,
      "안하나": 7139,
      "안티": 7140,
      "안가지": 7141,
      "안경": 7142,
      "안입": 7143,
      "안하냐": 7144,
      "안좋아": 7145,
      "안낳": 7146,
      "안했다": 7147,
      "안하는데": 7148,
      "안봐도": 7149,
      "안했다고": 7150,
      "안궁": 7151,
      "안볼": 7152,
      "안팔": 7153,
      "안보는": 7154,
      "안할듯": 7155,
      "안떠": 7156,
      "안갖": 7157,
      "안가진": 7158,
      "안가봐": 7159,
      "안고가": 7160,
      "안하든": 7161,
      "안나올": 7162,
      "안받고": 7163,
      "안이쁜": 7164,
      "안이뻐": 7165,
      "안가는데": 7166,
      "안하잖아": 7167,
      "안나와": 7168,
      "안유진": 7169,
      "안받는데": 7170,
      "안뜯어": 7171,
      "안끌": 7172,
      "안챙": 7173,
      "안고치": 7174,
      "안락시": 7175,
      "안도하노": 7176,
      "안나대도": 7177,
      "안아주고싶고": 7178,
      "안마방가서": 7179,
      "안대는건": 7180,
      "##까라": 7181,
      "##까면": 7182,
      "##까겠지": 7183,
      "##까ㅠㅠ": 7184,
      "##깠던": 7185,
      "##깍지가": 7186,
      "다고": 7187,
      "다나": 7188,
      "다수": 7189,
      "다내": 7190,
      "다말": 7191,
      "다차": 7192,
      "다닌": 7193,
      "다쳐": 7194,
      "다한거": 7195,
      "다님": 7196,
      "다박": 7197,
      "다티": 7198,
      "다가는": 7199,
      "다망": 7200,
      "다나오": 7201,
      "다나요": 7202,
      "다잡": 7203,
      "답이": 7204,
      "다표": 7205,
      "답네": 7206,
      "다녀가": 7207,
      "다있음": 7208,
      "다끄": 7209,
      "닫을": 7210,
      "다행이": 7211,
      "다를까": 7212,
      "다한거고": 7213,
      "다뽑": 7214,
      "닥쳐": 7215,
      "다나처럼": 7216,
      "다보이고": 7217,
      "닥치": 7218,
      "닭들을": 7219,
      "다아니까": 7220,
      "##남들이": 7221,
      "##남들은": 7222,
      "##남이랑": 7223,
      "##남았네": 7224,
      "##들임": 7225,
      "##들이었": 7226,
      "##들이침": 7227,
      "##들이었지": 7228,
      "##들이대니": 7229,
      "##드나": 7230,
      "##드냐": 7231,
      "##드는게": 7232,
      "##드신은": 7233,
      "##드려요": 7234,
      "##드르르": 7235,
      "##드시는": 7236,
      "##슴": 7237,
      "##스다": 7238,
      "##스유": 7239,
      "##승이": 7240,
      "##스터": 7241,
      "##스순": 7242,
      "##스티": 7243,
      "##스레": 7244,
      "##스코": 7245,
      "##스토": 7246,
      "##스폰": 7247,
      "##스탈": 7248,
      "##슥들아": 7249,
      "##스몰": 7250,
      "##스틴": 7251,
      "##스러울": 7252,
      "##스일뿐": 7253,
      "##슴이나": 7254,
      "##스쿨": 7255,
      "##스랍고": 7256,
      "##스시녀": 7257,
      "##스러움": 7258,
      "##상한": 7259,
      "##상하고": 7260,
      "##상국": 7261,
      "##상진": 7262,
      "##상처": 7263,
      "##상간": 7264,
      "##상하지": 7265,
      "##상중": 7266,
      "##상금": 7267,
      "##상부터": 7268,
      "##상이지": 7269,
      "##상보니": 7270,
      "##상여자가": 7271,
      "##상했으면": 7272,
      "##상여자는": 7273,
      "##상했는데": 7274,
      "##상력을": 7275,
      "##상에서도": 7276,
      "##상연애": 7277,
      "##상하니깐": 7278,
      "##상탸": 7279,
      "##상였음": 7280,
      "##상주진": 7281,
      "##상대면": 7282,
      "##는거다": 7283,
      "##는거로": 7284,
      "##는거여": 7285,
      "##는거랑": 7286,
      "##는거바": 7287,
      "##는거말고": 7288,
      "##는거알": 7289,
      "##는거봐라": 7290,
      "##는거자체가": 7291,
      "##는거네ㅋㅋㅋㅋㅋ": 7292,
      "##ㅋㅋㅋㅋ당": 7293,
      "##ㅋㅋㅋㅋㅋㅋㅋㅋㅋ": 7294,
      "##ㅋㅋㅋㅋㄹㅇ": 7295,
      "##ㅋㅋㅋㅋ거울": 7296,
      "시애": 7297,
      "시간": 7298,
      "시키": 7299,
      "시켜": 7300,
      "시술": 7301,
      "시커": 7302,
      "시후": 7303,
      "시점": 7304,
      "시기에": 7305,
      "시대는": 7306,
      "시골": 7307,
      "시간이": 7308,
      "시부모": 7309,
      "시끄럽": 7310,
      "싱싱": 7311,
      "시야에": 7312,
      "보냐": 7313,
      "보는데": 7314,
      "보긴": 7315,
      "보라고": 7316,
      "보민": 7317,
      "보는건": 7318,
      "보란": 7319,
      "보이고": 7320,
      "보호": 7321,
      "보증": 7322,
      "보답": 7323,
      "보험": 7324,
      "보인다": 7325,
      "보자로": 7326,
      "보수진": 7327,
      "보러가는": 7328,
      "##ᆻ다오": 7329,
      "##생에": 7330,
      "##생을": 7331,
      "##생긴": 7332,
      "##생길": 7333,
      "##생기고": 7334,
      "##생관리": 7335,
      "##생가해보": 7336,
      "##사고": 7337,
      "##사라": 7338,
      "##사에": 7339,
      "##사건": 7340,
      "##사를": 7341,
      "##사노": 7342,
      "##사에서": 7343,
      "##사과": 7344,
      "##사전": 7345,
      "##사배": 7346,
      "##삭이": 7347,
      "##사실": 7348,
      "##사는건": 7349,
      "##사는게": 7350,
      "##사부터": 7351,
      "##사누": 7352,
      "##사업": 7353,
      "##사합니다": 7354,
      "##사정이": 7355,
      "##사기로": 7356,
      "##사가되": 7357,
      "##사아닌가": 7358,
      "##사연도": 7359,
      "##사주고싶은": 7360,
      "##사지받는데": 7361,
      "자는": 7362,
      "자면": 7363,
      "자주": 7364,
      "자부": 7365,
      "자제": 7366,
      "자세": 7367,
      "자긴": 7368,
      "자세요": 7369,
      "자중": 7370,
      "자산": 7371,
      "자랄": 7372,
      "자놓고": 7373,
      "자궁": 7374,
      "자퇴": 7375,
      "자리를": 7376,
      "자존": 7377,
      "자칭": 7378,
      "자이언": 7379,
      "자슥들아": 7380,
      "자상한": 7381,
      "잘들": 7382,
      "잘하는": 7383,
      "잘한다": 7384,
      "잘해서": 7385,
      "잘혀": 7386,
      "잘빠": 7387,
      "잘해도": 7388,
      "잘망": 7389,
      "잘먹고": 7390,
      "잘해야": 7391,
      "잘주는": 7392,
      "잘만나": 7393,
      "잘하세요": 7394,
      "잘할수": 7395,
      "잘가라": 7396,
      "잘해야지": 7397,
      "잘했어": 7398,
      "잘뽑": 7399,
      "잘라버": 7400,
      "잘하셔": 7401,
      "바에서": 7402,
      "바쳐": 7403,
      "바보다": 7404,
      "바가지": 7405,
      "바란": 7406,
      "바닥": 7407,
      "바보냐": 7408,
      "밧아": 7409,
      "바지계": 7410,
      "바들바": 7411,
      "대도": 7412,
      "대해": 7413,
      "대성": 7414,
      "대를": 7415,
      "대화": 7416,
      "대타": 7417,
      "대해서": 7418,
      "대박": 7419,
      "대네요": 7420,
      "댄스": 7421,
      "대역": 7422,
      "댔겠지": 7423,
      "대학": 7424,
      "대역이": 7425,
      "대리를": 7426,
      "대견": 7427,
      "대항": 7428,
      "댓에": 7429,
      "대다수가": 7430,
      "대만놈": 7431,
      "대인관계": 7432,
      "성이": 7433,
      "성기": 7434,
      "성을": 7435,
      "성매": 7436,
      "성전": 7437,
      "성기는": 7438,
      "성부분": 7439,
      "성적이": 7440,
      "성비율": 7441,
      "성접": 7442,
      "성료": 7443,
      "성기에": 7444,
      "성대는": 7445,
      "성공이지": 7446,
      "성욕이": 7447,
      "##건취급하고": 7448,
      "##랑하고": 7449,
      "##랑부": 7450,
      "##랑결혼": 7451,
      "##랑이란": 7452,
      "##수다": 7453,
      "##수라": 7454,
      "##수하고": 7455,
      "##수유": 7456,
      "##수저": 7457,
      "##수단": 7458,
      "##수씨": 7459,
      "##수하나": 7460,
      "##수머": 7461,
      "##수있는": 7462,
      "##수등": 7463,
      "##수치고": 7464,
      "##수억": 7465,
      "##수있지": 7466,
      "##수가없": 7467,
      "##수정도면": 7468,
      "##수하길": 7469,
      "##수니들": 7470,
      "##숫놈": 7471,
      "##숭덩어리": 7472,
      "##수한남자랑": 7473,
      "##수사주고싶은": 7474,
      "##의가": 7475,
      "##의한거": 7476,
      "##의호": 7477,
      "##의나이": 7478,
      "##의표": 7479,
      "##의점": 7480,
      "##의학": 7481,
      "##의존": 7482,
      "##의이미지": 7483,
      "##의인기녀": 7484,
      "##하고는": 7485,
      "##하고만": 7486,
      "##하고음": 7487,
      "##하고살": 7488,
      "##하고싶": 7489,
      "##하고파": 7490,
      "##하고남편": 7491,
      "##하고먼": 7492,
      "##하고매력": 7493,
      "##하고이런": 7494,
      "##부나": 7495,
      "##부로": 7496,
      "##부녀": 7497,
      "##부제": 7498,
      "##부심": 7499,
      "##부린": 7500,
      "##부들아": 7501,
      "##부실": 7502,
      "##부인이": 7503,
      "##북을": 7504,
      "##부할수": 7505,
      "##부그냥": 7506,
      "##부린다": 7507,
      "##부리는거": 7508,
      "##녀는": 7509,
      "##녀야": 7510,
      "##녀래": 7511,
      "##녀한테": 7512,
      "##녀인데": 7513,
      "##녀하면서": 7514,
      "##녀에게": 7515,
      "##녀잖아": 7516,
      "##ᅯᆫ죄": 7517,
      "##성들": 7518,
      "##성을": 7519,
      "##성년": 7520,
      "##성형": 7521,
      "##성격": 7522,
      "##성적인": 7523,
      "##성이라고": 7524,
      "##성교": 7525,
      "##성매매": 7526,
      "##성희로": 7527,
      "##성기가": 7528,
      "##성있게": 7529,
      "##성하는척": 7530,
      "##성기땐": 7531,
      "##신도": 7532,
      "##신게": 7533,
      "##신을": 7534,
      "##신영": 7535,
      "##신창": 7536,
      "##신같이": 7537,
      "##신이냐": 7538,
      "##신양": 7539,
      "##신료": 7540,
      "##신들의": 7541,
      "##신드립": 7542,
      "##신부가": 7543,
      "##신고해요": 7544,
      "##하는지": 7545,
      "##하는중": 7546,
      "##하는나라": 7547,
      "##하는여자랑": 7548,
      "##하는곳": 7549,
      "##하는넘들": 7550,
      "##하는이유는": 7551,
      "##하는가ㅋㅋㅋㅋㅋ": 7552,
      "##를수도": 7553,
      "##를보니": 7554,
      "##를르르": 7555,
      "##를꾸겨신": 7556,
      "##제의": 7557,
      "##제하면서": 7558,
      "##제파": 7559,
      "##제껴": 7560,
      "##제안되": 7561,
      "##젠이": 7562,
      "##젠더": 7563,
      "##제동도": 7564,
      "##제기할": 7565,
      "##치도": 7566,
      "##치게": 7567,
      "##치기": 7568,
      "##치마": 7569,
      "##치냐": 7570,
      "##치를": 7571,
      "##치미": 7572,
      "##치는데": 7573,
      "##치든": 7574,
      "##침이": 7575,
      "##치는게": 7576,
      "##치지마": 7577,
      "##치말고": 7578,
      "##치있는": 7579,
      "##치뇬": 7580,
      "##치련": 7581,
      "##치참": 7582,
      "##칙은": 7583,
      "##치킨": 7584,
      "##치는듯": 7585,
      "##칙인데": 7586,
      "##치페이": 7587,
      "##및": 7588,
      "##미로": 7589,
      "##미를": 7590,
      "##미들은": 7591,
      "##미와": 7592,
      "##미투": 7593,
      "##미희": 7594,
      "##미는게": 7595,
      "##미개": 7596,
      "##미용": 7597,
      "##미처럼": 7598,
      "##미정도": 7599,
      "##미인가": 7600,
      "##미나가": 7601,
      "##미있어": 7602,
      "##믿기": 7603,
      "##미인은": 7604,
      "##미인이랑": 7605,
      "##밀은": 7606,
      "##밌는": 7607,
      "##조다": 7608,
      "##조사": 7609,
      "##좀마": 7610,
      "##조화": 7611,
      "##좋고": 7612,
      "##조기로": 7613,
      "##조팬": 7614,
      "##조샌": 7615,
      "##조아니었음": 7616,
      "##ᅳᆼ거": 7617,
      "##정한": 7618,
      "##정의": 7619,
      "##정한다": 7620,
      "##정들아": 7621,
      "##정준": 7622,
      "##정씨": 7623,
      "##정이나": 7624,
      "##정한거": 7625,
      "##정이지": 7626,
      "##정하나": 7627,
      "##정권": 7628,
      "##정적이": 7629,
      "##정했을까": 7630,
      "##정성매매": 7631,
      "##국가": 7632,
      "##국이나": 7633,
      "##국이다": 7634,
      "##국나가": 7635,
      "결과": 7636,
      "결단": 7637,
      "결별": 7638,
      "결론": 7639,
      "##래ㅠ": 7640,
      "##래다": 7641,
      "##래도": 7642,
      "##래로": 7643,
      "##랬다": 7644,
      "##래머": 7645,
      "##래지어": 7646,
      "##램프": 7647,
      "##래하는지": 7648,
      "##런지": 7649,
      "##런지도": 7650,
      "##히세요": 7651,
      "##히넘": 7652,
      "##히어로": 7653,
      "##무야": 7654,
      "##무진": 7655,
      "##무심": 7656,
      "##무인데": 7657,
      "##무형": 7658,
      "##무새": 7659,
      "##묵하": 7660,
      "##묵하고": 7661,
      "##무서운줄": 7662,
      "##무게지": 7663,
      "##무를수도": 7664,
      "##모가": 7665,
      "##모한": 7666,
      "##모로": 7667,
      "##모토": 7668,
      "##모를까": 7669,
      "##몸매": 7670,
      "##몸간": 7671,
      "##들은공": 7672,
      "아니지": 7673,
      "아니나": 7674,
      "아니니": 7675,
      "아니네": 7676,
      "아니야": 7677,
      "아니긴": 7678,
      "아니라고": 7679,
      "아니니까": 7680,
      "아니지만": 7681,
      "아니더": 7682,
      "아닙니다": 7683,
      "아니구만": 7684,
      "아니자나": 7685,
      "아니예요": 7686,
      "아니네ㅋㅋ": 7687,
      "아니였을": 7688,
      "아니구요": 7689,
      "아니었나": 7690,
      "아닐지": 7691,
      "아니거던": 7692,
      "너나": 7693,
      "너네": 7694,
      "넘마": 7695,
      "너한테": 7696,
      "너저": 7697,
      "너정도": 7698,
      "너덜": 7699,
      "넓고": 7700,
      "너거들조작": 7701,
      "요지": 7702,
      "요새": 7703,
      "요뇬": 7704,
      "요정이": 7705,
      "요리도": 7706,
      "요샌": 7707,
      "##년아": 7708,
      "##년에": 7709,
      "##년대": 7710,
      "##년놈이": 7711,
      "##년인지": 7712,
      "##년둘": 7713,
      "##년놈들이": 7714,
      "##년들이지": 7715,
      "##년생김": 7716,
      "##년나와": 7717,
      "##년안에": 7718,
      "##진도": 7719,
      "##진한": 7720,
      "##진모": 7721,
      "##진년": 7722,
      "##진것": 7723,
      "##진살": 7724,
      "##진이다": 7725,
      "##진이가": 7726,
      "##진하는데": 7727,
      "##진아도": 7728,
      "##진자안": 7729,
      "왜가": 7730,
      "왜저": 7731,
      "왜남자": 7732,
      "왜쳐": 7733,
      "왜하냐": 7734,
      "왜욕": 7735,
      "왜만나": 7736,
      "왜갑": 7737,
      "왜보냐": 7738,
      "왜년들의": 7739,
      "왜올려": 7740,
      "왜캐": 7741,
      "진리": 7742,
      "진한": 7743,
      "진화": 7744,
      "진작": 7745,
      "진위": 7746,
      "진즈": 7747,
      "진리는": 7748,
      "진솔": 7749,
      "진리다": 7750,
      "진정한": 7751,
      "진국이다": 7752,
      "##는데댓글이": 7753,
      "좋나": 7754,
      "좋냐": 7755,
      "좋치": 7756,
      "좋겠": 7757,
      "좋음": 7758,
      "좋으면": 7759,
      "좋겠지": 7760,
      "좋겠네": 7761,
      "좋을듯": 7762,
      "좋으니까": 7763,
      "좋을텐데": 7764,
      "좋단다": 7765,
      "좋으시네": 7766,
      "좋대디": 7767,
      "있니": 7768,
      "있으면": 7769,
      "있는게": 7770,
      "있구나": 7771,
      "있더라": 7772,
      "있는것": 7773,
      "있는거지": 7774,
      "있잖아": 7775,
      "있는지": 7776,
      "있나요": 7777,
      "있을듯": 7778,
      "있자나": 7779,
      "있듯이": 7780,
      "있었네": 7781,
      "있으면서": 7782,
      "있는걸까": 7783,
      "있으려": 7784,
      "있나봄": 7785,
      "있으신": 7786,
      "못했": 7787,
      "못살": 7788,
      "못한다": 7789,
      "못함": 7790,
      "못물": 7791,
      "못가는": 7792,
      "못돌": 7793,
      "못나오": 7794,
      "못된": 7795,
      "못낳": 7796,
      "못하는게": 7797,
      "못만나": 7798,
      "못낌": 7799,
      "못보는": 7800,
      "못했나": 7801,
      "못갖": 7802,
      "못사는": 7803,
      "못가고": 7804,
      "못났다": 7805,
      "못막": 7806,
      "못해보고": 7807,
      "못하다고": 7808,
      "못지키는": 7809,
      "못잊어서": 7810,
      "ㅋㅋㅋ남자": 7811,
      "ㅋㅋㅋ현무": 7812,
      "ㅋㅋㅋ여자는": 7813,
      "ㅋㅋㅋ옷": 7814,
      "ㅋㅋㅋ여자도": 7815,
      "ㅋㅋㅋ요즘": 7816,
      "##바래": 7817,
      "##바짜": 7818,
      "##바와": 7819,
      "##바르": 7820,
      "##바라고": 7821,
      "##박이": 7822,
      "##바알": 7823,
      "##바지는": 7824,
      "##바케": 7825,
      "##바닥": 7826,
      "##바떨고": 7827,
      "##바이벌": 7828,
      "##바라지만": 7829,
      "##바보가": 7830,
      "연재": 7831,
      "연들도": 7832,
      "연결": 7833,
      "연인이": 7834,
      "연기고": 7835,
      "연얘": 7836,
      "연세대": 7837,
      "연이도": 7838,
      "연약한": 7839,
      "연대생": 7840,
      "결혼에": 7841,
      "결혼하는": 7842,
      "결혼으로": 7843,
      "결혼안": 7844,
      "결혼했": 7845,
      "결혼과": 7846,
      "결혼한다": 7847,
      "결혼하는거": 7848,
      "결혼하나": 7849,
      "결혼발": 7850,
      "결혼반": 7851,
      "결혼하니": 7852,
      "결혼하라": 7853,
      "결혼해야": 7854,
      "결혼하시": 7855,
      "결혼하는데": 7856,
      "결혼때문에": 7857,
      "결혼했나": 7858,
      "결혼해야지": 7859,
      "결혼안하고": 7860,
      "결혼약": 7861,
      "결혼한다는": 7862,
      "결혼이라니": 7863,
      "결혼전제": 7864,
      "결혼상대면": 7865,
      "결혼사기로": 7866,
      "##여자로": 7867,
      "##여자의": 7868,
      "##여자들은": 7869,
      "##여자든": 7870,
      "##여자좀": 7871,
      "##여자들아": 7872,
      "##여자라도": 7873,
      "##여자보면": 7874,
      "##여자좋아": 7875,
      "##여자들이랑": 7876,
      "##여자친구": 7877,
      "##여자아이돌": 7878,
      "##여자인척": 7879,
      "해봐": 7880,
      "해투": 7881,
      "했다고": 7882,
      "해보고": 7883,
      "해결": 7884,
      "해두": 7885,
      "해놓고": 7886,
      "해줘야": 7887,
      "해줘라": 7888,
      "해가며": 7889,
      "해킹": 7890,
      "해야하는지": 7891,
      "해놓구": 7892,
      "해주는거지": 7893,
      "해보자": 7894,
      "해대서": 7895,
      "##테고": 7896,
      "##테데": 7897,
      "##테니까": 7898,
      "##람피": 7899,
      "##겠음": 7900,
      "##겠더라": 7901,
      "##겠나봐": 7902,
      "##겠으나": 7903,
      "##겠구먼": 7904,
      "##음과": 7905,
      "##음식": 7906,
      "##우에": 7907,
      "##우는거": 7908,
      "##우는게": 7909,
      "##우다니": 7910,
      "##우시다": 7911,
      "##우먼": 7912,
      "##욷이": 7913,
      "##우월": 7914,
      "##우회전": 7915,
      "##우싫다": 7916,
      "##우팬들": 7917,
      "##되도": 7918,
      "##되나": 7919,
      "##되서": 7920,
      "##되어": 7921,
      "##되는데": 7922,
      "##되있": 7923,
      "##되니까": 7924,
      "##됬다고": 7925,
      "##되니깐": 7926,
      "##됫다고": 7927,
      "##되겧ㄴ": 7928,
      "##짜로": 7929,
      "##짜르": 7930,
      "##짧은": 7931,
      "##유하": 7932,
      "##유미": 7933,
      "##유명": 7934,
      "##유리는": 7935,
      "##유공": 7936,
      "##유해보고": 7937,
      "##유전자": 7938,
      "##유하시구": 7939,
      "##유부녀": 7940,
      "##편없": 7941,
      "##편인데": 7942,
      "##편타": 7943,
      "##편식": 7944,
      "거지": 7945,
      "거거": 7946,
      "거기": 7947,
      "거임": 7948,
      "거린": 7949,
      "거물": 7950,
      "거구나": 7951,
      "거른": 7952,
      "거꾸": 7953,
      "거품": 7954,
      "거참": 7955,
      "거리네": 7956,
      "거기도": 7957,
      "거기로": 7958,
      "거기가": 7959,
      "거르세": 7960,
      "거리는거": 7961,
      "겁없는": 7962,
      "거렸는데": 7963,
      "거래다": 7964,
      "##겨져": 7965,
      "##겨놓고": 7966,
      "##겨놓": 7967,
      "##겨주면": 7968,
      "##겨주지": 7969,
      "##ᆼ이고": 7970,
      "##ᆼ이면": 7971,
      "##ᆼ이만": 7972,
      "##ᆼ입니다": 7973,
      "##ᆼ이시네": 7974,
      "##ᆼ일반": 7975,
      "미리": 7976,
      "미애": 7977,
      "미화": 7978,
      "미용": 7979,
      "미나가": 7980,
      "미끈": 7981,
      "믿기": 7982,
      "믿을": 7983,
      "미숙": 7984,
      "미드는건": 7985,
      "밀어": 7986,
      "믹키": 7987,
      "미칀": 7988,
      "미만까": 7989,
      "미인을": 7990,
      "미성년": 7991,
      "미치게": 7992,
      "미진년": 7993,
      "##있던": 7994,
      "##있겠다": 7995,
      "##있겠지": 7996,
      "##있어서": 7997,
      "##있으니": 7998,
      "##있는거지": 7999,
      "##있죠": 8000,
      "##있나요": 8001,
      "##있겠냐": 8002,
      "##있으니까": 8003,
      "##있도록": 8004,
      "인해": 8005,
      "인연": 8006,
      "인민": 8007,
      "인식": 8008,
      "인형": 8009,
      "인위": 8010,
      "인격": 8011,
      "인별": 8012,
      "인지도": 8013,
      "인건가": 8014,
      "인가보네": 8015,
      "인지부": 8016,
      "생오": 8017,
      "생글": 8018,
      "생명": 8019,
      "생계": 8020,
      "생물": 8021,
      "생색": 8022,
      "생가해봐": 8023,
      "생수머": 8024,
      "##적이라": 8025,
      "##적이다": 8026,
      "##적이지": 8027,
      "##적이네": 8028,
      "##적이고": 8029,
      "##적프로": 8030,
      "##적뽀": 8031,
      "##적지표": 8032,
      "##적으론": 8033,
      "##세고": 8034,
      "##세아": 8035,
      "##섹시": 8036,
      "##세전": 8037,
      "##세영": 8038,
      "##세당": 8039,
      "##세윤": 8040,
      "##세보인다": 8041,
      "##세한다는": 8042,
      "##세령이": 8043,
      "##세미인이랑": 8044,
      "김애": 8045,
      "김차": 8046,
      "김영": 8047,
      "김준": 8048,
      "김종": 8049,
      "김희": 8050,
      "김혜": 8051,
      "김새": 8052,
      "김경": 8053,
      "김포": 8054,
      "김학": 8055,
      "김흥": 8056,
      "김지영": 8057,
      "김완": 8058,
      "김지원": 8059,
      "김구라가": 8060,
      "김상중": 8061,
      "김제동도": 8062,
      "##같아": 8063,
      "##같네": 8064,
      "##같냐": 8065,
      "##같으면": 8066,
      "##같더라": 8067,
      "##같던데": 8068,
      "##같다는": 8069,
      "없나": 8070,
      "없냐": 8071,
      "없노": 8072,
      "없으면": 8073,
      "없긴": 8074,
      "없던": 8075,
      "없어서": 8076,
      "없구만": 8077,
      "없습니다": 8078,
      "없나요": 8079,
      "없자나": 8080,
      "없으니까": 8081,
      "없는거야": 8082,
      "없듯이": 8083,
      "없으면서": 8084,
      "없나보다": 8085,
      "없나보네": 8086,
      "없는것들이": 8087,
      "없으시나보다": 8088,
      "없을거": 8089,
      "없는데댓글이": 8090,
      "살지": 8091,
      "살어": 8092,
      "살리": 8093,
      "살기": 8094,
      "살좀": 8095,
      "살면서": 8096,
      "살텐데": 8097,
      "살다가": 8098,
      "살찌": 8099,
      "살려고": 8100,
      "살아라": 8101,
      "살려면": 8102,
      "살짝": 8103,
      "살땐": 8104,
      "살지말": 8105,
      "살쪘다": 8106,
      "살자신이": 8107,
      "살거고": 8108,
      "살만뺀": 8109,
      "정국": 8110,
      "정력": 8111,
      "정작": 8112,
      "정버": 8113,
      "정해야": 8114,
      "정권": 8115,
      "정당한": 8116,
      "정력을": 8117,
      "정착": 8118,
      "정유진": 8119,
      "정나미": 8120,
      "정보를": 8121,
      "정의가": 8122,
      "정치참": 8123,
      "정유미": 8124,
      "##그도": 8125,
      "##그매": 8126,
      "##그럽": 8127,
      "##그것도": 8128,
      "##긋다": 8129,
      "##그외": 8130,
      "##그라이": 8131,
      "##긋네": 8132,
      "##그들끼리": 8133,
      "##그놈인데": 8134,
      "##그리구": 8135,
      "##그만해": 8136,
      "##옴": 8137,
      "##오나": 8138,
      "##오래": 8139,
      "##오빠": 8140,
      "##오달": 8141,
      "##오름": 8142,
      "##오증": 8143,
      "##오창": 8144,
      "##옵션": 8145,
      "##오지긴": 8146,
      "애는": 8147,
      "애가": 8148,
      "애나": 8149,
      "애만": 8150,
      "애인": 8151,
      "애하고": 8152,
      "애들은": 8153,
      "애처": 8154,
      "애원": 8155,
      "애못": 8156,
      "애부터": 8157,
      "애가지": 8158,
      "애들만": 8159,
      "애엄마": 8160,
      "애들을": 8161,
      "애기도": 8162,
      "애먼": 8163,
      "애잔": 8164,
      "애새끼": 8165,
      "애낳고": 8166,
      "애인들": 8167,
      "애키우": 8168,
      "애엄마가": 8169,
      "애죽이": 8170,
      "애나보지": 8171,
      "애아빠": 8172,
      "애생긴": 8173,
      "애정했을까": 8174,
      "애무인데": 8175,
      "##심해라": 8176,
      "##심하니": 8177,
      "##심하자": 8178,
      "##심없이": 8179,
      "##심이이가": 8180,
      "그러니": 8181,
      "그러냐": 8182,
      "그러면서": 8183,
      "그러개": 8184,
      "그러다가": 8185,
      "그러는거지": 8186,
      "그러는거임": 8187,
      "그렇다": 8188,
      "그렇다고": 8189,
      "노인": 8190,
      "노노": 8191,
      "노재": 8192,
      "노빠": 8193,
      "노팬": 8194,
      "노릇": 8195,
      "노이즈": 8196,
      "노사연도": 8197,
      "##임현": 8198,
      "##임인가": 8199,
      "##임에도": 8200,
      "##임자체가": 8201,
      "##임으루": 8202,
      "무대": 8203,
      "무안": 8204,
      "무르": 8205,
      "무방": 8206,
      "무례": 8207,
      "무도가": 8208,
      "무의식": 8209,
      "무매력": 8210,
      "무지펄": 8211,
      "무고죄": 8212,
      "무도전": 8213,
      "무엇인지": 8214,
      "무기인": 8215,
      "무데기로": 8216,
      "무인도가서": 8217,
      "만화": 8218,
      "만든": 8219,
      "만난": 8220,
      "만져": 8221,
      "만년이": 8222,
      "만약": 8223,
      "만드는": 8224,
      "만드는거": 8225,
      "만악의": 8226,
      "만지러": 8227,
      "만고의": 8228,
      "만들어서": 8229,
      "만거같이": 8230,
      "만삭이": 8231,
      "만신창": 8232,
      "부인": 8233,
      "부타": 8234,
      "부실": 8235,
      "부릴": 8236,
      "부류": 8237,
      "부인이": 8238,
      "부끄": 8239,
      "부푼": 8240,
      "부풀": 8241,
      "부위에": 8242,
      "북어": 8243,
      "부서지게": 8244,
      "##할지": 8245,
      "##할걸": 8246,
      "##할텐데": 8247,
      "##할꺼": 8248,
      "##할려고": 8249,
      "##할뿐": 8250,
      "##할거같다": 8251,
      "##할것같은데": 8252,
      "##할것들이": 8253,
      "주면": 8254,
      "주로": 8255,
      "주말": 8256,
      "주현": 8257,
      "주워": 8258,
      "주세요": 8259,
      "주물": 8260,
      "주체": 8261,
      "주겠다": 8262,
      "주변": 8263,
      "주취": 8264,
      "주제가": 8265,
      "주제에": 8266,
      "주위에": 8267,
      "주댕이": 8268,
      "주시청": 8269,
      "주부들아": 8270,
      "주제파": 8271,
      "주무를수도": 8272,
      "주진모": 8273,
      "##애좋아": 8274,
      "##애들이나": 8275,
      "##애초에": 8276,
      "##애라니": 8277,
      "##애야뭐": 8278,
      "##왔다고": 8279,
      "##왔는데": 8280,
      "##와줘야": 8281,
      "##으로는": 8282,
      "##으로도": 8283,
      "##으로좀": 8284,
      "##으로따": 8285,
      "##으로붙": 8286,
      "##으로조팬": 8287,
      "##노합니다": 8288,
      "##노릇": 8289,
      "##높은거": 8290,
      "##소니": 8291,
      "##소하기": 8292,
      "##예로": 8293,
      "##예여": 8294,
      "##예들만": 8295,
      "##예전에": 8296,
      "##예은이": 8297,
      "##옌이라고": 8298,
      "##안으로": 8299,
      "##안하면": 8300,
      "##안갈": 8301,
      "##안본": 8302,
      "##안하나": 8303,
      "##안가는": 8304,
      "##안해도": 8305,
      "##안이고": 8306,
      "##안좋아": 8307,
      "##안보여": 8308,
      "##안봐도": 8309,
      "##안됨": 8310,
      "##안보냐": 8311,
      "##안받고": 8312,
      "##안가는거": 8313,
      "##안으려": 8314,
      "##안에서도": 8315,
      "##안했으니": 8316,
      "##안돼니": 8317,
      "##안보일": 8318,
      "##안생길": 8319,
      "##안하는넘들": 8320,
      "##내들": 8321,
      "##내보": 8322,
      "##내냐": 8323,
      "##내미": 8324,
      "##내니까": 8325,
      "##내린": 8326,
      "##내용": 8327,
      "##내목": 8328,
      "##내겠네": 8329,
      "##내나네": 8330,
      "##내나보다": 8331,
      "##내려요": 8332,
      "한남자": 8333,
      "한남한테": 8334,
      "한남과": 8335,
      "한남피": 8336,
      "한남보다": 8337,
      "한남새": 8338,
      "한남민국": 8339,
      "한남에게": 8340,
      "한남소리": 8341,
      "한남퇘지": 8342,
      "한남끼리": 8343,
      "한남이지만": 8344,
      "한남자로": 8345,
      "한남내나네": 8346,
      "같지": 8347,
      "같고": 8348,
      "같냐": 8349,
      "같진": 8350,
      "같노": 8351,
      "같다고": 8352,
      "같던데": 8353,
      "같지도": 8354,
      "같더니": 8355,
      "전주": 8356,
      "전화": 8357,
      "전과": 8358,
      "전문": 8359,
      "전작": 8360,
      "전체": 8361,
      "전반": 8362,
      "전복": 8363,
      "전적으로": 8364,
      "전액": 8365,
      "전남편": 8366,
      "전용이": 8367,
      "전향이": 8368,
      "전쟁": 8369,
      "전남친": 8370,
      "전국에": 8371,
      "전자발": 8372,
      "전도연도": 8373,
      "전기오는": 8374,
      "전생에": 8375,
      "전성기가": 8376,
      "전여자친구": 8377,
      "ㅋㅋ좀": 8378,
      "ㅋㅋ아니": 8379,
      "ㅋㅋ같이": 8380,
      "ㅋㅋ메": 8381,
      "ㅋㅋ웃": 8382,
      "ㅋㅋ탈": 8383,
      "##르는": 8384,
      "##르다": 8385,
      "##르노": 8386,
      "##르투": 8387,
      "##르메": 8388,
      "##르토": 8389,
      "##릇도": 8390,
      "##르몬": 8391,
      "##르를르르": 8392,
      "뭐고": 8393,
      "뭐라": 8394,
      "뭐하는": 8395,
      "뭐라도": 8396,
      "뭐하시": 8397,
      "뭣도": 8398,
      "뭐하러": 8399,
      "뭐먹었": 8400,
      "뭣때문에": 8401,
      "뭐하캬": 8402,
      "뭐어쩌": 8403,
      "뭐바라고": 8404,
      "뭐할려고": 8405,
      "옷": 8406,
      "오연": 8407,
      "오영": 8408,
      "오씨": 8409,
      "오버": 8410,
      "오랄": 8411,
      "오겠네": 8412,
      "오너": 8413,
      "오메": 8414,
      "오초": 8415,
      "오손": 8416,
      "오죽": 8417,
      "오승": 8418,
      "오져서": 8419,
      "오양은": 8420,
      "옮겨": 8421,
      "오는시": 8422,
      "오리와": 8423,
      "오해하지": 8424,
      "오냐오": 8425,
      "오상진": 8426,
      "오바떨고": 8427,
      "##맨": 8428,
      "##매갈": 8429,
      "##매합니다": 8430,
      "##맥힌": 8431,
      "##매미들은": 8432,
      "##말이": 8433,
      "##말건": 8434,
      "##말듯": 8435,
      "##말든": 8436,
      "##말하다": 8437,
      "##말하는거": 8438,
      "##말아주": 8439,
      "##말하는것": 8440,
      "##말이되": 8441,
      "##말이있": 8442,
      "##말하지말": 8443,
      "##말탐": 8444,
      "##말지ㅡ": 8445,
      "##집이": 8446,
      "##집들은": 8447,
      "##집으로": 8448,
      "##집알": 8449,
      "##듯한": 8450,
      "##듯저": 8451,
      "##듯유리는": 8452,
      "##듯그리구": 8453,
      "낼": 8454,
      "내도": 8455,
      "내조": 8456,
      "내연": 8457,
      "내리는": 8458,
      "내려고": 8459,
      "내릴": 8460,
      "내나이": 8461,
      "내취": 8462,
      "내색": 8463,
      "내놓": 8464,
      "내용이": 8465,
      "내면이": 8466,
      "내마누라": 8467,
      "내조가": 8468,
      "내려야": 8469,
      "내린거": 8470,
      "내버려": 8471,
      "냅두지": 8472,
      "내리막": 8473,
      "내로남": 8474,
      "내스탈": 8475,
      "내숭덩어리": 8476,
      "내미는게": 8477,
      "##현이": 8478,
      "##현도": 8479,
      "##현한": 8480,
      "##현누": 8481,
      "##현이형": 8482,
      "아주잘": 8483,
      "아주ㅡㅡ": 8484,
      "아줌매": 8485,
      "아주기본": 8486,
      "아줌니들": 8487,
      "아주매미들은": 8488,
      "진짜재": 8489,
      "진짴ㅋㅋㅋㅋㅋㅋㅋㅋ": 8490,
      "진짜가스": 8491,
      "진짜싫음": 8492,
      "진짜13년": 8493,
      "진짜이혼": 8494,
      "진짜미인은": 8495,
      "##처하고": 8496,
      "##처먹": 8497,
      "##처해라": 8498,
      "##첫다고": 8499,
      "##처주느라": 8500,
      "얼래": 8501,
      "얼어주": 8502,
      "얼매나": 8503,
      "##간녀": 8504,
      "##간하게": 8505,
      "##간다는": 8506,
      "##간뇬": 8507,
      "##간팬": 8508,
      "##간지띠": 8509,
      "##긴가": 8510,
      "##긴하지": 8511,
      "##긴한거": 8512,
      "##긴크": 8513,
      "##긴뇬": 8514,
      "##긴햇는데": 8515,
      "##ᆨ식": 8516,
      "##ᆨ시히": 8517,
      "##ᆨ시기사": 8518,
      "##없네": 8519,
      "##없냐": 8520,
      "##없는데": 8521,
      "##없으면": 8522,
      "##없긴": 8523,
      "##없는것": 8524,
      "##없을듯": 8525,
      "##력단": 8526,
      "##력파": 8527,
      "##력관계": 8528,
      "##력있게": 8529,
      "많으면": 8530,
      "많지만": 8531,
      "많더라": 8532,
      "많네요": 8533,
      "많을듯": 8534,
      "많을까": 8535,
      "니는": 8536,
      "니도": 8537,
      "니하고": 8538,
      "니미": 8539,
      "니같은": 8540,
      "니들도": 8541,
      "니들이랑": 8542,
      "니수준": 8543,
      "님들": 8544,
      "님자": 8545,
      "##황": 8546,
      "##화라": 8547,
      "##화로": 8548,
      "##화냐": 8549,
      "##화장": 8550,
      "##화번": 8551,
      "##확한": 8552,
      "##화가없": 8553,
      "##홧티": 8554,
      "##화를꾸겨신": 8555,
      "##글고": 8556,
      "##글에서": 8557,
      "##글시켜": 8558,
      "##글밖에": 8559,
      "##먹자": 8560,
      "##먹으면": 8561,
      "##먹는건": 8562,
      "##먹어서": 8563,
      "##먹더니": 8564,
      "##먹는다": 8565,
      "##먹듯이": 8566,
      "##먹기만": 8567,
      "##먹으면서": 8568,
      "##먹으라고": 8569,
      "##먹이는것도": 8570,
      "##먹는거말고": 8571,
      "##하면안되": 8572,
      "##하면다그러": 8573,
      "일도": 8574,
      "일에": 8575,
      "일하고": 8576,
      "일동": 8577,
      "일종": 8578,
      "일이나": 8579,
      "일관": 8580,
      "일찌": 8581,
      "일방": 8582,
      "일이야": 8583,
      "일베": 8584,
      "일석이": 8585,
      "일곱번": 8586,
      "일생을": 8587,
      "##에서의": 8588,
      "##에서까지": 8589,
      "##연하": 8590,
      "##연상": 8591,
      "##연히": 8592,
      "##연시켜": 8593,
      "##연습": 8594,
      "##연언니": 8595,
      "화력": 8596,
      "화재": 8597,
      "화목": 8598,
      "화류": 8599,
      "화교": 8600,
      "화나요": 8601,
      "화자는": 8602,
      "화면이": 8603,
      "활동": 8604,
      "화면에": 8605,
      "화려한": 8606,
      "화내겠네": 8607,
      "확시히": 8608,
      "##던거": 8609,
      "##라고는": 8610,
      "##라고하면": 8611,
      "##라고해라": 8612,
      "##때가": 8613,
      "##때에": 8614,
      "##때부터": 8615,
      "##때리네": 8616,
      "##때릴듯": 8617,
      "##비들": 8618,
      "##비같은": 8619,
      "##비실": 8620,
      "##비면서": 8621,
      "##비해라": 8622,
      "##비호": 8623,
      "##비언": 8624,
      "##비리에": 8625,
      "##비만률": 8626,
      "##각에": 8627,
      "##각하는": 8628,
      "##각하다": 8629,
      "##각했어": 8630,
      "##각지대": 8631,
      "##각도의": 8632,
      "##한텐": 8633,
      "##한테는": 8634,
      "##한테가서": 8635,
      "수가": 8636,
      "수동": 8637,
      "수작": 8638,
      "수위": 8639,
      "수박": 8640,
      "수입": 8641,
      "수많은": 8642,
      "수술": 8643,
      "수지도": 8644,
      "수백": 8645,
      "수사는": 8646,
      "수만명": 8647,
      "숙연": 8648,
      "수시로": 8649,
      "수상하고": 8650,
      "수신료": 8651,
      "수있도록": 8652,
      "##냥당한거": 8653,
      "비는": 8654,
      "비해": 8655,
      "비실": 8656,
      "비키": 8657,
      "비위": 8658,
      "비켜": 8659,
      "비교": 8660,
      "비추": 8661,
      "비아이": 8662,
      "비극": 8663,
      "비꼬": 8664,
      "비싼": 8665,
      "비집고": 8666,
      "빙의": 8667,
      "빛이나": 8668,
      "비하할": 8669,
      "비아냥": 8670,
      "비주얼": 8671,
      "비밀은": 8672,
      "비비면서": 8673,
      "예민": 8674,
      "예전": 8675,
      "예술": 8676,
      "옛고": 8677,
      "예시네": 8678,
      "옛어": 8679,
      "옛날": 8680,
      "예로부터": 8681,
      "옛말": 8682,
      "예상했는데": 8683,
      "##봐서": 8684,
      "##봐요": 8685,
      "##봤다": 8686,
      "##봐야지": 8687,
      "##봐ㅠㅠ": 8688,
      "##봐놓고": 8689,
      "##봤지만": 8690,
      "##봣자": 8691,
      "##봐주나요": 8692,
      "##일이": 8693,
      "##일도": 8694,
      "##일시": 8695,
      "##일로": 8696,
      "##일을": 8697,
      "##일하고": 8698,
      "##일듯": 8699,
      "##일반": 8700,
      "##일놈": 8701,
      "##일련": 8702,
      "##일이냐": 8703,
      "##일땐": 8704,
      "##일인가요": 8705,
      "##일때는": 8706,
      "##일것을": 8707,
      "##일주일": 8708,
      "##것하고": 8709,
      "##것이다": 8710,
      "##것가지고": 8711,
      "##것같던데": 8712,
      "되나": 8713,
      "되니": 8714,
      "되야": 8715,
      "되려": 8716,
      "되었": 8717,
      "되물": 8718,
      "되야지": 8719,
      "되겠다": 8720,
      "되겠지": 8721,
      "되나요": 8722,
      "되어가": 8723,
      "되거든": 8724,
      "됬을까": 8725,
      "되었다고": 8726,
      "되살아": 8727,
      "되도록": 8728,
      "되도않": 8729,
      "되는거네ㅋㅋㅋㅋㅋ": 8730,
      "되긋네": 8731,
      "돈은": 8732,
      "돈을": 8733,
      "돈없는": 8734,
      "돈이야": 8735,
      "돈이라도": 8736,
      "돈죽": 8737,
      "돈일수도": 8738,
      "돈갚아라": 8739,
      "돈없으면": 8740,
      "피의": 8741,
      "피하고": 8742,
      "피플": 8743,
      "피터": 8744,
      "피는건": 8745,
      "피아식": 8746,
      "피는거다": 8747,
      "##분에": 8748,
      "##분한": 8749,
      "##분모": 8750,
      "##분하나": 8751,
      "##분이지만": 8752,
      "##분한거고": 8753,
      "##분도참": 8754,
      "여자는돈": 8755,
      "##했지": 8756,
      "##했구만": 8757,
      "##했는지": 8758,
      "##했을텐데": 8759,
      "##했드만": 8760,
      "##했었는데": 8761,
      "##했는갑네": 8762,
      "우동": 8763,
      "우울": 8764,
      "우루": 8765,
      "우리는": 8766,
      "우빈": 8767,
      "우찬": 8768,
      "우승": 8769,
      "우상이": 8770,
      "우르르": 8771,
      "우웨": 8772,
      "우야노": 8773,
      "우진이가": 8774,
      "우유공": 8775,
      "우르를르르": 8776,
      "우연히": 8777,
      "이뿌기만": 8778,
      "이빨까": 8779,
      "이뿐여자": 8780,
      "이쁭거": 8781,
      "여자들ㅋㅋ": 8782,
      "여자들에": 8783,
      "여자들말": 8784,
      "여자들과": 8785,
      "여자들것도": 8786,
      "여자들한데": 8787,
      "~~?": 8788,
      "~~^^;": 8789,
      "~~,,": 8790,
      "개가": 8791,
      "개년": 8792,
      "개같은": 8793,
      "개피": 8794,
      "개머": 8795,
      "개패": 8796,
      "개극": 8797,
      "개저씨": 8798,
      "개돼지": 8799,
      "개꼴": 8800,
      "개판": 8801,
      "개솔": 8802,
      "개고생": 8803,
      "개념": 8804,
      "개쩌네": 8805,
      "개나소나": 8806,
      "개무시": 8807,
      "개소리는": 8808,
      "개때처럼": 8809,
      "개ooo": 8810,
      "개역겨": 8811,
      "개불쌍하다": 8812,
      "갠적으로": 8813,
      "개촐": 8814,
      "개쩐다": 8815,
      "개ㅈㄹ하는": 8816,
      "개이득": 8817,
      "개한심": 8818,
      "개성이라고": 8819,
      "##장도": 8820,
      "##장은": 8821,
      "##장하고": 8822,
      "##장제": 8823,
      "##장에서": 8824,
      "##장창": 8825,
      "##장폐": 8826,
      "##장드라마": 8827,
      "##장시키": 8828,
      "##장사과": 8829,
      "고정": 8830,
      "고운": 8831,
      "고개": 8832,
      "고위": 8833,
      "고달": 8834,
      "고통": 8835,
      "고추": 8836,
      "고치고": 8837,
      "고락": 8838,
      "고백": 8839,
      "고쳐서": 8840,
      "곳에서": 8841,
      "고양이": 8842,
      "고치면": 8843,
      "고아원": 8844,
      "고시공": 8845,
      "고해한다": 8846,
      "고수하고": 8847,
      "고우시다": 8848,
      "##지만술": 8849,
      "임을": 8850,
      "임금": 8851,
      "임예진": 8852,
      "임세령이": 8853,
      "남편을": 8854,
      "남편까지": 8855,
      "남편이고": 8856,
      "남편에게": 8857,
      "남편분들": 8858,
      "남편한데": 8859,
      "남편손": 8860,
      "남편이라는": 8861,
      "남편관리": 8862,
      "남편돈으로": 8863,
      "남편홀": 8864,
      "남편사고": 8865,
      "남편의이미지": 8866,
      "더욕": 8867,
      "더쪽": 8868,
      "더러워": 8869,
      "더이상": 8870,
      "더문제": 8871,
      "더러우": 8872,
      "더생김": 8873,
      "덥쳐": 8874,
      "더치페이": 8875,
      "말만": 8876,
      "말을": 8877,
      "말하고": 8878,
      "말임": 8879,
      "말하면": 8880,
      "말든": 8881,
      "말한다": 8882,
      "말좀": 8883,
      "말버": 8884,
      "말하는거": 8885,
      "말이지": 8886,
      "말해도": 8887,
      "말리는": 8888,
      "말하면서": 8889,
      "말아라": 8890,
      "말싸": 8891,
      "말라서": 8892,
      "말거나": 8893,
      "말하는것": 8894,
      "말하는사람": 8895,
      "말쎄": 8896,
      "말이되": 8897,
      "말아야지": 8898,
      "말했을까": 8899,
      "말장난": 8900,
      "말이많네": 8901,
      "말다투": 8902,
      "말라야": 8903,
      "말아먹지": 8904,
      "말세당": 8905,
      "말그라이": 8906,
      "유니": 8907,
      "유민": 8908,
      "유영": 8909,
      "유난": 8910,
      "유희": 8911,
      "유행": 8912,
      "유두": 8913,
      "유권": 8914,
      "유포": 8915,
      "유승": 8916,
      "유책": 8917,
      "유전자": 8918,
      "율희": 8919,
      "유지하고": 8920,
      "##곽": 8921,
      "##과는": 8922,
      "##과하다": 8923,
      "##과결혼": 8924,
      "##과땅": 8925,
      "구걸": 8926,
      "구박": 8927,
      "구경": 8928,
      "구강": 8929,
      "구슬": 8930,
      "구역": 8931,
      "구해줘": 8932,
      "구했네": 8933,
      "구속은": 8934,
      "구멍": 8935,
      "굶어": 8936,
      "구우우": 8937,
      "굼미": 8938,
      "구하라도": 8939,
      "구해선": 8940,
      "구글에서": 8941,
      "##원이": 8942,
      "##원으로": 8943,
      "##원영": 8944,
      "##원가서": 8945,
      "##원합니다": 8946,
      "##원선생": 8947,
      "##원정성매매": 8948,
      "##민정": 8949,
      "##민현": 8950,
      "##민같은": 8951,
      "##민이어": 8952,
      "##민여자의": 8953,
      "##전적": 8954,
      "##전없이": 8955,
      "##전화번": 8956,
      "##살에": 8957,
      "##살람": 8958,
      "##살인데": 8959,
      "##살부터": 8960,
      "##살아라": 8961,
      "##살이상": 8962,
      "##살려면": 8963,
      "##살이지만": 8964,
      "##살것같다": 8965,
      "##살지ㅋ": 8966,
      "##살해이고": 8967,
      "##살내나보다": 8968,
      "##배워": 8969,
      "##배피": 8970,
      "##배놔": 8971,
      "##배자들": 8972,
      "##배였을": 8973,
      "##배놔라": 8974,
      "##배틀": 8975,
      "##차이": 8976,
      "##차는": 8977,
      "##차별": 8978,
      "##차려라": 8979,
      "##차이라니": 8980,
      "##찾아": 8981,
      "##차리는게": 8982,
      "##차원에서": 8983,
      "##차예련이": 8984,
      "##차있겠지": 8985,
      "##착식": 8986,
      "나이고": 8987,
      "나이인데": 8988,
      "나이든": 8989,
      "나이두": 8990,
      "나이먹고": 8991,
      "나이자나": 8992,
      "나이먹은": 8993,
      "나이쳐먹고": 8994,
      "나이어리고": 8995,
      "나이먹으면": 8996,
      "##린게": 8997,
      "##린데": 8998,
[...]
